<unk>	0
<s>	0
</s>	0
<0x00>	0
<0x01>	0
<0x02>	0
<0x03>	0
<0x04>	0
<0x05>	0
<0x06>	0
<0x07>	0
<0x08>	0
<0x09>	0
<0x0A>	0
<0x0B>	0
<0x0C>	0
<0x0D>	0
<0x0E>	0
<0x0F>	0
<0x10>	0
<0x11>	0
<0x12>	0
<0x13>	0
<0x14>	0
<0x15>	0
<0x16>	0
<0x17>	0
<0x18>	0
<0x19>	0
<0x1A>	0
<0x1B>	0
<0x1C>	0
<0x1D>	0
<0x1E>	0
<0x1F>	0
<0x20>	0
<0x21>	0
<0x22>	0
<0x23>	0
<0x24>	0
<0x25>	0
<0x26>	0
<0x27>	0
<0x28>	0
<0x29>	0
<0x2A>	0
<0x2B>	0
<0x2C>	0
<0x2D>	0
<0x2E>	0
<0x2F>	0
<0x30>	0
<0x31>	0
<0x32>	0
<0x33>	0
<0x34>	0
<0x35>	0
<0x36>	0
<0x37>	0
<0x38>	0
<0x39>	0
<0x3A>	0
<0x3B>	0
<0x3C>	0
<0x3D>	0
<0x3E>	0
<0x3F>	0
<0x40>	0
<0x41>	0
<0x42>	0
<0x43>	0
<0x44>	0
<0x45>	0
<0x46>	0
<0x47>	0
<0x48>	0
<0x49>	0
<0x4A>	0
<0x4B>	0
<0x4C>	0
<0x4D>	0
<0x4E>	0
<0x4F>	0
<0x50>	0
<0x51>	0
<0x52>	0
<0x53>	0
<0x54>	0
<0x55>	0
<0x56>	0
<0x57>	0
<0x58>	0
<0x59>	0
<0x5A>	0
<0x5B>	0
<0x5C>	0
<0x5D>	0
<0x5E>	0
<0x5F>	0
<0x60>	0
<0x61>	0
<0x62>	0
<0x63>	0
<0x64>	0
<0x65>	0
<0x66>	0
<0x67>	0
<0x68>	0
<0x69>	0
<0x6A>	0
<0x6B>	0
<0x6C>	0
<0x6D>	0
<0x6E>	0
<0x6F>	0
<0x70>	0
<0x71>	0
<0x72>	0
<0x73>	0
<0x74>	0
<0x75>	0
<0x76>	0
<0x77>	0
<0x78>	0
<0x79>	0
<0x7A>	0
<0x7B>	0
<0x7C>	0
<0x7D>	0
<0x7E>	0
<0x7F>	0
<0x80>	0
<0x81>	0
<0x82>	0
<0x83>	0
<0x84>	0
<0x85>	0
<0x86>	0
<0x87>	0
<0x88>	0
<0x89>	0
<0x8A>	0
<0x8B>	0
<0x8C>	0
<0x8D>	0
<0x8E>	0
<0x8F>	0
<0x90>	0
<0x91>	0
<0x92>	0
<0x93>	0
<0x94>	0
<0x95>	0
<0x96>	0
<0x97>	0
<0x98>	0
<0x99>	0
<0x9A>	0
<0x9B>	0
<0x9C>	0
<0x9D>	0
<0x9E>	0
<0x9F>	0
<0xA0>	0
<0xA1>	0
<0xA2>	0
<0xA3>	0
<0xA4>	0
<0xA5>	0
<0xA6>	0
<0xA7>	0
<0xA8>	0
<0xA9>	0
<0xAA>	0
<0xAB>	0
<0xAC>	0
<0xAD>	0
<0xAE>	0
<0xAF>	0
<0xB0>	0
<0xB1>	0
<0xB2>	0
<0xB3>	0
<0xB4>	0
<0xB5>	0
<0xB6>	0
<0xB7>	0
<0xB8>	0
<0xB9>	0
<0xBA>	0
<0xBB>	0
<0xBC>	0
<0xBD>	0
<0xBE>	0
<0xBF>	0
<0xC0>	0
<0xC1>	0
<0xC2>	0
<0xC3>	0
<0xC4>	0
<0xC5>	0
<0xC6>	0
<0xC7>	0
<0xC8>	0
<0xC9>	0
<0xCA>	0
<0xCB>	0
<0xCC>	0
<0xCD>	0
<0xCE>	0
<0xCF>	0
<0xD0>	0
<0xD1>	0
<0xD2>	0
<0xD3>	0
<0xD4>	0
<0xD5>	0
<0xD6>	0
<0xD7>	0
<0xD8>	0
<0xD9>	0
<0xDA>	0
<0xDB>	0
<0xDC>	0
<0xDD>	0
<0xDE>	0
<0xDF>	0
<0xE0>	0
<0xE1>	0
<0xE2>	0
<0xE3>	0
<0xE4>	0
<0xE5>	0
<0xE6>	0
<0xE7>	0
<0xE8>	0
<0xE9>	0
<0xEA>	0
<0xEB>	0
<0xEC>	0
<0xED>	0
<0xEE>	0
<0xEF>	0
<0xF0>	0
<0xF1>	0
<0xF2>	0
<0xF3>	0
<0xF4>	0
<0xF5>	0
<0xF6>	0
<0xF7>	0
<0xF8>	0
<0xF9>	0
<0xFA>	0
<0xFB>	0
<0xFC>	0
<0xFD>	0
<0xFE>	0
<0xFF>	0
▁	-3.32493
.	-3.33054
,	-3.35848
▁w	-3.91252
▁i	-4.2878
a	-4.35221
▁z	-4.43679
▁na	-4.46866
y	-4.71153
u	-4.74803
▁do	-4.7645
▁się	-4.83626
▁nie	-4.88824
m	-4.97331
0	-5.00531
1	-5.06138
ch	-5.23829
▁to	-5.25754
▁po	-5.27495
▁o	-5.28791
i	-5.31026
▁jest	-5.31084
e	-5.33511
2	-5.34683
j	-5.37424
▁za	-5.38396
ć	-5.45196
ów	-5.48605
em	-5.59106
nie	-5.60313
▁a	-5.61816
s	-5.62532
▁że	-5.6762
▁od	-5.6838
na	-5.71858
o	-5.75575
▁(	-5.76868
-	-5.77999
ą	-5.81708
ę	-5.82548
:	-5.87304
ne	-5.89961
3	-5.94109
5	-5.96065
ł	-5.96763
go	-5.9949
z	-6.00806
li	-6.02096
w	-6.02628
t	-6.05149
ka	-6.07913
▁jak	-6.08484
ki	-6.09085
▁u	-6.0922
▁-	-6.09273
d	-6.11053
 	-6.11644
▁wy	-6.12177
4	-6.123
c	-6.12812
k	-6.1415
9	-6.14851
mi	-6.15396
)	-6.16529
ny	-6.19899
nia	-6.20239
▁przy	-6.21161
▁dla	-6.21364
ach	-6.23181
?	-6.28597
n	-6.28653
▁co	-6.29957
sz	-6.32003
▁ma	-6.32286
▁s	-6.32349
6	-6.32961
▁prze	-6.33632
8	-6.3561
▁są	-6.35842
▁przez	-6.36037
▁pod	-6.38045
ła	-6.40765
p	-6.41247
ie	-6.41835
l	-6.41885
▁lub	-6.4459
ami	-6.45825
▁–	-6.45903
g	-6.46342
7	-6.47263
▁ale	-6.48952
ni	-6.50331
my	-6.5182
▁tym	-6.54531
cie	-6.55864
owe	-6.56811
▁oraz	-6.58974
▁czy	-6.62117
ce	-6.62961
ją	-6.65549
nych	-6.6572
ek	-6.69318
le	-6.70458
▁może	-6.70471
b	-6.72783
ło	-6.73578
▁tak	-6.74162
▁„	-6.74997
owych	-6.7681
▁ze	-6.77472
r	-6.79661
no	-6.82569
▁które	-6.85124
▁tego	-6.85785
▁mi	-6.85994
ną	-6.86649
owy	-6.8732
!	-6.92808
enia	-6.935
▁bo	-6.94006
ta	-6.94555
ły	-6.94689
▁być	-6.96736
/	-6.98358
▁bardzo	-6.98689
▁aby	-6.99389
▁tylko	-6.9987
▁można	-7.02877
ku	-7.03184
ty	-7.03559
▁roku	-7.03656
▁roz	-7.04521
cy	-7.06075
ej	-7.06275
▁już	-7.07656
▁r	-7.07999
owa	-7.08501
la	-7.09516
▁jego	-7.11551
enie	-7.122
wa	-7.13438
▁"	-7.1364
owej	-7.14221
ci	-7.14542
nego	-7.14564
”	-7.15365
).	-7.17415
ego	-7.1801
▁p	-7.18294
nej	-7.18898
uje	-7.19211
▁będzie	-7.19658
▁re	-7.19772
▁również	-7.19814
owego	-7.20637
▁bez	-7.20645
wi	-7.20731
▁który	-7.20774
ca	-7.20866
▁ten	-7.20877
f	-7.21763
ować	-7.22957
▁m	-7.23307
▁jeśli	-7.24278
ko	-7.24507
▁ja	-7.2523
▁przed	-7.25475
po	-7.25558
za	-7.27233
▁ich	-7.27428
▁jako	-7.27564
ń	-7.27608
;	-7.28157
in	-7.29629
▁go	-7.29973
dy	-7.30424
nym	-7.31273
▁także	-7.31306
▁jednak	-7.31833
▁też	-7.32681
▁e	-7.32958
by	-7.33668
"	-7.35868
▁te	-7.36094
owania	-7.36543
▁ta	-7.36544
one	-7.36599
▁by	-7.37384
to	-7.37896
▁był	-7.38951
te	-7.39177
▁jej	-7.39432
niu	-7.39537
om	-7.40071
▁je	-7.42174
ro	-7.42438
ze	-7.42525
re	-7.42998
zy	-7.43488
ś	-7.43877
ż	-7.44015
ga	-7.44533
kę	-7.45018
ma	-7.45319
ra	-7.45609
czy	-7.46729
acji	-7.47527
ona	-7.4806
▁ob	-7.48165
ar	-7.48329
x	-7.48948
▁było	-7.49241
da	-7.50052
▁gdy	-7.50293
▁lat	-7.52112
ką	-7.5269
▁g	-7.52848
▁nad	-7.53593
...	-7.53646
gi	-7.539
▁de	-7.55274
▁da	-7.5622
▁tej	-7.56841
▁ci	-7.57589
ja	-7.5814
je	-7.5855
▁mnie	-7.59446
en	-7.59798
owi	-7.60746
▁d	-7.6129
st	-7.61429
wy	-7.61869
),	-7.62255
łem	-7.62366
owym	-7.6287
ony	-7.63308
owanie	-7.63417
h	-7.63586
▁sobie	-7.64066
v	-7.64517
▁należy	-7.6473
ry	-7.65037
er	-7.65505
łam	-7.65594
ową	-7.6574
▁niż	-7.67442
▁jeszcze	-7.67844
▁mogą	-7.68126
▁b	-7.68165
▁czas	-7.68589
ków	-7.69097
▁ko	-7.69448
ska	-7.69973
nik	-7.70102
▁podczas	-7.70282
do	-7.70683
ści	-7.70696
cz	-7.70725
▁k	-7.70874
▁nawet	-7.70973
lo	-7.71262
ia	-7.71578
mu	-7.71848
ur	-7.7224
▁która	-7.72701
jąc	-7.72844
bo	-7.73538
de	-7.74253
bi	-7.7437
pa	-7.7463
al	-7.74963
ać	-7.76479
wie	-7.78432
▁pi	-7.78475
cia	-7.78633
▁pracy	-7.78825
ania	-7.78875
ii	-7.78912
dzie	-7.79546
▁sposób	-7.80109
liśmy	-7.80385
▁więc	-7.81178
ności	-7.81293
ję	-7.81352
on	-7.81415
pi	-7.81788
an	-7.82308
owane	-7.82335
sta	-7.82667
rze	-7.82962
ść	-7.8353
si	-7.83612
▁była	-7.83975
ują	-7.84225
ba	-7.84799
ność	-7.85222
▁dzieci	-7.85368
▁kiedy	-7.85475
▁c	-7.85535
ter	-7.85691
▁tych	-7.85811
▁więcej	-7.85862
▁tu	-7.85897
sze	-7.86869
am	-7.87442
tu	-7.88531
szy	-7.88535
▁wiele	-7.89225
acja	-7.89238
▁mam	-7.90041
eń	-7.90085
▁dzięki	-7.90432
sa	-7.90949
eniu	-7.91217
▁naj	-7.91276
▁no	-7.91445
owo	-7.91506
at	-7.92002
lu	-7.9201
▁mo	-7.92199
od	-7.92265
▁mają	-7.92275
▁wszystkie	-7.92678
▁mu	-7.93621
▁tam	-7.94166
▁gra	-7.94293
▁sie	-7.94373
%	-7.94521
▁kon	-7.96018
▁takie	-7.96284
▁we	-7.97829
▁in	-7.98497
▁on	-7.98762
▁innych	-7.99054
ow	-7.99088
cze	-7.99158
▁t	-7.99465
▁przypadku	-7.99543
▁fa	-7.99851
▁gdzie	-7.9999
▁nas	-8.00409
▁wszystko	-8.01414
▁praw	-8.01981
▁teraz	-8.02848
or	-8.03058
is	-8.03423
▁kilka	-8.03544
▁pa	-8.04049
▁został	-8.04237
▁pro	-8.05066
cza	-8.05373
▁których	-8.05423
mo	-8.05443
kiem	-8.05517
sza	-8.05567
ych	-8.06118
ski	-8.0688
▁nich	-8.07463
▁miejsce	-8.07539
▁będą	-8.09032
▁bardziej	-8.09332
▁ba	-8.09471
owany	-8.0998
ono	-8.10229
jących	-8.10738
cja	-8.11209
▁wszystkich	-8.11807
anie	-8.12049
▁li	-8.12149
▁osób	-8.12308
▁ka	-8.12989
sty	-8.14254
▁celu	-8.14274
▁były	-8.14296
▁między	-8.16597
ak	-8.16612
iem	-8.16923
es	-8.17641
”.	-8.17898
kami	-8.18275
wo	-8.19363
▁wyda	-8.19627
▁dobrze	-8.19693
▁wie	-8.19838
]	-8.19864
▁coś	-8.20097
co	-8.20156
▁sz	-8.20219
▁pan	-8.20485
▁zawsze	-8.20529
rzy	-8.20899
onych	-8.21405
▁pas	-8.21526
ał	-8.21949
ację	-8.21986
▁ro	-8.2223
▁kar	-8.22253
▁wielu	-8.22672
▁sta	-8.22674
nika	-8.23705
▁którzy	-8.23962
ić	-8.24239
su	-8.24797
▁czasu	-8.25008
▁części	-8.25096
że	-8.25333
▁posiada	-8.25623
el	-8.25884
▁mar	-8.25993
▁którym	-8.26022
▁le	-8.26171
▁plan	-8.27119
'	-8.2725
▁temat	-8.27492
sie	-8.27731
▁często	-8.27953
▁trzeba	-8.28134
▁si	-8.29962
▁ra	-8.30107
▁ponieważ	-8.30731
▁swoje	-8.30815
▁przykład	-8.31202
cji	-8.31217
▁[	-8.31321
bra	-8.31372
▁sa	-8.31939
▁dwa	-8.32022
▁nic	-8.32382
▁spraw	-8.3276
▁żeby	-8.32925
▁możesz	-8.32994
ri	-8.33077
▁dlatego	-8.33241
se	-8.33459
▁mówi	-8.34077
▁sto	-8.34178
ował	-8.34519
▁inne	-8.3457
▁jeden	-8.34873
▁h	-8.35044
▁x	-8.36218
▁system	-8.36907
▁so	-8.37072
pad	-8.37189
…	-8.37229
sk	-8.37322
▁każdy	-8.37331
▁następnie	-8.37341
ży	-8.37456
sy	-8.37545
nu	-8.37752
dzi	-8.37777
▁samo	-8.37932
▁czasie	-8.38282
▁l	-8.38336
▁właśnie	-8.38455
▁strony	-8.38499
▁sam	-8.38567
▁dnia	-8.3857
▁v	-8.3858
ają	-8.3887
▁jakie	-8.38946
▁danych	-8.39005
▁ją	-8.39032
▁nim	-8.3924
▁projekt	-8.39243
we	-8.39289
▁jedno	-8.39511
▁ty	-8.39602
▁musi	-8.39644
▁raz	-8.39743
▁f	-8.40314
sto	-8.40367
▁kolor	-8.41083
▁takich	-8.41214
łącz	-8.41357
▁—	-8.41373
▁domu	-8.41483
zie	-8.41795
ll	-8.41819
▁kom	-8.42767
▁wszystkim	-8.42895
czu	-8.43203
▁bi	-8.43303
▁potrzeb	-8.43357
▁la	-8.43445
ul	-8.43446
▁ani	-8.43528
▁siebie	-8.4356
▁której	-8.43564
▁życia	-8.43816
▁albo	-8.44232
zi	-8.44333
▁jeżeli	-8.44554
jące	-8.4456
fi	-8.44687
▁dni	-8.45102
▁tra	-8.45343
▁ludzi	-8.45366
ście	-8.45971
ks	-8.47528
os	-8.4778
ot	-8.47792
▁ha	-8.47911
▁miał	-8.47988
ment	-8.48028
tek	-8.48055
▁ok	-8.48261
▁dom	-8.48883
kon	-8.49046
zna	-8.49532
▁ponad	-8.50199
▁ży	-8.50345
▁fi	-8.50724
ając	-8.51243
owie	-8.51293
me	-8.51349
ru	-8.51365
▁najbardziej	-8.51545
▁/	-8.51724
us	-8.52424
bie	-8.52585
▁warto	-8.53027
ym	-8.53113
kry	-8.53127
▁program	-8.53255
ię	-8.53341
pie	-8.53385
▁około	-8.53398
▁robi	-8.53882
owana	-8.54447
eniem	-8.54629
▁przeciw	-8.54779
▁bu	-8.54901
▁im	-8.55134
praw	-8.5551
▁al	-8.5571
tor	-8.55908
▁temu	-8.56203
▁sp	-8.56379
▁np	-8.56433
▁mieć	-8.56605
▁wymaga	-8.56642
ości	-8.56779
▁stanie	-8.5678
▁różnych	-8.57067
▁zł	-8.57108
cję	-8.57246
so	-8.57264
uj	-8.57275
pl	-8.57424
cje	-8.57504
kach	-8.57533
▁została	-8.57566
▁kto	-8.57618
ster	-8.57644
sko	-8.57704
du	-8.57752
▁wtedy	-8.57807
per	-8.58047
▁mamy	-8.58321
▁pomocą	-8.58359
▁chodzi	-8.58365
▁jestem	-8.58413
▁osoby	-8.58459
yć	-8.58754
nę	-8.58842
▁taki	-8.58852
▁życie	-8.59078
vi	-8.5909
▁lu	-8.59235
▁pierwszy	-8.59426
fa	-8.59526
▁ho	-8.59634
ol	-8.59921
acje	-8.60125
▁działa	-8.60138
ując	-8.60325
gra	-8.60539
oną	-8.60669
jący	-8.60721
ck	-8.61192
ali	-8.6128
▁poza	-8.61316
▁jednym	-8.61364
▁spo	-8.61458
▁zna	-8.62036
▁później	-8.6205
▁czyli	-8.62197
kowa	-8.62215
et	-8.62434
mie	-8.6258
▁szybko	-8.62713
sh	-8.62808
▁wartości	-8.62901
▁aż	-8.63102
▁se	-8.63353
prowadz	-8.63382
min	-8.63395
raż	-8.63409
ha	-8.63515
ent	-8.63555
▁my	-8.63607
▁którego	-8.63626
twor	-8.63632
war	-8.63679
ed	-8.6368
▁dzień	-8.63762
▁zgodnie	-8.63772
▁trzy	-8.63869
▁art	-8.6389
th	-8.64379
▁obraz	-8.64621
▁dwóch	-8.64727
▁firmy	-8.64732
cą	-8.648
▁tutaj	-8.6483
▁nam	-8.64845
▁razem	-8.64998
▁zarówno	-8.65019
▁znajduje	-8.65107
▁naprawdę	-8.65146
▁miasta	-8.65222
▁informacji	-8.65276
▁wcześniej	-8.65306
▁świat	-8.66008
man	-8.66045
▁prób	-8.66114
▁problem	-8.66139
▁podstaw	-8.66151
dr	-8.66305
der	-8.66316
▁chyba	-8.66562
▁rzecz	-8.66772
tki	-8.6678
łu	-8.66873
ator	-8.67141
▁gór	-8.67572
ców	-8.6772
▁be	-8.67753
waż	-8.67759
▁część	-8.67894
▁stanowi	-8.68167
▁pe	-8.68316
nymi	-8.68398
".	-8.6844
▁swoją	-8.68448
▁wieku	-8.68482
▁sieci	-8.68509
▁nigdy	-8.68636
▁usług	-8.68786
ó	-8.69041
por	-8.69063
▁kilku	-8.69111
▁proces	-8.69192
kład	-8.69351
▁nowe	-8.69411
ng	-8.69579
zo	-8.69615
▁minut	-8.69674
▁bar	-8.6979
▁oznacza	-8.69985
▁gry	-8.70016
▁ku	-8.70279
▁masz	-8.70316
▁wody	-8.70418
dz	-8.70445
mar	-8.70623
wał	-8.70732
owanych	-8.70913
▁dużo	-8.71145
▁powierzchni	-8.71178
▁jakości	-8.71415
▁według	-8.71713
”,	-8.71925
▁swoich	-8.72051
▁zawiera	-8.72168
▁hi	-8.72188
eni	-8.72373
▁poziom	-8.72426
ic	-8.72614
▁prostu	-8.72709
▁przyj	-8.72942
ad	-8.7322
niem	-8.73504
▁op	-8.7352
▁prac	-8.73528
▁dziś	-8.73531
▁moc	-8.73629
▁poprzez	-8.73666
ość	-8.73751
skiego	-8.73887
▁działania	-8.73934
▁prezent	-8.74047
▁zestaw	-8.74239
▁one	-8.74262
nt	-8.74443
czą	-8.74534
skich	-8.74598
▁miejsca	-8.7466
▁poli	-8.74813
▁uwagę	-8.74839
bu	-8.74899
▁zostały	-8.7495
ane	-8.75029
par	-8.75111
ing	-8.75255
▁niego	-8.75288
▁dr	-8.75321
uję	-8.75533
▁używa	-8.75565
▁jaki	-8.75823
szą	-8.75847
▁cały	-8.75912
ver	-8.76196
▁stronie	-8.76243
ve	-8.76342
▁typu	-8.76631
▁trochę	-8.76839
rod	-8.7684
▁rad	-8.76881
wia	-8.76901
▁su	-8.76905
tów	-8.76932
▁uzna	-8.77025
▁pu	-8.77068
wod	-8.77127
▁ca	-8.77215
▁możemy	-8.77293
ho	-8.77322
▁zrobić	-8.77432
ź	-8.77559
▁informacje	-8.77568
▁możliwość	-8.77682
▁organ	-8.77757
▁zdjęcia	-8.7795
▁the	-8.78057
▁udział	-8.78069
▁lecz	-8.78098
▁oczywiście	-8.78224
▁opis	-8.7823
skiej	-8.78334
▁miejscu	-8.78415
lar	-8.78452
ti	-8.79248
nki	-8.79381
it	-8.79969
▁ni	-8.79987
▁typ	-8.8012
▁mniej	-8.80149
▁du	-8.80191
▁zda	-8.80261
▁stan	-8.80354
▁możliwości	-8.80361
twór	-8.80552
chod	-8.8057
▁autor	-8.80734
prze	-8.8081
ników	-8.81126
▁ktoś	-8.81462
▁zakresie	-8.81564
ke	-8.81583
▁mas	-8.81694
▁pół	-8.81875
▁czym	-8.82094
▁brak	-8.8232
▁gro	-8.82693
tra	-8.82745
▁pozwala	-8.82829
budowa	-8.83158
▁ludzie	-8.83257
▁film	-8.83417
▁me	-8.83535
▁nowy	-8.83602
▁prawo	-8.83623
▁n	-8.83823
▁kraj	-8.83987
tel	-8.84133
▁di	-8.84274
▁tę	-8.84274
▁wraz	-8.84309
cją	-8.84561
▁świecie	-8.84645
▁ser	-8.8479
lin	-8.84836
▁daw	-8.84995
▁ga	-8.85087
ujemy	-8.85164
▁powodu	-8.85184
▁systemu	-8.85197
▁ru	-8.85319
▁vi	-8.85319
ge	-8.85392
alne	-8.8541
▁pozna	-8.85498
▁zostanie	-8.85513
▁zim	-8.85728
dziel	-8.85771
▁lo	-8.85861
cznie	-8.85896
ler	-8.85976
▁głos	-8.85982
▁wpływ	-8.86046
ton	-8.86053
▁pal	-8.86167
▁rol	-8.86235
▁prawa	-8.86344
▁kor	-8.8651
▁każdego	-8.86539
cu	-8.86639
rza	-8.86667
▁pre	-8.86699
▁trwa	-8.86749
br	-8.8677
sp	-8.86895
▁spa	-8.86935
▁he	-8.8703
ró	-8.87131
▁centrum	-8.87201
▁cen	-8.87238
▁wiem	-8.87399
▁urządzenia	-8.87417
▁przycisk	-8.87599
▁różne	-8.87602
wal	-8.87705
▁cz	-8.87706
▁nr	-8.87795
▁składa	-8.87993
▁obecnie	-8.88003
wol	-8.88062
▁cię	-8.88164
▁dane	-8.88204
▁ona	-8.88242
łą	-8.88358
▁kontakt	-8.88512
▁ziemi	-8.88572
▁pomoc	-8.88766
▁rzeczy	-8.88824
▁rok	-8.88887
▁rynku	-8.88898
pro	-8.89098
▁wygląda	-8.8917
▁test	-8.89293
▁zasad	-8.89336
iz	-8.8934
ir	-8.89372
lan	-8.89963
▁fakt	-8.9012
▁aktyw	-8.9016
▁natomiast	-8.90219
skie	-8.90247
▁nauk	-8.90288
now	-8.90344
▁postaci	-8.90378
owymi	-8.9044
▁początku	-8.90505
um	-8.90599
łe	-8.90687
▁obowiąz	-8.90936
▁polski	-8.90975
nąć	-8.90978
▁swojej	-8.91059
ŝ	-8.91094
▁tekst	-8.91112
▁mal	-8.91181
▁zbyt	-8.91208
onego	-8.91265
▁swoim	-8.91381
py	-8.91607
gr	-8.91655
▁dwie	-8.91726
▁polsce	-8.91941
▁samym	-8.91994
stwa	-8.92067
▁państwa	-8.92087
gu	-8.92104
▁telefon	-8.92233
di	-8.92251
▁współ	-8.9227
dź	-8.92437
ps	-8.92511
▁ż	-8.9261
owaniu	-8.9272
ujące	-8.92753
▁czeka	-8.93028
nicy	-8.93034
▁wśród	-8.93256
▁kart	-8.93328
ński	-8.93565
▁względu	-8.93572
▁nasze	-8.93802
▁sport	-8.94095
▁dostęp	-8.94149
leg	-8.94287
▁styl	-8.94372
▁zmiany	-8.94398
▁otrzyma	-8.94543
▁kobiet	-8.94545
▁rodzin	-8.9455
▁uważa	-8.94606
com	-8.94638
twierdz	-8.94679
sku	-8.94685
▁potem	-8.94719
ok	-8.94746
szcz	-8.94825
▁nowo	-8.94843
▁jo	-8.95018
▁badania	-8.95144
▁zrobi	-8.95166
▁standard	-8.95442
leż	-8.95573
▁zabaw	-8.95673
▁bra	-8.95732
▁wykona	-8.95733
▁latach	-8.95766
rzu	-8.95791
▁mieszka	-8.95922
▁hotel	-8.95994
▁każdym	-8.96004
▁którą	-8.96163
▁choć	-8.96163
▁cel	-8.96182
ss	-8.96195
▁dokument	-8.96243
▁obszar	-8.96289
▁grupy	-8.965
tan	-8.9696
pu	-8.96961
▁mod	-8.9704
▁lek	-8.97479
▁zakup	-8.97495
tar	-8.97519
▁lepiej	-8.9767
▁lata	-8.97974
▁efekt	-8.97975
▁kur	-8.98082
czne	-8.98109
▁sklep	-8.98159
tym	-8.98202
mer	-8.98227
▁uda	-8.98236
▁długo	-8.9853
▁ramach	-8.98564
cych	-8.98747
io	-8.98779
rob	-8.98819
ciąg	-8.98967
rt	-8.99064
▁jedynie	-8.99719
▁przedmiot	-8.99737
▁sąd	-8.99794
▁chce	-8.99814
ył	-8.99869
▁pierwsze	-8.99912
▁związku	-8.9996
mp	-9.00051
▁wszyscy	-9.00318
jącego	-9.00426
▁państw	-9.00634
▁numer	-9.00686
▁niestety	-9.00737
▁jesteś	-9.00788
dzia	-9.00822
▁pani	-9.00955
▁naszych	-9.01043
den	-9.01055
▁niej	-9.01145
▁świata	-9.01202
▁czyta	-9.01442
▁model	-9.01532
lec	-9.01626
▁coraz	-9.01793
▁pomysł	-9.01838
▁osob	-9.01847
any	-9.01984
▁win	-9.02008
▁zapewnia	-9.02043
▁produkt	-9.02052
onym	-9.0209
▁naszej	-9.0215
▁znaleźć	-9.02207
stan	-9.02232
ob	-9.02238
▁pis	-9.02314
tk	-9.02329
▁ciągu	-9.02332
▁ciebie	-9.02333
▁przede	-9.0237
szych	-9.0239
▁ps	-9.02409
ujących	-9.02451
▁swój	-9.02455
roz	-9.02466
▁koniec	-9.02497
bor	-9.02557
ran	-9.02619
fe	-9.02666
▁klucz	-9.02678
ist	-9.02796
▁wol	-9.02841
tą	-9.02884
▁skład	-9.0306
nd	-9.03173
▁nadal	-9.03187
va	-9.03291
mierz	-9.03298
▁tyle	-9.03299
▁okres	-9.03314
▁dobry	-9.03347
▁produktów	-9.03404
ana	-9.03406
▁kierow	-9.0342
▁dalej	-9.03815
▁powiedział	-9.04074
znacz	-9.04151
▁szczególnie	-9.04184
ską	-9.04262
▁razie	-9.04285
▁czego	-9.04324
▁powinien	-9.04374
▁większość	-9.04581
▁mm	-9.0459
▁pełni	-9.04666
▁jedną	-9.04726
▁popraw	-9.04737
▁stara	-9.04753
▁przekaz	-9.04847
▁płyt	-9.0486
▁chcesz	-9.05003
▁mimo	-9.05131
(	-9.05133
▁moje	-9.0522
▁ważne	-9.05395
▁kra	-9.05449
▁km	-9.05496
▁słowa	-9.05499
▁mogę	-9.05514
▁dlaczego	-9.05874
kolwiek	-9.05935
▁kraju	-9.0596
op	-9.06134
▁par	-9.06202
ner	-9.06481
śni	-9.06549
▁bank	-9.06606
▁mor	-9.06649
▁per	-9.06897
id	-9.06923
▁miejsc	-9.06979
era	-9.06987
▁dostaw	-9.07065
▁dotyczące	-9.07177
▁innymi	-9.07279
il	-9.07545
▁dobre	-9.07593
▁sytuacji	-9.07701
zę	-9.07799
▁prawie	-9.07859
▁rząd	-9.07868
▁dzie	-9.07877
▁interes	-9.08014
▁kol	-9.08097
▁sprzeda	-9.08147
dat	-9.08159
▁średni	-9.08227
owała	-9.08276
tę	-9.08287
▁dość	-9.08316
▁form	-9.08446
▁ile	-9.08505
▁szy	-9.08594
▁granic	-9.08654
▁róż	-9.08899
▁ruch	-9.08941
ant	-9.09
kom	-9.09032
szedł	-9.09138
tyczne	-9.09139
ią	-9.09153
▁ponadto	-9.09158
owski	-9.09168
▁naszym	-9.09237
rząd	-9.09311
dni	-9.0937
▁rozwoju	-9.0947
czna	-9.0951
▁duże	-9.0957
rad	-9.0975
land	-9.09925
▁swojego	-9.09939
ier	-9.09958
▁odpowiedzi	-9.09977
▁dopiero	-9.10023
son	-9.10241
skim	-9.10269
tur	-9.10427
▁nowych	-9.10479
▁jednego	-9.10567
▁pomocy	-9.1071
▁małe	-9.108
▁br	-9.10968
kowe	-9.11129
ił	-9.11194
▁of	-9.11197
daw	-9.11272
esz	-9.11349
▁pewno	-9.1145
czną	-9.11467
pon	-9.11487
▁wynika	-9.11582
▁produkcji	-9.11674
kro	-9.11829
iczne	-9.1185
▁przyzna	-9.11854
ber	-9.12024
▁pie	-9.12144
sław	-9.1219
▁sprawie	-9.12191
▁rozmiar	-9.1232
dzenia	-9.12363
▁istnieje	-9.12487
▁ar	-9.12491
▁ład	-9.12547
▁wyniki	-9.12637
▁sobą	-9.12667
▁super	-9.12742
▁lokal	-9.12789
▁mój	-9.12991
▁or	-9.13047
▁kocha	-9.13119
▁jednej	-9.13291
▁podstawie	-9.1332
dro	-9.1337
▁firma	-9.13457
▁takim	-9.13495
▁potrafi	-9.13574
onej	-9.13579
▁miała	-9.13625
▁razy	-9.13669
ąc	-9.1382
lon	-9.13998
produk	-9.14086
▁koszt	-9.1427
lub	-9.14288
▁hu	-9.14433
▁pomiędzy	-9.14513
usz	-9.14549
cho	-9.14595
▁możliwe	-9.1465
▁ul	-9.14655
▁zostać	-9.14758
▁cm	-9.15016
dział	-9.15066
tka	-9.1507
ste	-9.15102
▁ilości	-9.15229
▁dobra	-9.15301
ające	-9.15305
▁was	-9.15318
▁zdjęcie	-9.1537
▁końcu	-9.1544
▁iż	-9.15462
▁adres	-9.15511
▁syn	-9.15584
▁programu	-9.15604
▁dostępne	-9.15637
pe	-9.1584
▁dy	-9.15853
▁król	-9.15891
stęp	-9.15911
▁drzwi	-9.16153
czo	-9.1616
▁ram	-9.16222
▁produkty	-9.16294
tro	-9.16374
ża	-9.1649
▁musiał	-9.16568
▁star	-9.16586
_	-9.16601
▁wybor	-9.16699
▁chociaż	-9.16756
▁takiego	-9.16796
▁związane	-9.168
letni	-9.16878
nosi	-9.17066
▁chciał	-9.17275
rz	-9.17323
zji	-9.17426
budow	-9.17479
▁dokona	-9.17535
▁biznes	-9.17542
▁szuka	-9.17616
▁przedstawi	-9.17715
▁rodzaju	-9.17792
▁komputer	-9.17989
▁jednocześnie	-9.18031
niej	-9.18063
spo	-9.18191
regul	-9.18243
gar	-9.18289
▁rze	-9.18305
▁dwu	-9.18467
ała	-9.18469
dą	-9.18538
nął	-9.18613
▁klasy	-9.18767
▁kobiety	-9.18768
▁war	-9.18816
czyn	-9.19042
cki	-9.19043
wać	-9.19058
▁dziecko	-9.19256
ten	-9.19335
▁widzi	-9.19371
acją	-9.19417
▁grze	-9.19715
niki	-9.19746
cenie	-9.19797
▁firm	-9.19811
▁godzin	-9.2003
▁tworzy	-9.20092
▁+	-9.20093
tem	-9.20175
▁szk	-9.20217
rusz	-9.20368
cjon	-9.20392
▁kolej	-9.20399
▁kolejne	-9.2045
▁wartość	-9.20454
▁szt	-9.20624
▁kształt	-9.20711
cznych	-9.20713
▁wydaje	-9.20788
▁usługi	-9.20925
▁płyn	-9.2099
▁znacznie	-9.21003
▁kup	-9.21017
▁artykuł	-9.21028
be	-9.21043
▁stron	-9.21111
wania	-9.21154
▁najmniej	-9.21168
▁por	-9.21353
▁właściciel	-9.21365
▁pozosta	-9.21392
ff	-9.21419
▁jesteśmy	-9.21536
▁układ	-9.21571
▁zakład	-9.21618
ciu	-9.2168
lot	-9.21692
▁ciała	-9.21754
raz	-9.21784
jącym	-9.21853
▁bezpieczeństwa	-9.21922
▁zmienia	-9.21974
▁moim	-9.2201
▁metal	-9.22168
▁język	-9.22269
dze	-9.22495
dę	-9.22506
łączyć	-9.22536
▁drugiej	-9.22612
nka	-9.22696
▁taka	-9.22771
▁dokładnie	-9.22778
▁kla	-9.22814
kra	-9.22884
ujący	-9.22904
▁odda	-9.22914
pt	-9.22919
ód	-9.22937
rys	-9.22973
ut	-9.22974
▁pla	-9.23007
▁para	-9.23024
▁wynosi	-9.23072
▁niektóre	-9.23128
świet	-9.23294
▁dźwięk	-9.23308
▁duch	-9.2341
▁bieg	-9.23525
zd	-9.23619
▁łatwo	-9.2362
▁nazwa	-9.23648
▁poz	-9.23658
ina	-9.2374
przy	-9.23753
▁myśli	-9.24163
gen	-9.2422
▁oczy	-9.24306
yw	-9.24328
▁każdej	-9.24366
▁jedna	-9.24482
▁termin	-9.24532
▁znajdują	-9.2461
▁mag	-9.24628
▁fu	-9.24712
▁szcze	-9.24837
jącej	-9.2484
ld	-9.24931
▁zatem	-9.24974
jąca	-9.25045
▁ju	-9.25067
▁powinna	-9.25126
▁poniżej	-9.25179
kie	-9.25213
▁roślin	-9.25251
▁zostało	-9.25446
▁zmian	-9.25464
▁pojawi	-9.25542
▁krwi	-9.25559
let	-9.25745
▁energii	-9.25775
▁pracę	-9.25789
aniu	-9.25791
cę	-9.25825
▁byli	-9.25831
▁obu	-9.25843
myśl	-9.25865
–	-9.25893
▁usta	-9.25905
ale	-9.25908
▁odpowiada	-9.26015
▁kuchni	-9.26162
▁muszą	-9.26207
▁sama	-9.26241
▁doda	-9.26247
ład	-9.26313
głos	-9.26429
▁czasem	-9.26532
ion	-9.26544
up	-9.26579
▁dniu	-9.26654
▁znacz	-9.26752
▁daje	-9.2676
▁powie	-9.26829
▁plac	-9.26842
▁zastosowa	-9.26894
lne	-9.26905
▁partner	-9.26958
▁gdyby	-9.27024
▁końca	-9.27103
ger	-9.27225
▁“	-9.27229
▁materiał	-9.27326
woj	-9.27366
▁człowieka	-9.2742
▁internet	-9.27448
ns	-9.27468
▁przecież	-9.27722
▁niedo	-9.27739
▁naszego	-9.27763
▁nowego	-9.27763
▁dzisiaj	-9.27824
▁reklam	-9.27898
icznych	-9.27971
▁teren	-9.28025
▁podróż	-9.28115
niejsze	-9.28169
▁klas	-9.28179
ano	-9.28236
▁ś	-9.2824
▁człowiek	-9.28259
łości	-9.2829
’	-9.28323
ian	-9.28354
szym	-9.28384
▁pytanie	-9.28467
▁...	-9.28475
▁inter	-9.28572
stron	-9.28602
▁kod	-9.28672
▁technologi	-9.28915
▁tor	-9.28963
▁punkt	-9.29037
▁:)	-9.29213
▁dziecka	-9.29216
wer	-9.29451
▁ucz	-9.29587
les	-9.29725
▁wzor	-9.29795
▁chwili	-9.29812
▁sk	-9.29863
▁wybra	-9.29912
▁trans	-9.29953
▁auto	-9.29954
ac	-9.30043
▁charakter	-9.30054
bit	-9.30102
rób	-9.30104
▁nią	-9.30108
▁wykonywa	-9.30161
▁zaczyna	-9.30247
▁mało	-9.30309
żenia	-9.30443
▁serwis	-9.30489
▁wystarczy	-9.30563
▁tro	-9.30566
owali	-9.30699
▁szkoły	-9.30701
▁rower	-9.3073
>	-9.30732
chodzą	-9.30829
▁ochrony	-9.30873
▁jakiś	-9.30883
▁różnic	-9.3112
▁euro	-9.31143
shi	-9.31171
wróci	-9.31329
▁sukces	-9.31417
nic	-9.31423
▁krok	-9.31513
pozycj	-9.31513
▁silnik	-9.3158
▁słucha	-9.31752
wane	-9.3176
ówki	-9.31761
▁bud	-9.3178
he	-9.31781
▁ponownie	-9.31793
▁car	-9.31887
jącą	-9.31931
dow	-9.3202
▁druk	-9.32044
▁sch	-9.32097
▁mat	-9.32113
▁ból	-9.32141
▁aplikacji	-9.32205
▁?	-9.32246
▁ostatni	-9.32345
▁ilość	-9.3238
tion	-9.32423
▁woj	-9.32435
licz	-9.32456
▁zaś	-9.32476
▁trzech	-9.32555
mon	-9.32559
szcze	-9.3256
▁wojsk	-9.32568
▁miesza	-9.32588
▁przyczyn	-9.32633
▁skóry	-9.3265
▁poprzedni	-9.32726
▁nieco	-9.32734
▁występ	-9.32766
▁smak	-9.32808
mawia	-9.32814
kowy	-9.32829
▁włącz	-9.32923
nk	-9.32952
str	-9.32989
▁widok	-9.32991
▁najlepiej	-9.33123
pokoj	-9.33146
▁wysokiej	-9.33157
tycznych	-9.33198
▁fe	-9.33307
▁wybierz	-9.33347
tom	-9.33381
▁innym	-9.33418
▁głównie	-9.33433
▁wil	-9.3346
▁ust	-9.33487
▁działalności	-9.33554
▁cho	-9.33579
▁kole	-9.3358
▁anty	-9.33629
▁projektu	-9.33668
▁raczej	-9.33774
ńskiego	-9.33793
zu	-9.33826
est	-9.33838
▁uzyska	-9.33943
▁historii	-9.34036
▁ryb	-9.34043
▁przegląd	-9.34171
▁kr	-9.34374
▁powinny	-9.34393
▁gu	-9.34397
łeś	-9.34521
▁noc	-9.34531
▁umożliwia	-9.34557
▁pr	-9.3463
▁wal	-9.34755
▁rodziny	-9.35001
▁znalazł	-9.35008
▁prowadzi	-9.35052
▁obsługi	-9.35055
▁wysokości	-9.35072
▁bowiem	-9.35097
ron	-9.35166
▁dział	-9.3517
▁proszę	-9.3522
▁kas	-9.35346
▁sło	-9.35445
▁maszyn	-9.35539
▁pl	-9.35646
▁pierwszym	-9.35665
▁pola	-9.35671
rek	-9.35685
▁zwykle	-9.35685
▁nikt	-9.35704
chodzi	-9.35711
▁uni	-9.3575
kar	-9.35896
▁urządzenie	-9.3592
pisać	-9.35929
▁region	-9.35938
ang	-9.36029
▁element	-9.36244
▁zespół	-9.36287
unk	-9.36384
▁wypełni	-9.36428
▁zapis	-9.36441
▁rozwija	-9.36476
yz	-9.36809
▁sza	-9.36838
▁klientów	-9.36845
▁podobnie	-9.36963
stru	-9.36985
owano	-9.37024
▁okresie	-9.37024
▁środków	-9.37121
tr	-9.37165
▁powstał	-9.37169
▁musisz	-9.37212
puszcza	-9.37218
ly	-9.37219
▁dzi	-9.37232
▁mógł	-9.37233
izacji	-9.37241
szczy	-9.37252
ryn	-9.37297
▁wyłącz	-9.37339
rów	-9.37442
ft	-9.37528
hi	-9.37529
▁tle	-9.37544
▁gar	-9.37548
ec	-9.37589
▁kan	-9.37618
▁klimat	-9.37692
▁poziomie	-9.37709
▁dodatkowo	-9.37711
for	-9.37711
gę	-9.3778
stwo	-9.37867
▁umowy	-9.37921
▁życiu	-9.37981
▁trzyma	-9.38034
▁gener	-9.38079
▁badań	-9.38108
▁ad	-9.38142
ących	-9.38174
▁sprzedaży	-9.38198
▁wyłącznie	-9.38215
robi	-9.3823
▁innego	-9.38291
▁kultur	-9.38401
▁powinno	-9.3846
ji	-9.38489
▁wciąż	-9.38545
▁zabezpiecz	-9.3862
oli	-9.38708
▁jakieś	-9.38731
▁niektórych	-9.38774
bezpiecz	-9.3879
▁analiz	-9.38833
czki	-9.38876
▁wybrać	-9.38944
try	-9.38947
▁rozwiązanie	-9.38953
▁gości	-9.39148
mail	-9.39149
▁trzeci	-9.39254
nęła	-9.39288
▁olej	-9.39358
▁najlepsze	-9.39412
▁boga	-9.39428
▁bla	-9.39479
▁istnieją	-9.39519
▁sy	-9.39527
▁warstw	-9.39547
ios	-9.39552
tych	-9.39584
▁st	-9.39636
bel	-9.39697
lę	-9.39793
▁sztuk	-9.3981
wart	-9.39838
▁wobec	-9.39861
▁monitor	-9.39881
▁stronę	-9.39951
▁funkcji	-9.40017
▁cha	-9.40137
▁widać	-9.40192
ct	-9.40243
▁dotyczy	-9.40251
▁odpowiedni	-9.40301
▁zwłaszcza	-9.40301
▁ścian	-9.4032
▁tytuł	-9.40347
▁polega	-9.40379
ser	-9.40455
▁udało	-9.40558
▁man	-9.40563
▁szkole	-9.4058
▁drugi	-9.40648
▁oprac	-9.40684
alnych	-9.40726
▁nazywa	-9.40743
▁gru	-9.40822
▁dyrektor	-9.40872
ura	-9.40905
▁kredyt	-9.40908
▁spad	-9.40962
▁pierwszej	-9.41047
▁wybiera	-9.41129
men	-9.41153
arka	-9.41164
▁dodatkowe	-9.41246
wyż	-9.41338
▁ła	-9.41442
▁osoba	-9.41453
▁sur	-9.41472
▁pomaga	-9.41549
▁pozwoli	-9.41611
ard	-9.41616
▁drogi	-9.41694
▁strona	-9.41696
▁spowodowa	-9.41863
▁lud	-9.41874
▁przemysł	-9.4188
▁przej	-9.41987
▁pol	-9.41999
▁gwiazd	-9.4206
▁ogląda	-9.42065
▁zabieg	-9.42065
▁ustaw	-9.42239
▁działanie	-9.42296
▁całym	-9.42441
",	-9.42495
▁kobieta	-9.42571
ńska	-9.42572
bieg	-9.42577
dzenie	-9.42784
▁zdrowia	-9.42789
▁oddział	-9.42839
aż	-9.42958
▁lekarz	-9.43087
czyć	-9.43158
▁uzyskać	-9.43214
▁wskaz	-9.43318
▁nauczyciel	-9.43334
łożyć	-9.43426
▁moja	-9.43454
▁śmie	-9.43539
▁stop	-9.43584
▁kot	-9.43668
▁takiej	-9.43715
▁zatrzyma	-9.43731
▁jakość	-9.43772
▁oferuje	-9.43785
▁profil	-9.43799
▁zależy	-9.43799
▁całej	-9.43817
▁obiekt	-9.43869
wali	-9.43932
nios	-9.43933
staw	-9.44023
▁ceny	-9.44153
▁ster	-9.44303
log	-9.44333
▁wybór	-9.44421
▁lubi	-9.44484
▁rady	-9.44509
pod	-9.44528
▁inny	-9.44563
▁bro	-9.44578
▁czemu	-9.4459
▁trakcie	-9.44612
▁najczęściej	-9.44627
▁mężczyzn	-9.44642
▁pia	-9.44677
▁będę	-9.44735
▁•	-9.4479
▁bądź	-9.44858
▁*	-9.44869
▁twoje	-9.4487
win	-9.4489
▁użytkownika	-9.4496
▁scen	-9.4503
▁trudno	-9.45057
metr	-9.45104
▁nowa	-9.45117
▁powsta	-9.45155
▁grup	-9.45157
▁itp	-9.45186
▁praca	-9.45266
▁śmierci	-9.45274
▁rat	-9.45309
▁pra	-9.45475
mat	-9.45492
▁przekona	-9.45499
dzą	-9.45513
rzuca	-9.45583
▁chorob	-9.456
miesz	-9.45605
▁kurs	-9.45613
▁odbywa	-9.45689
▁kry	-9.45727
▁ruchu	-9.45764
▁wzrost	-9.45775
▁powiedzieć	-9.45906
▁real	-9.45926
▁zobaczyć	-9.45928
fr	-9.46001
▁mocy	-9.46023
▁pracowników	-9.4605
eś	-9.46055
▁elementy	-9.46093
▁problemy	-9.46099
▁nimi	-9.46162
▁ex	-9.46173
wag	-9.46173
▁ak	-9.46214
ag	-9.46215
▁miasto	-9.46219
▁cena	-9.46228
▁mały	-9.46241
▁oprócz	-9.46259
▁sil	-9.46353
▁nadzieję	-9.46421
ące	-9.46616
wier	-9.46628
▁produktu	-9.46669
▁klienta	-9.46679
▁bio	-9.46805
nię	-9.46816
centr	-9.46843
▁port	-9.46869
▁kwiat	-9.47078
▁gor	-9.47083
▁grupa	-9.47186
▁pamięci	-9.472
▁>	-9.47238
łoż	-9.47273
▁wymiar	-9.47305
▁zależności	-9.47316
▁potrzeby	-9.47391
pol	-9.47515
alny	-9.47529
kor	-9.47566
▁wys	-9.47584
▁bezpośrednio	-9.47672
fik	-9.47727
aty	-9.47824
lny	-9.47828
▁prom	-9.47865
▁całkowicie	-9.47912
szko	-9.47937
▁oni	-9.48121
▁ogrod	-9.48162
wód	-9.4833
rzę	-9.48339
▁fran	-9.48348
wierz	-9.48466
skarż	-9.48577
▁ran	-9.48589
wor	-9.48705
▁bohater	-9.48758
▁nasz	-9.48771
▁kre	-9.48828
ik	-9.48894
strze	-9.48898
▁linii	-9.48919
▁bada	-9.48955
▁kop	-9.49041
wany	-9.49101
▁gdyż	-9.49167
▁św	-9.4928
nów	-9.49349
▁liczba	-9.49454
▁obie	-9.49463
▁zupełnie	-9.49492
czek	-9.49514
▁unika	-9.49521
ä	-9.49599
mówi	-9.49601
▁zysk	-9.49747
kt	-9.49758
owanego	-9.49769
ph	-9.49775
▁chi	-9.4989
▁podoba	-9.50005
wanie	-9.50135
▁wypad	-9.50214
fo	-9.50235
ręcz	-9.50271
▁norm	-9.50343
▁żadnych	-9.50459
im	-9.5046
▁przepis	-9.50468
kowych	-9.50494
śnie	-9.50515
zyst	-9.50574
end	-9.50685
▁stock	-9.50695
▁gaz	-9.50726
▁tą	-9.50729
▁kierunku	-9.50742
mont	-9.50754
czes	-9.50775
sad	-9.50915
▁gospodar	-9.50955
▁miesięcy	-9.50998
▁myśl	-9.51047
▁chcą	-9.5109
▁obok	-9.51144
lat	-9.51248
▁środki	-9.51262
q	-9.5128
prac	-9.51298
arki	-9.51314
naj	-9.51338
wid	-9.51375
lew	-9.51418
▁zobacz	-9.51478
▁wersji	-9.5153
▁gi	-9.5155
▁chroni	-9.51599
▁kiedyś	-9.51606
sług	-9.51613
▁zamiast	-9.51628
▁terenie	-9.5173
*	-9.51819
zja	-9.51852
olog	-9.5187
°	-9.51925
▁szyb	-9.51938
▁wygląd	-9.51958
▁zawodow	-9.51966
▁wówczas	-9.52009
▁menu	-9.52035
set	-9.52094
▁lamp	-9.52144
▁zastosowanie	-9.52165
▁umiejętności	-9.52195
▁właściwości	-9.52229
▁sytuacja	-9.52355
▁pomiar	-9.52379
alnie	-9.52385
▁służy	-9.52391
pp	-9.52394
ający	-9.52461
kontrol	-9.52475
▁stylu	-9.52521
▁ostatnie	-9.52538
pal	-9.52546
▁wam	-9.52633
▁celem	-9.52664
▁symbol	-9.52691
czka	-9.52703
▁rejestr	-9.52872
▁samego	-9.52949
ety	-9.53038
bier	-9.53045
▁działań	-9.53103
tt	-9.53145
▁for	-9.53147
czego	-9.53341
▁znak	-9.53341
▁czarny	-9.53342
▁duży	-9.53375
arz	-9.53393
kre	-9.53549
▁północ	-9.53576
▁będziemy	-9.53593
▁polecam	-9.53597
▁inaczej	-9.53663
▁polska	-9.53697
mor	-9.53775
▁cy	-9.53815
▁uruchomi	-9.53831
▁blok	-9.53837
and	-9.53849
▁atak	-9.53879
▁mogli	-9.53885
▁pełne	-9.54016
sion	-9.54085
▁serca	-9.54091
się	-9.54106
▁warunki	-9.54115
▁zapyta	-9.54115
▁odbior	-9.54138
nce	-9.54241
roż	-9.54241
kształ	-9.54267
▁and	-9.54291
▁sił	-9.54384
▁oblicz	-9.5439
................	-9.54395
▁taką	-9.54414
▁chor	-9.54466
▁siedzi	-9.54503
prowadził	-9.54508
▁ham	-9.54574
star	-9.54622
che	-9.54663
▁góry	-9.54681
▁długi	-9.54704
płat	-9.54708
▁wspiera	-9.54784
tury	-9.54815
mier	-9.54844
stą	-9.54885
▁sezon	-9.54898
▁an	-9.54916
sia	-9.54929
▁kanał	-9.5494
▁każda	-9.54963
▁postęp	-9.54967
▁filtr	-9.55041
▁park	-9.55067
▁wielo	-9.55084
łó	-9.55094
czenia	-9.55101
▁wszelkie	-9.55123
▁#	-9.55284
▁niemiecki	-9.55288
▁list	-9.5535
prost	-9.55395
▁urządzeń	-9.55406
eli	-9.55424
scy	-9.55443
▁cze	-9.55449
pis	-9.5554
iczny	-9.55593
wą	-9.55608
▁opłat	-9.55619
▁państwo	-9.55691
▁wystaw	-9.55694
cel	-9.55781
▁staw	-9.55873
▁kolejny	-9.55877
▁trafi	-9.55932
▁rozwiązania	-9.55956
kcji	-9.56019
yczne	-9.5602
encji	-9.56021
owni	-9.56037
dol	-9.56079
▁problemów	-9.56087
ór	-9.56094
▁zagra	-9.56145
▁zdoby	-9.56146
▁licz	-9.56151
▁wymieni	-9.56248
▁stanu	-9.5628
mieści	-9.56369
▁fo	-9.56466
▁pokoju	-9.56507
▁elementów	-9.56508
niesie	-9.56511
tak	-9.56524
jcie	-9.56532
śmy	-9.56544
bli	-9.56546
▁kwas	-9.56548
▁maja	-9.56555
owanej	-9.56573
▁przedsiębiorstw	-9.56613
czych	-9.56659
▁kości	-9.5667
▁central	-9.56713
ały	-9.56734
▁określa	-9.56735
▁lot	-9.56742
dra	-9.56768
▁fotograf	-9.56886
▁las	-9.56902
▁jakby	-9.56919
▁dziewczyn	-9.56949
▁sens	-9.57
▁zaleca	-9.57008
▁ciekaw	-9.57048
▁organizacji	-9.57146
▁uwagi	-9.57147
żyw	-9.57175
nięcie	-9.57241
cenia	-9.57262
▁met	-9.57291
▁stał	-9.57306
▁godziny	-9.57341
▁gre	-9.57365
dzić	-9.574
trz	-9.57455
▁szkol	-9.57496
np	-9.57497
▁momencie	-9.57519
▁tys	-9.57652
▁drużyn	-9.57692
▁sprawia	-9.57812
▁same	-9.57873
▁będziesz	-9.57928
▁piękne	-9.57943
cić	-9.58072
kładzie	-9.58074
▁współpracy	-9.58136
mian	-9.5814
nięcia	-9.58185
▁większy	-9.58203
lek	-9.58214
▁pokaz	-9.5826
▁up	-9.58261
▁mieli	-9.58305
moc	-9.58348
ex	-9.58389
vo	-9.58424
res	-9.58514
▁ciąg	-9.58535
cyj	-9.58547
▁usa	-9.58642
ęż	-9.58657
▁korzysta	-9.58671
dza	-9.5874
▁tur	-9.58895
nek	-9.58949
▁światła	-9.58991
ker	-9.59078
ren	-9.59201
▁sygnał	-9.59263
wers	-9.59421
▁miesiąc	-9.59458
żyć	-9.59495
tal	-9.59582
▁powietrza	-9.5969
+	-9.5971
▁pojawił	-9.59821
net	-9.59839
▁pat	-9.59853
▁mojej	-9.59888
▁papier	-9.60028
▁materiałów	-9.60044
jak	-9.60142
▁ple	-9.60151
▁myślę	-9.60183
▁szczegół	-9.60394
▁blisko	-9.60441
▁tzw	-9.60477
ownik	-9.60487
▁led	-9.60546
istot	-9.60564
cej	-9.6065
▁kontroli	-9.60718
▁sprawdza	-9.6076
terapi	-9.60781
³	-9.60786
owanym	-9.6084
▁chwil	-9.60857
▁ogóle	-9.60866
czenie	-9.60904
▁kie	-9.60994
▁piękny	-9.61028
dziej	-9.61051
▁realizacji	-9.61083
▁większości	-9.61112
▁pieniądze	-9.61129
▁rozwój	-9.61182
▁wysp	-9.61262
▁przedstawia	-9.6128
kręt	-9.6129
▁względem	-9.61317
sti	-9.61327
ju	-9.61362
▁zak	-9.61368
▁wiadomości	-9.6142
▁całego	-9.61436
▁aktor	-9.61448
dia	-9.61573
▁sko	-9.61644
inform	-9.6165
▁towar	-9.61672
▁zmieni	-9.61715
cyjne	-9.61721
gląd	-9.61729
ban	-9.61762
▁pojawia	-9.61802
▁proste	-9.61842
▁miast	-9.61904
niejszy	-9.61916
▁zespołu	-9.61955
▁dostarcza	-9.61956
▁wykonane	-9.61992
▁drodze	-9.62059
ple	-9.62188
▁czar	-9.622
siad	-9.62279
▁cztery	-9.62316
żywi	-9.6232
▁plus	-9.62356
▁przypomina	-9.62413
▁nowym	-9.62555
▁jan	-9.6256
port	-9.62585
▁zwrot	-9.62714
▁kw	-9.62719
▁bli	-9.62722
▁ści	-9.62737
tyn	-9.62764
▁wyboru	-9.6281
▁wyraz	-9.62827
▁wyniku	-9.62846
▁całą	-9.62853
pła	-9.62855
▁twój	-9.62858
▁wyjaśni	-9.62926
ąt	-9.62976
▁sprzęt	-9.62992
▁stref	-9.63012
kowej	-9.63024
cznego	-9.6308
▁wspomni	-9.63099
▁napęd	-9.63199
▁nowej	-9.63244
▁pozycji	-9.6325
łożone	-9.63282
▁mil	-9.63414
▁start	-9.63512
lnych	-9.63532
▁diet	-9.63544
▁głowy	-9.63588
▁trening	-9.63599
▁wokół	-9.63607
▁zobowiąza	-9.63613
alna	-9.63654
▁środowiska	-9.63683
cer	-9.63768
tyka	-9.63769
acyjne	-9.63793
!!!	-9.63892
▁kamer	-9.63921
▁serwer	-9.63929
wę	-9.63955
▁robot	-9.63959
▁czynności	-9.63983
zawod	-9.64053
▁aut	-9.64101
▁windows	-9.64122
ńskiej	-9.64126
kol	-9.64184
klej	-9.64213
ble	-9.64234
stroj	-9.6424
▁uśmiech	-9.64329
▁jakim	-9.64404
▁bal	-9.64422
▁najpierw	-9.64434
▁podmiot	-9.64467
▁panel	-9.64529
świ	-9.64549
▁rys	-9.64668
^	-9.64678
▁poziomu	-9.64736
czny	-9.64797
▁białe	-9.64806
▁zdaniem	-9.64816
pan	-9.64819
godny	-9.6482
łych	-9.64859
▁kro	-9.64871
▁oper	-9.6488
bija	-9.64891
przed	-9.64899
▁treści	-9.64916
nością	-9.65073
▁zwiększa	-9.65077
▁sprawy	-9.65104
tej	-9.65111
jon	-9.65128
kr	-9.65157
▁wyświetla	-9.65168
▁zasady	-9.65227
▁wpis	-9.65281
▁klub	-9.65489
▁zaraz	-9.65502
▁pewnie	-9.65502
▁decyzji	-9.65539
▁wprowadza	-9.6558
ts	-9.65634
▁rolę	-9.6564
▁cer	-9.65666
▁społecz	-9.65731
▁użyciu	-9.65766
▁jedzenie	-9.65972
gin	-9.65991
▁podobne	-9.66057
▁formie	-9.6614
▁har	-9.6616
publi	-9.66177
nictwa	-9.6623
▁zobaczy	-9.66491
▁boże	-9.66498
rus	-9.66527
stra	-9.66598
▁eks	-9.66615
▁os	-9.66727
▁broni	-9.66733
▁kultury	-9.66774
▁sub	-9.66813
▁prace	-9.66816
▁specjalne	-9.66819
▁przestrzeni	-9.66831
▁wstęp	-9.66854
▁serii	-9.6686
▁karty	-9.669
▁specjalist	-9.66936
▁przebieg	-9.66944
▁wideo	-9.66994
▁prosty	-9.6708
▁pomp	-9.67089
▁przedstawiciel	-9.67099
▁pole	-9.67113
▁gracz	-9.67134
▁us	-9.67179
▁użytkownik	-9.67244
▁nieza	-9.67268
ory	-9.67299
▁mieście	-9.67315
▁tryb	-9.67317
▁amerykański	-9.67332
wią	-9.67377
▁znaczenie	-9.67455
▁akt	-9.67474
▁komu	-9.67501
▁zanim	-9.67533
dłuż	-9.67591
encja	-9.6763
▁kolei	-9.67652
▁wojny	-9.67693
▁niepo	-9.67849
▁angielski	-9.67858
▁choroby	-9.67884
▁pytania	-9.67954
▁książki	-9.67962
bior	-9.68009
▁mln	-9.6804
▁skrzy	-9.68057
▁baz	-9.68066
ęci	-9.68109
▁wysła	-9.682
▁zachowa	-9.6826
▁rur	-9.68275
▁her	-9.68307
▁not	-9.68348
cka	-9.68395
▁określ	-9.6848
▁tru	-9.68484
▁moduł	-9.68532
▁motyw	-9.68592
▁umie	-9.68616
▁wiadomo	-9.68662
▁pomóc	-9.68701
leci	-9.68814
organizowan	-9.68838
▁okazji	-9.68867
▁robić	-9.68868
fil	-9.68877
ation	-9.6897
▁cech	-9.68994
▁pokój	-9.69003
▁całe	-9.69124
▁bram	-9.69151
▁los	-9.69158
▁praktyk	-9.69166
rzenia	-9.69174
▁doskonale	-9.6926
▁doświadczenie	-9.69314
sc	-9.69324
▁równo	-9.69324
ckiego	-9.6937
alnej	-9.69384
▁natychmiast	-9.69388
▁post	-9.69434
▁etap	-9.6945
▁postanowi	-9.69494
nor	-9.69618
▁zamiesz	-9.69629
▁kliknij	-9.69643
▁magazyn	-9.69658
▁mini	-9.69705
▁połączenie	-9.6974
▁opowiada	-9.69855
▁uszkodz	-9.69873
amy	-9.6988
▁ustawy	-9.69914
ograf	-9.69975
▁mięśni	-9.70075
▁komplet	-9.70121
▁wizyt	-9.70148
patrz	-9.70162
▁sal	-9.70167
▁różni	-9.70181
padł	-9.70289
cego	-9.70377
▁rodzaj	-9.70475
▁aparat	-9.70478
▁większe	-9.7048
▁salon	-9.70484
▁mis	-9.7049
▁zostaną	-9.70543
▁obniż	-9.70689
owców	-9.70732
▁wykaz	-9.7079
▁jazdy	-9.70805
▁środ	-9.70889
▁zakres	-9.70927
▁dia	-9.70953
▁czasami	-9.7099
dzy	-9.70992
▁komfort	-9.70995
▁chcę	-9.71061
szej	-9.71105
▁dużą	-9.71119
▁zazwyczaj	-9.71229
tego	-9.71355
▁lepsze	-9.71475
▁usuwa	-9.71499
▁mocno	-9.71543
▁skupi	-9.71548
woł	-9.71563
▁metody	-9.71563
▁wielki	-9.71574
krę	-9.71584
▁związanych	-9.7171
▁zainstalowa	-9.71717
▁niezwykle	-9.71725
▁platform	-9.71805
▁mikro	-9.7184
▁zaznacz	-9.71873
fer	-9.71884
▁staje	-9.71895
ryt	-9.71897
nij	-9.71948
dziesiąt	-9.71967
wki	-9.71974
▁metod	-9.7206
▁prąd	-9.72134
▁włosów	-9.72198
▁naturalne	-9.72201
▁ekran	-9.72217
▁technologii	-9.72298
▁samochód	-9.72311
▁mieszkańców	-9.72352
▁ustawienia	-9.72371
ciel	-9.72414
▁ed	-9.7242
▁ryzyko	-9.72446
▁lew	-9.72463
trze	-9.72502
▁gal	-9.72511
dzien	-9.72564
▁ostatnich	-9.72629
nder	-9.72662
cyjny	-9.72665
▁pobliżu	-9.72683
▁odbył	-9.72781
lam	-9.72802
▁celów	-9.72835
łożenie	-9.72894
▁budynku	-9.72914
moż	-9.7295
▁ce	-9.72966
▁zdjęć	-9.72976
▁biur	-9.72993
specjal	-9.73003
▁kupić	-9.7302
▁pana	-9.7303
▁zegar	-9.73039
▁akcji	-9.73101
▁podłącz	-9.73163
▁tele	-9.73171
▁ti	-9.7324
mog	-9.73261
▁medi	-9.73339
▁liczy	-9.73429
▁powyżej	-9.7346
lem	-9.73487
▁pracownik	-9.73506
sen	-9.73564
▁głównym	-9.73577
▁obejmuje	-9.7359
▁musimy	-9.73596
sji	-9.73609
ros	-9.73626
gan	-9.73658
▁prezes	-9.73694
▁marki	-9.73703
▁kul	-9.73714
▁stanowią	-9.73776
▁niemal	-9.73799
▁prawda	-9.73827
▁biały	-9.73833
▁link	-9.7384
▁fan	-9.73903
▁naturalny	-9.73912
▁spełni	-9.73945
▁ślub	-9.73967
tyczny	-9.74023
acz	-9.7407
▁wskaźnik	-9.74104
acyjnych	-9.74137
▁sztuki	-9.74207
oł	-9.74287
wan	-9.74309
cyjnych	-9.74319
pisane	-9.74365
▁szans	-9.74373
▁wiz	-9.74387
ĺ	-9.74496
▁spotkania	-9.74601
▁wersja	-9.74606
▁ofiar	-9.74607
dawać	-9.74623
trzy	-9.74671
trwa	-9.74677
▁koszty	-9.7477
▁lit	-9.7481
finansowa	-9.74843
łoży	-9.74844
▁dysk	-9.74844
▁=	-9.7487
nos	-9.74874
▁twarzy	-9.74875
▁wykorzysta	-9.74894
é	-9.74918
▁kolory	-9.74945
izm	-9.74976
▁ważny	-9.75005
młod	-9.75047
czas	-9.75122
art	-9.75125
▁dziw	-9.75179
nikiem	-9.75181
ers	-9.75207
rzą	-9.75244
▁rozpozna	-9.75277
nięty	-9.75284
▁ry	-9.75317
▁powoduje	-9.75345
wrot	-9.75453
▁następ	-9.7546
▁mecz	-9.75488
szczenie	-9.75494
prawi	-9.75526
szego	-9.75532
▁włosy	-9.75577
chło	-9.7564
▁zwierząt	-9.75656
▁dostosowa	-9.75711
▁krótki	-9.75783
lor	-9.75822
▁zapach	-9.75829
▁el	-9.75842
icznej	-9.75869
▁miały	-9.7595
zor	-9.75956
rodzi	-9.75995
▁ke	-9.76021
▁twarz	-9.76027
słow	-9.7604
▁dotyczących	-9.76049
▁zniszcz	-9.76056
▁ue	-9.76061
▁zwraca	-9.7609
nne	-9.761
plan	-9.76106
▁hotelu	-9.76109
siąg	-9.76117
reprezent	-9.76132
▁piersi	-9.76188
▁liczby	-9.76206
yjne	-9.7621
szer	-9.76217
▁warunkach	-9.76238
▁fr	-9.76248
stu	-9.76266
dar	-9.76292
▁wiedzy	-9.76301
▁ciekawe	-9.76331
▁widział	-9.76341
▁transport	-9.76361
ls	-9.76427
las	-9.76452
▁konkurs	-9.76486
▁rozszerz	-9.76515
▁teatr	-9.76568
rocz	-9.76588
ący	-9.7662
▁kontynu	-9.76626
▁chwilę	-9.7666
łość	-9.76677
błęd	-9.76777
▁pewne	-9.76787
▁problemu	-9.76804
▁zmienić	-9.76838
▁konieczne	-9.76866
mb	-9.76886
▁|	-9.76889
wnętrz	-9.76907
zwo	-9.76933
▁podda	-9.76963
▁nu	-9.76976
▁sprawdzić	-9.76995
▁razu	-9.77066
part	-9.77074
▁przeczyta	-9.77094
▁premier	-9.7716
▁światło	-9.77194
▁urzęd	-9.77237
▁temperatury	-9.77246
▁th	-9.77264
▁ks	-9.77308
gli	-9.77312
▁wektor	-9.77341
bl	-9.77361
▁bit	-9.77408
czej	-9.77422
▁jezus	-9.77592
▁pierwsza	-9.77682
owało	-9.77684
▁en	-9.77749
▁budowa	-9.77808
▁wynik	-9.77822
▁niebieski	-9.77826
▁rozpocz	-9.77852
instal	-9.77883
pr	-9.77932
▁miłości	-9.77951
▁kosztów	-9.77962
tyczna	-9.7798
▁zdecydowanie	-9.77992
▁września	-9.7801
lep	-9.78012
▁dołącz	-9.7803
fl	-9.78067
▁ulic	-9.78084
▁rozwi	-9.78107
▁szczęście	-9.78147
▁stały	-9.78151
dło	-9.78152
ujesz	-9.78232
form	-9.78238
▁doświadcz	-9.78268
▁układu	-9.78276
podob	-9.78366
▁wewnątrz	-9.78383
▁piotr	-9.7839
▁dzieje	-9.78411
▁leczenia	-9.78432
▁przyjaciół	-9.78433
▁spacer	-9.78455
alnego	-9.78483
mieni	-9.7853
▁wiedział	-9.78555
▁wyci	-9.78564
fin	-9.78632
rzut	-9.7866
jechał	-9.78663
ół	-9.78671
▁san	-9.78675
▁stało	-9.78695
▁kamieni	-9.78751
▁drog	-9.78819
▁muszę	-9.7887
wiesz	-9.78897
nem	-9.78932
▁moment	-9.78999
▁sol	-9.79
▁stary	-9.79008
▁wytwarza	-9.79009
▁dodać	-9.79026
▁koncert	-9.79039
alną	-9.79105
▁wpływa	-9.79125
▁mistrz	-9.79135
aria	-9.7915
▁zebra	-9.79153
▁polskich	-9.79181
▁swe	-9.79217
▁zarządzania	-9.7927
▁spółki	-9.79299
▁woda	-9.79307
▁otrzymał	-9.79358
▁mog	-9.79361
realizowa	-9.7937
mobil	-9.79439
krót	-9.79523
pełni	-9.79634
▁wysoki	-9.79704
ywania	-9.79737
▁jaką	-9.79744
kowi	-9.79745
▁pakiet	-9.79767
▁komentarz	-9.79807
dem	-9.79936
pew	-9.79969
▁straż	-9.79977
owaniem	-9.79985
▁zrobił	-9.79997
lnego	-9.80041
różni	-9.80072
▁procesu	-9.80094
▁barw	-9.80138
▁pewnością	-9.8018
▁mon	-9.80227
ówka	-9.80255
cal	-9.80285
▁płac	-9.80309
▁samej	-9.80329
▁online	-9.8033
iczna	-9.80406
▁wraca	-9.80438
▁forma	-9.80486
lenia	-9.80511
▁tygodni	-9.80514
syp	-9.80525
▁uczy	-9.80635
▁eli	-9.80694
▁siły	-9.80742
noś	-9.80757
daje	-9.80766
▁energ	-9.80812
bro	-9.80827
▁imprez	-9.80838
godne	-9.80854
▁zbior	-9.80866
powiada	-9.8093
▁ge	-9.80931
przewod	-9.80963
▁działalność	-9.8098
sił	-9.80989
ord	-9.81
▁wrażenie	-9.81018
▁stosowania	-9.81049
▁wręcz	-9.8109
▁wyznacz	-9.81226
▁napraw	-9.81392
niejszych	-9.8148
▁przes	-9.81491
ycznych	-9.8151
▁procent	-9.81598
▁pięć	-9.81649
▁szereg	-9.81704
▁finansowe	-9.81741
iczną	-9.81829
▁przeciwko	-9.81843
▁sprzedaż	-9.81903
▁miało	-9.81945
▁polityk	-9.81949
▁pierwszego	-9.81951
stro	-9.81977
lone	-9.81989
▁proc	-9.82047
▁pociąg	-9.8209
owskiego	-9.8223
▁wykonania	-9.82252
ogranicz	-9.82264
▁połączenia	-9.82376
ell	-9.82511
pię	-9.82527
▁rozumie	-9.82531
▁użytkowników	-9.82597
owały	-9.82606
nes	-9.82671
▁zapal	-9.82686
żenie	-9.82704
▁maj	-9.82751
wraca	-9.82774
anych	-9.82782
▁podobny	-9.82818
▁przepływ	-9.82849
▁pyta	-9.82863
▁nocy	-9.82873
▁raport	-9.82898
cami	-9.82906
nica	-9.82912
▁otwiera	-9.83011
▁pory	-9.83026
▁obywatel	-9.83051
▁określone	-9.83064
▁nieruchomości	-9.83071
lna	-9.83102
gotowa	-9.83134
▁kategorii	-9.83146
owiec	-9.83163
▁szef	-9.83173
laz	-9.83261
śmie	-9.83276
▁zmiana	-9.83285
▁pło	-9.83299
byt	-9.83301
ê	-9.83327
pisz	-9.83378
atora	-9.83457
▁płat	-9.83467
▁mg	-9.83486
▁fundusz	-9.83517
▁tłuszcz	-9.83517
▁mogła	-9.8358
izol	-9.83599
owaną	-9.83602
▁szar	-9.83613
▁polskiego	-9.83732
▁rezerw	-9.8374
▁brzmi	-9.83741
kowego	-9.83788
▁prawdopodobnie	-9.83841
nięte	-9.8385
▁przynajmniej	-9.83894
niczego	-9.83942
ice	-9.83953
cyjną	-9.83954
▁języka	-9.8397
▁dar	-9.83985
pas	-9.84009
bec	-9.84029
▁polskiej	-9.8403
iec	-9.84057
▁instalacji	-9.84071
▁mojego	-9.841
ól	-9.84118
▁zewnątrz	-9.8413
▁wyświetl	-9.84152
▁pełny	-9.84175
▁przyszłości	-9.84191
▁ukrai	-9.84222
ew	-9.84286
▁stali	-9.84389
▁spełnia	-9.84403
▁informa	-9.8444
▁pacjentów	-9.84446
▁odpowiednio	-9.84474
▁dodaje	-9.84526
czyni	-9.8458
▁dużej	-9.8469
▁cukr	-9.84776
wiad	-9.84828
▁klient	-9.84895
nc	-9.84915
▁porusza	-9.85027
▁nasza	-9.85041
▁zapobiega	-9.85047
▁zaczął	-9.85107
▁krzy	-9.85133
▁sekund	-9.85206
gon	-9.85228
▁czerwony	-9.8526
▁sprawa	-9.85276
▁macie	-9.8532
▁as	-9.85321
gł	-9.85336
▁czerwca	-9.85353
▁następujące	-9.85394
▁prędkości	-9.854
und	-9.85405
▁historia	-9.85439
sol	-9.8545
ez	-9.85587
▁mówił	-9.8569
▁oto	-9.85752
▁upraw	-9.85792
▁narzędzia	-9.85796
▁materiału	-9.85803
▁free	-9.8586
▁szybkie	-9.85895
▁dach	-9.8591
▁miałem	-9.85929
▁odpowiednie	-9.85931
▁gmin	-9.85933
▁zadania	-9.85945
czyk	-9.85945
▁dusz	-9.85972
▁ziel	-9.85972
▁wad	-9.86
typ	-9.86098
▁darmo	-9.8612
twar	-9.86123
▁muzeum	-9.86228
▁długości	-9.86261
powiedz	-9.86272
▁ros	-9.8628
▁organiza	-9.86379
▁krzyż	-9.86435
▁pieniędzy	-9.86663
▁podkreśla	-9.86707
▁grudnia	-9.86734
▁europejskiej	-9.86736
iny	-9.86861
▁środowisk	-9.86909
▁chłopak	-9.86939
cznym	-9.87028
leni	-9.87117
lnej	-9.8716
lik	-9.87206
usd	-9.8722
głębi	-9.87231
pla	-9.87251
▁fal	-9.87283
minimal	-9.87307
▁podziel	-9.87317
▁objaw	-9.87339
▁obejmują	-9.8734
miejski	-9.87341
nny	-9.87411
▁efekty	-9.87424
▁miłość	-9.87424
▁obej	-9.87483
que	-9.87554
▁skór	-9.87606
▁profesjonal	-9.87616
▁warunków	-9.87627
pięt	-9.8784
dług	-9.87861
▁tysięcy	-9.87903
▁rzeczywistości	-9.88006
▁cywil	-9.88029
▁uwaga	-9.88054
stre	-9.88112
▁kompleks	-9.88148
zki	-9.88196
rp	-9.88249
▁dalsze	-9.88316
icznego	-9.88344
▁kim	-9.88384
▁należą	-9.88407
▁wiesz	-9.88431
▁dba	-9.88436
▁samolot	-9.88455
▁ogni	-9.88489
▁powiat	-9.88578
▁gier	-9.88579
ologii	-9.88619
▁sek	-9.88624
▁samochodu	-9.88634
liwe	-9.88701
▁inf	-9.88743
▁stosunku	-9.88815
ep	-9.88831
▁cierpi	-9.88925
ień	-9.88926
▁minister	-9.88943
pra	-9.88957
▁uzasadni	-9.88959
▁występuje	-9.88963
▁poszukiwa	-9.88999
jeżdża	-9.89067
▁optymal	-9.89075
pisał	-9.89087
biał	-9.89094
▁wielkości	-9.89107
▁przypadkach	-9.89199
▁poprawi	-9.89225
▁walki	-9.89237
▁[...]	-9.89255
eczki	-9.89349
▁kg	-9.89367
▁lekko	-9.89367
▁zosta	-9.894
▁postępowania	-9.89401
▁porad	-9.89417
▁występują	-9.89464
▁cal	-9.89468
▁rozmawia	-9.89473
▁spotkanie	-9.89479
▁ciało	-9.89504
▁bel	-9.89512
▁ag	-9.89555
▁zastanawia	-9.89591
▁kal	-9.89606
▁kościoła	-9.89616
widz	-9.89622
ąż	-9.89624
▁tłumacz	-9.89628
▁znaczy	-9.89671
▁poczt	-9.89713
▁drugie	-9.8973
▁wkład	-9.89763
▁kawał	-9.89803
▁dziewczyna	-9.89827
traktowa	-9.89845
▁społeczności	-9.8988
▁integr	-9.89906
▁miło	-9.89926
nienia	-9.89932
bym	-9.89964
aniem	-9.89983
▁'	-9.89998
▁ostatnio	-9.90057
▁str	-9.9013
▁red	-9.90172
▁temp	-9.90194
▁czujnik	-9.90239
▁zajęcia	-9.9027
południ	-9.90336
▁przepisów	-9.90345
▁bur	-9.90395
del	-9.90459
▁komisji	-9.90536
strateg	-9.90563
▁silnika	-9.90584
wała	-9.90623
mus	-9.90682
run	-9.90767
gna	-9.90798
▁new	-9.90831
▁stałe	-9.90848
▁pozostał	-9.90875
▁pamiętać	-9.90941
▁napisał	-9.90952
▁usb	-9.9096
▁radio	-9.90968
ili	-9.90982
kowski	-9.90996
▁elektro	-9.91008
środ	-9.91053
szuka	-9.91068
▁tajemnic	-9.91117
▁min	-9.91133
▁wygra	-9.91154
kocha	-9.91168
▁punktu	-9.91179
wszy	-9.91219
▁szczególności	-9.91235
▁basen	-9.91249
eria	-9.91257
▁mechanizm	-9.91259
▁wewnętrzne	-9.91283
▁obsługa	-9.91293
▁zbiera	-9.91319
tycznie	-9.91333
▁postaw	-9.91359
rzęd	-9.91371
▁dekor	-9.91373
gh	-9.91396
ewski	-9.91397
▁podstawowe	-9.91411
▁sektor	-9.91559
łożony	-9.91564
łaś	-9.91585
ckiej	-9.91624
▁gatun	-9.9167
▁pozostaje	-9.91672
▁narzędzi	-9.91693
▁gminy	-9.91712
▁stopni	-9.91718
▁bry	-9.91806
);	-9.91821
czer	-9.91839
▁wyciąg	-9.91988
age	-9.92019
▁klik	-9.92027
▁marca	-9.92042
▁funkcje	-9.92063
▁skan	-9.92065
▁wysokie	-9.92125
▁xx	-9.92142
▁ciężar	-9.92165
▁powiedz	-9.92207
dząc	-9.92264
▁napis	-9.92303
▁organizm	-9.92346
▁europie	-9.92347
▁metrów	-9.92404
▁ri	-9.92444
gro	-9.9252
ywać	-9.92574
▁ste	-9.92649
▁tv	-9.9268
▁idealny	-9.92684
▁władz	-9.92685
▁dobrym	-9.92753
▁szaf	-9.92757
▁stal	-9.92786
▁żołnierz	-9.92798
▁mę	-9.92812
▁elektryczne	-9.92877
icznie	-9.92903
▁października	-9.92943
▁zauważ	-9.92965
▁dysku	-9.92968
▁kończy	-9.92997
bry	-9.9304
pust	-9.93087
▁drugim	-9.93097
row	-9.93098
▁krem	-9.93121
▁zostaje	-9.93123
▁naszą	-9.9313
▁&	-9.93174
▁modelu	-9.93177
wóz	-9.93207
▁ulicy	-9.93208
▁własne	-9.93209
▁obrazy	-9.93246
liwy	-9.93282
▁doświadczenia	-9.9334
▁kwesti	-9.93345
gła	-9.93372
▁sumie	-9.9344
▁wiatr	-9.93442
▁emi	-9.93464
▁oceny	-9.93489
▁sym	-9.93495
pres	-9.93503
nda	-9.93511
▁całkiem	-9.93524
wiz	-9.93533
uchy	-9.93572
kli	-9.93581
▁europy	-9.93634
▁pier	-9.93634
▁niewy	-9.93671
▁plików	-9.93726
▁jaj	-9.93768
▁pobiera	-9.93791
▁wysyła	-9.93796
ust	-9.93869
▁media	-9.93891
▁żąda	-9.93908
księg	-9.93917
▁sen	-9.93928
▁autobus	-9.93948
tworzy	-9.93987
▁zapewnić	-9.93991
stry	-9.94001
▁kupi	-9.94052
len	-9.94081
▁technik	-9.94125
▁mówiąc	-9.94134
ymi	-9.94207
▁oddziel	-9.94211
▁pras	-9.94223
izuje	-9.94275
acyjny	-9.94291
rr	-9.943
▁kwietnia	-9.94302
decydowa	-9.94305
bin	-9.94307
▁cud	-9.94408
plik	-9.94427
▁ap	-9.94452
ględ	-9.94458
▁przewi	-9.94466
ującego	-9.94542
częst	-9.94571
▁zastęp	-9.94623
▁cu	-9.94656
▁poszczególnych	-9.94658
▁ziem	-9.94664
▁liście	-9.94678
▁świetnie	-9.94723
▁unii	-9.94738
▁znany	-9.94805
▁et	-9.94816
▁członków	-9.94877
▁odpowiedź	-9.9491
ans	-9.94991
▁tło	-9.94991
▁pracuje	-9.95014
▁roman	-9.95035
bar	-9.95074
równ	-9.95077
świadcze	-9.95121
▁gotowa	-9.95129
▁piecz	-9.95167
▁wsparcie	-9.9519
▁spodziewa	-9.95223
▁wypadku	-9.95247
dzone	-9.95259
▁wodo	-9.95264
ologiczny	-9.9527
▁skal	-9.95331
gl	-9.95345
▁zarządza	-9.95351
▁rynek	-9.95356
eczka	-9.95372
▁wielkiej	-9.95477
▁sporo	-9.95509
▁des	-9.95554
warszaw	-9.95581
▁instrument	-9.9559
▁tri	-9.95661
▁nauki	-9.95694
▁nową	-9.95721
zone	-9.95783
byśmy	-9.95824
▁sprawę	-9.95887
suwa	-9.95889
▁wystąpi	-9.96098
ora	-9.96105
▁moich	-9.96141
▁seks	-9.96154
owicz	-9.96169
ologiczne	-9.96186
▁promieni	-9.96187
▁procedur	-9.96285
▁buty	-9.96331
▁użyć	-9.96346
▁muzyki	-9.96382
stabil	-9.96389
▁pomimo	-9.96394
▁komputera	-9.96449
tory	-9.96471
▁general	-9.96474
▁dużym	-9.9659
▁naucz	-9.96609
▁przyjaciel	-9.96611
izacja	-9.9663
atyw	-9.96636
▁serce	-9.96697
ucha	-9.96736
grom	-9.96748
mal	-9.96756
alnym	-9.96791
▁chcemy	-9.96844
▁leg	-9.9686
prowadzi	-9.96921
burg	-9.96951
▁dotychczas	-9.96955
▁witamin	-9.96959
▁chłop	-9.96974
▁małych	-9.96982
▁opiek	-9.97003
▁jakiej	-9.97035
▁funkcja	-9.97042
▁kap	-9.97069
▁żar	-9.97085
\	-9.97171
▁stycznia	-9.9718
▁budżet	-9.9719
gor	-9.97194
▁wodą	-9.97194
▁wiek	-9.97297
ienia	-9.97315
▁korzyści	-9.97345
▁wcale	-9.97371
▁podróży	-9.974
trój	-9.97407
pożycz	-9.97411
▁korzystać	-9.9742
czę	-9.97426
▁opcji	-9.97427
▁listopada	-9.97431
▁zmarł	-9.9752
niom	-9.97574
▁zamówi	-9.976
▁kat	-9.97616
niósł	-9.97631
▁czuł	-9.97641
▁zostawi	-9.97656
czni	-9.97693
▁francuski	-9.9772
▁wytrzyma	-9.97754
▁zaledwie	-9.97823
ero	-9.97847
byś	-9.97901
▁dużych	-9.97906
▁książka	-9.97914
▁tar	-9.97955
▁służb	-9.97964
▁skoro	-9.98038
▁zapewni	-9.98053
▁czerw	-9.98057
▁nazwisk	-9.98104
▁pc	-9.98115
tycznej	-9.98116
▁techniczne	-9.98121
prę	-9.98187
bierz	-9.98201
▁filmu	-9.98224
ozdob	-9.98289
▁droga	-9.98393
nicze	-9.98407
▁chin	-9.98546
pen	-9.98552
▁swo	-9.98573
▁zmniejsz	-9.98586
lną	-9.98621
indywidual	-9.98624
▁pojazd	-9.98683
▁q	-9.98696
▁właściwe	-9.98703
prosz	-9.98755
▁okazało	-9.98756
▁źródło	-9.98849
▁blog	-9.98857
ary	-9.98901
▁koszul	-9.9892
▁wniosek	-9.98932
▁stosowane	-9.98965
ięcia	-9.98987
▁ogólne	-9.99025
▁uchwyt	-9.99062
▁map	-9.99112
powie	-9.99165
▁wyższe	-9.99195
▁punktów	-9.99217
▁con	-9.99264
▁kolejnych	-9.99273
▁zwolni	-9.99309
▁ręce	-9.99342
▁cele	-9.99358
grzewa	-9.99421
▁sami	-9.99441
▁materiały	-9.99528
szczę	-9.99555
▁dostępny	-9.9961
owość	-9.99635
▁lipca	-9.99652
▁duża	-9.99658
nią	-9.99673
rozumie	-9.99712
▁mężczyzna	-9.99768
▁pamiętaj	-9.99776
▁stopniu	-9.9978
▁ds	-9.99804
▁jednostki	-9.99808
ochron	-9.9983
mienne	-9.99845
termin	-9.9986
▁iii	-9.99878
peł	-9.99951
▁ubezpieczeni	-9.99983
▁lini	-10.0003
hu	-10.0006
czony	-10.0006
▁dopasowa	-10.0006
▁bóg	-10.0011
▁środka	-10.0013
▁warszawie	-10.0013
▁ostro	-10.0016
gni	-10.0017
lność	-10.0018
▁rodziców	-10.0023
▁byłoby	-10.0026
woz	-10.0026
▁skarb	-10.0029
łóż	-10.003
val	-10.003
gól	-10.0031
▁strasz	-10.0032
▁będąc	-10.0036
ham	-10.0041
stwie	-10.0045
tyki	-10.0053
▁zajmuje	-10.0056
▁oczekiwa	-10.0057
pój	-10.0065
▁warsztat	-10.0066
▁royalty	-10.0067
▁zawodnik	-10.0069
¹	-10.0074
▁dostępu	-10.0082
ląd	-10.0086
▁stu	-10.0087
ywanie	-10.009
▁systemów	-10.0091
▁jezior	-10.0091
▁dys	-10.0094
▁drzew	-10.0095
zł	-10.0099
▁funkcjonal	-10.0099
▁używać	-10.011
▁mur	-10.011
▁warzyw	-10.0112
▁uczestnicz	-10.0115
▁źródła	-10.0115
▁fragment	-10.0117
▁formy	-10.0119
▁pochodzi	-10.0119
kul	-10.0126
popular	-10.0126
ującym	-10.0131
cen	-10.0132
▁zewnętrzne	-10.0133
▁cieszy	-10.0134
▁zada	-10.0138
▁konkur	-10.0138
▁całości	-10.0141
▁cała	-10.0141
▁kab	-10.0145
▁trybie	-10.0145
isty	-10.0146
▁zbiornik	-10.0148
▁niezbędne	-10.0149
biór	-10.0151
defini	-10.0151
rywa	-10.0153
wana	-10.016
rzenie	-10.0161
▁podpis	-10.0164
reduk	-10.0168
niczych	-10.0173
strzel	-10.0189
▁tablet	-10.0191
▁tez	-10.0192
▁sc	-10.0194
dom	-10.0204
ometr	-10.0206
▁porówna	-10.0207
tycznego	-10.0207
▁nowoczesny	-10.0207
▁używane	-10.0209
▁album	-10.0213
▁najlepszych	-10.0222
▁zamówienia	-10.0222
▁złotych	-10.0227
▁koło	-10.023
niejsza	-10.0234
stosow	-10.0236
▁uwielbia	-10.0236
krze	-10.0239
▁przepisy	-10.0245
▁oferty	-10.0253
▁sprawi	-10.0253
▁rosyjski	-10.0257
▁zakłada	-10.0261
▁zjawisk	-10.0263
oksy	-10.0263
▁wierzy	-10.0267
▁śli	-10.0267
▁automatycznie	-10.0268
szcza	-10.027
fon	-10.0271
▁klin	-10.0271
▁plik	-10.0276
▁nadaje	-10.0278
rzecz	-10.028
spor	-10.029
▁samochodów	-10.0296
▁znowu	-10.0298
▁wolno	-10.0299
▁sprawdź	-10.03
ward	-10.0302
▁pokoje	-10.0303
▁logi	-10.0305
▁internetowej	-10.0316
▁szpital	-10.0316
krzy	-10.0322
cc	-10.0325
jącymi	-10.0329
▁wykorzystanie	-10.0333
low	-10.0334
▁obciąż	-10.0338
▁spotyka	-10.034
gotow	-10.0349
dzony	-10.0352
®	-10.0352
▁stosuje	-10.0355
ąca	-10.0356
▁ciężko	-10.0356
▁listy	-10.0356
ciem	-10.0357
owca	-10.0357
▁han	-10.036
wzajem	-10.0361
▁but	-10.0365
sor	-10.037
▁stosować	-10.0374
▁spi	-10.0376
▁personel	-10.0376
▁strat	-10.038
miesięcz	-10.0381
▁aplikacja	-10.0383
cznej	-10.0391
yczny	-10.0392
▁stawia	-10.0393
blo	-10.0396
▁inni	-10.0401
sel	-10.0402
▁sierpnia	-10.0404
▁transportu	-10.0405
▁systemie	-10.0405
▁niektórzy	-10.0407
zachodni	-10.0408
szczęśliw	-10.0412
▁wzrostu	-10.0415
▁niezależnie	-10.0417
▁podlega	-10.042
sąd	-10.0422
▁uczniów	-10.0423
niczy	-10.0423
dż	-10.0426
▁www	-10.0428
▁pierwszych	-10.0429
▁budowy	-10.0432
▁funkcję	-10.0434
▁dal	-10.0435
▁nami	-10.0436
▁ujawni	-10.0439
▁związek	-10.044
▁czegoś	-10.0441
▁błąd	-10.0443
trzyma	-10.0446
▁prawdziwe	-10.0456
▁koron	-10.0465
▁długie	-10.0466
czone	-10.0471
▁waż	-10.0472
▁godz	-10.0483
ącego	-10.0484
▁szybki	-10.0485
kup	-10.0488
▁dodaj	-10.049
ęciu	-10.0491
nictwo	-10.0497
▁skra	-10.0499
▁zakresu	-10.0502
▁hd	-10.0514
▁google	-10.0519
▁druga	-10.0522
▁otocz	-10.0524
▁tablic	-10.0524
▁równie	-10.0525
▁wykonać	-10.0525
▁lotnisk	-10.0528
▁wysokość	-10.0533
kow	-10.0534
niż	-10.0535
▁zapozna	-10.0539
tlen	-10.054
przechowywa	-10.0549
▁dotyk	-10.0549
▁polityki	-10.0559
▁nosi	-10.0563
ien	-10.0564
giel	-10.0567
zony	-10.0568
wodzi	-10.0569
▁oba	-10.057
europejski	-10.0571
▁łączy	-10.0572
tali	-10.0575
▁»	-10.0577
sci	-10.058
▁bilet	-10.0584
cone	-10.0588
uderz	-10.0589
pęd	-10.0591
▁gniazd	-10.0592
będ	-10.0593
▁konstruk	-10.0593
▁większą	-10.0595
▁konserw	-10.0596
kryty	-10.0597
▁białym	-10.0598
▁wywoła	-10.0603
▁pion	-10.0605
▁cór	-10.0608
ująca	-10.0608
alternatyw	-10.0611
▁najważniejsze	-10.0614
aktyw	-10.0615
▁serial	-10.0617
▁byłem	-10.0618
cym	-10.0625
▁apartament	-10.063
▁osad	-10.063
▁spe	-10.0633
▁sądu	-10.0636
▁kin	-10.0641
lnym	-10.0642
▁szkół	-10.0644
▁częścią	-10.0645
▁ph	-10.0647
▁obrazu	-10.0647
▁producent	-10.0653
▁prowadzą	-10.0656
dan	-10.0656
▁idzie	-10.0661
▁miałam	-10.0664
▁wspólnot	-10.0666
▁ciąży	-10.0666
alności	-10.0671
▁lubię	-10.0673
ością	-10.0673
▁koła	-10.0678
czoł	-10.0689
▁andrzej	-10.069
▁ciepła	-10.0695
▁porównaniu	-10.0699
▁zewnętrzny	-10.0701
▁obecny	-10.0701
▁portal	-10.0703
▁właściwie	-10.0703
qua	-10.0708
▁hol	-10.071
▁susz	-10.0718
ndi	-10.0718
▁zachęca	-10.0719
▁liter	-10.0721
▁podejmowa	-10.0724
▁wydarzenia	-10.0725
▁trener	-10.0727
▁montaż	-10.0728
łowi	-10.0728
▁zaufa	-10.0729
▁jakoś	-10.073
▁stoi	-10.0737
▁kapitał	-10.0737
▁przeprowadza	-10.0741
▁kl	-10.0742
▁czterech	-10.0743
▁walk	-10.0743
▁stosowany	-10.0744
licza	-10.0745
▁świec	-10.075
ariusz	-10.0751
mienny	-10.0754
cony	-10.0754
▁zasila	-10.0755
▁nowoczesne	-10.076
▁tysiąc	-10.0764
cyt	-10.0767
siedl	-10.0772
▁trój	-10.0772
▁okolic	-10.0773
▁wzmocni	-10.0774
jechać	-10.0774
▁szkoła	-10.0782
ństwa	-10.0788
▁pokazuje	-10.0788
ven	-10.0788
▁oceni	-10.0788
▁wymagania	-10.0789
▁festiwal	-10.079
▁używany	-10.079
▁tkan	-10.0794
▁długość	-10.0805
▁studio	-10.0808
stanie	-10.0808
▁czarne	-10.0811
▁facebook	-10.0812
▁stać	-10.0812
▁prezydent	-10.0817
▁moze	-10.0818
▁liczbę	-10.0821
▁dostał	-10.0822
▁dziękuję	-10.0823
▁trudne	-10.0828
▁nerw	-10.0831
▁ojciec	-10.0831
▁komunikat	-10.0835
▁tworzenia	-10.084
▁pies	-10.0845
▁niski	-10.0848
▁uzupełni	-10.0851
▁łatwe	-10.0857
▁wielkie	-10.0858
▁okna	-10.086
▁fra	-10.0861
▁wniosku	-10.0862
▁wycieczk	-10.0872
pil	-10.0875
kuje	-10.088
▁mogły	-10.0884
tic	-10.0885
ther	-10.0885
▁cykl	-10.089
▁inspir	-10.089
▁brat	-10.0893
▁masy	-10.0894
lewa	-10.0896
▁jad	-10.0898
™	-10.0903
=	-10.0904
▁zjednoczonych	-10.0906
▁zastosowania	-10.091
▁łatwiej	-10.0911
▁kościół	-10.0912
▁wkrótce	-10.0914
▁obecne	-10.0917
tyczną	-10.092
▁tygodniu	-10.0926
żdż	-10.0929
ret	-10.0931
▁badanie	-10.0934
▁nasi	-10.0937
słucha	-10.094
kierowa	-10.0942
▁potrzebne	-10.0944
▁konta	-10.095
▁wykład	-10.0952
dor	-10.0953
▁odwiedzi	-10.0954
▁chrystus	-10.0955
pre	-10.0956
sco	-10.0956
▁pen	-10.096
▁mogło	-10.096
▁perspektyw	-10.0961
▁ciągle	-10.0962
▁istotne	-10.0971
ess	-10.0973
▁temperatura	-10.0975
▁krajach	-10.0977
▁krajów	-10.0978
▁wysoko	-10.0978
ńskich	-10.098
▁muzyk	-10.098
strz	-10.098
▁okoliczności	-10.0981
▁wodę	-10.0983
▁telefonu	-10.0983
??	-10.0984
▁chciała	-10.0984
icznym	-10.0985
nione	-10.0986
▁dziedzinie	-10.0993
▁sos	-10.0993
▁posiadają	-10.0994
‚	-10.0994
zbroj	-10.0994
▁targ	-10.0994
zon	-10.0998
van	-10.1003
dent	-10.1005
szczenia	-10.1016
yzacji	-10.1024
▁milion	-10.1024
▁inwestycji	-10.1025
▁juz	-10.1026
róż	-10.1027
▁mowa	-10.1028
▁cr	-10.1028
▁twierdzi	-10.1031
▁hal	-10.1031
mery	-10.1035
▁braku	-10.1035
brzeż	-10.1042
▁wreszcie	-10.1051
▁charakterystycz	-10.1052
▁adam	-10.1053
▁akumulator	-10.1055
▁chętnie	-10.1057
▁wyraźnie	-10.1059
ling	-10.1061
▁studia	-10.1062
▁sprzętu	-10.1062
▁pierwszą	-10.1064
gór	-10.1067
pina	-10.1067
▁grunt	-10.1074
lony	-10.1075
▁otwarty	-10.1079
▁leczenie	-10.1085
▁znane	-10.1089
▁parking	-10.1094
▁zdarza	-10.1099
▁ml	-10.1104
▁lip	-10.1105
▁imię	-10.1106
fit	-10.1111
▁urząd	-10.1115
inwest	-10.1118
▁zadanie	-10.1119
nosząc	-10.1124
▁pokona	-10.1126
▁prof	-10.1126
▁biorąc	-10.1127
▁kate	-10.1129
▁wskazuje	-10.1136
▁wyrok	-10.1137
▁ostatecznie	-10.1148
handl	-10.1149
▁każde	-10.1155
▁żadnego	-10.1158
▁odległości	-10.1159
▁wewnętrzny	-10.1164
▁najlepszy	-10.1164
bawi	-10.1166
▁śle	-10.1167
▁brąz	-10.1169
▁gdańsk	-10.1175
▁wyszukiwa	-10.1178
▁wykonanie	-10.118
▁powtarza	-10.1185
▁zadań	-10.1187
▁bazy	-10.1189
▁wiary	-10.1192
strzeż	-10.1192
▁trud	-10.1195
ingu	-10.1198
▁ocenia	-10.1204
▁młodych	-10.121
▁znów	-10.1212
▁kub	-10.1213
▁wiedzieć	-10.1218
dła	-10.1219
kreśl	-10.1225
▁środku	-10.1228
▁che	-10.123
archi	-10.123
ńskie	-10.1232
▁dwor	-10.1233
▁spółka	-10.1239
▁służą	-10.1248
eta	-10.1249
▁global	-10.1253
▁szeroki	-10.1261
▁żywności	-10.1263
▁prosto	-10.1267
▁stosowa	-10.1268
▁wszech	-10.127
▁użycie	-10.1271
▁oprogramowania	-10.1272
▁mając	-10.1276
▁wyposażony	-10.1277
▁zapas	-10.1278
▁komisja	-10.1283
▁sędzi	-10.1283
&	-10.1285
▁wspól	-10.1291
▁twoim	-10.1297
▁szczyt	-10.1298
▁warszawa	-10.1303
▁zaczęła	-10.1306
▁pośrednictwem	-10.1306
▁ogólnie	-10.1306
▁wyświetlacz	-10.1307
▁foto	-10.1309
▁branży	-10.1313
gla	-10.1315
▁opini	-10.1318
▁ogranicza	-10.1322
▁most	-10.1328
▁innej	-10.133
▁zapomni	-10.1337
▁znajdzie	-10.1337
▁czuje	-10.1344
▁więzi	-10.1347
▁pliki	-10.1348
▁śląsk	-10.1353
▁jasne	-10.1356
stawia	-10.1361
▁ptak	-10.1368
kowym	-10.1369
ecie	-10.1373
▁bie	-10.1376
nięciu	-10.1377
▁dobrej	-10.1378
zona	-10.1379
tycznym	-10.1383
▁forum	-10.1385
▁kost	-10.1395
▁deszcz	-10.1396
kiewicz	-10.1406
▁pracował	-10.1409
▁restauracji	-10.141
▁kandydat	-10.1412
▁niemiec	-10.1415
▁stacji	-10.1415
▁plaż	-10.1429
▁zmniejsza	-10.1435
of	-10.1438
cyjna	-10.1442
▁rodzina	-10.1442
„	-10.1444
▁prawdziwy	-10.1444
▁stąd	-10.1447
▁stres	-10.1453
▁elektryczny	-10.1468
▁wyjazd	-10.1469
ruch	-10.1469
▁opiera	-10.1475
▁ślad	-10.1477
▁umysł	-10.1477
▁wychowa	-10.1484
▁farb	-10.1487
fund	-10.1491
▁moją	-10.1495
▁wystarcza	-10.1496
▁płyty	-10.1498
▁zapraszamy	-10.15
▁twojego	-10.1502
zainteresowa	-10.1504
▁składniki	-10.1504
▁ras	-10.1504
▁logo	-10.1506
więc	-10.1509
▁cząst	-10.151
▁motor	-10.151
▁właściwy	-10.1511
▁pri	-10.1511
izację	-10.1512
▁bibliotek	-10.1513
▁źle	-10.1516
bój	-10.1518
▁wykonany	-10.1519
▁młode	-10.1526
▁okaz	-10.1527
▁słowo	-10.1532
▁rodzice	-10.1536
akcept	-10.1537
▁słów	-10.1537
▁twojej	-10.1539
▁wspomina	-10.154
▁mari	-10.1542
▁bezpieczeństwo	-10.1543
pel	-10.1544
▁następny	-10.1547
the	-10.1548
▁bym	-10.1549
bla	-10.155
▁wybrany	-10.1553
▁odmian	-10.1555
œ	-10.1555
ium	-10.1556
▁drugiego	-10.1557
ting	-10.1558
▁dziewczyny	-10.1561
▁samorząd	-10.1562
▁obszarze	-10.1565
▁wiedzą	-10.1565
▁całość	-10.1566
▁matki	-10.1567
tera	-10.1567
▁kolorze	-10.1567
▁spoży	-10.1573
▁kosm	-10.1579
▁wit	-10.1581
wel	-10.1589
▁wchodzi	-10.1593
śpi	-10.1593
▁rozwiąza	-10.1593
▁starszy	-10.1596
▁pliku	-10.1596
▁główne	-10.1597
▁fizyczne	-10.1601
▁figur	-10.1606
con	-10.1607
▁ryzyka	-10.1607
▁witryn	-10.1611
kwi	-10.1612
▁informacja	-10.1614
▁lepszy	-10.1614
▁znam	-10.1616
▁zaprasza	-10.1619
▁idealnie	-10.1622
▁widzenia	-10.1623
łusz	-10.1624
▁tkanin	-10.1625
pierw	-10.163
jest	-10.1634
▁płatności	-10.1638
wska	-10.1638
▁głęboko	-10.1643
▁;	-10.1649
▁stała	-10.165
▁rosną	-10.1652
▁zachowanie	-10.1654
king	-10.1662
este	-10.1662
▁komunikacji	-10.1668
top	-10.1668
▁przodu	-10.1672
istów	-10.1681
▁kogoś	-10.1681
▁wybuch	-10.1682
▁preparat	-10.1684
▁dra	-10.1689
▁grafik	-10.1697
▁stosowanie	-10.17
▁częściej	-10.1701
▁wieczor	-10.1705
▁wziąć	-10.1705
▁pozostałe	-10.1707
▁chcieli	-10.171
▁podział	-10.1713
@	-10.1718
atu	-10.1719
▁ciekawy	-10.1724
▁osiąga	-10.1728
▁praktycznie	-10.1728
▁włos	-10.1732
▁uzyskania	-10.1734
▁rozwiązań	-10.1735
▁publik	-10.1739
▁rozpoczyna	-10.1741
▁nazwę	-10.1745
▁krótko	-10.1746
▁dystrybu	-10.1749
▁herbat	-10.1753
▁zresztą	-10.1757
▁początek	-10.1758
▁śrub	-10.1766
▁zwrócić	-10.1769
atrak	-10.1769
med	-10.1769
ssa	-10.1773
▁kam	-10.1777
▁miejscowości	-10.1777
▁interfejs	-10.178
▁operator	-10.1783
żan	-10.1785
▁sterowania	-10.1788
▁zarząd	-10.1791
▁narzędzie	-10.1792
▁żywo	-10.1793
state	-10.1799
▁nacisk	-10.18
▁najważniejszy	-10.1804
▁brzeg	-10.1805
▁ciast	-10.1807
▁zielony	-10.1811
▁sprawdzi	-10.1812
walczy	-10.1816
wykorzystywa	-10.1818
▁idealne	-10.1819
▁zwierzęta	-10.182
▁obiektu	-10.182
wschodni	-10.1821
▁sku	-10.1822
▁drewna	-10.1823
zwiększ	-10.1824
▁wzór	-10.1829
▁próbował	-10.1831
▁postać	-10.1832
▁pkt	-10.1833
▁pisze	-10.1834
miot	-10.1836
▁grę	-10.1838
pół	-10.1839
tworzone	-10.1842
▁ściany	-10.1843
▁cyt	-10.1846
▁miejscach	-10.1848
węg	-10.185
▁taj	-10.1855
two	-10.1856
▁polu	-10.1856
▁młody	-10.1858
▁skąd	-10.1858
▁stwierdził	-10.1862
▁wirus	-10.1863
▁substancji	-10.1864
▁bezpośredni	-10.1864
▁kontrolowa	-10.1864
▁aspekt	-10.1867
▁siatk	-10.1868
$	-10.1871
▁światowej	-10.1872
▁pożar	-10.1874
▁marketing	-10.1877
▁rywal	-10.1878
▁mont	-10.1882
ckich	-10.1886
▁gospodarstw	-10.1892
▁mięs	-10.1893
▁szko	-10.1893
▁wiersz	-10.1897
▁ojca	-10.1898
▁własnych	-10.1899
▁tytułu	-10.1909
▁spojrz	-10.191
▁<	-10.191
▁katalog	-10.1911
▁solid	-10.1915
tycz	-10.1917
▁projektów	-10.1919
▁akcesoria	-10.1924
▁jasno	-10.1929
▁codziennie	-10.1931
▁największe	-10.1934
▁psycholog	-10.1946
nęło	-10.1947
krop	-10.1948
▁sma	-10.1949
á	-10.1949
owości	-10.195
▁rejon	-10.1953
cał	-10.1955
▁martw	-10.196
letnie	-10.1962
sing	-10.1963
kową	-10.1965
▁przerw	-10.1965
▁osiągnąć	-10.1967
▁widzę	-10.1968
▁maszyny	-10.1971
▁czerwone	-10.1972
▁kosz	-10.1981
▁powiedziała	-10.1985
▁wyżej	-10.1991
stki	-10.1996
▁metoda	-10.1999
▁drugą	-10.2004
▁powoła	-10.2005
cina	-10.2007
▁gen	-10.2013
▁mieliśmy	-10.2014
▁jednakże	-10.2014
▁odwoła	-10.2019
▁odwiedza	-10.2021
ista	-10.2021
▁komor	-10.2023
▁nos	-10.2027
▁tuż	-10.2032
ordyn	-10.2033
▁łańcuch	-10.2033
qui	-10.2038
▁rod	-10.2039
ciąż	-10.2044
kró	-10.2051
▁potwierdza	-10.2051
▁najwyższy	-10.2057
▁osobisty	-10.2057
▁święto	-10.2059
▁przekracza	-10.2061
ektor	-10.2063
dzeniu	-10.2068
▁zmienił	-10.2073
▁wątpliwości	-10.2075
jściu	-10.2078
▁jakich	-10.2078
▁wzrok	-10.2079
▁dokumentów	-10.208
▁oleju	-10.208
▁dowód	-10.2083
▁doskonały	-10.2084
▁ogromne	-10.2089
▁odniesieniu	-10.2098
▁format	-10.2102
▁nagle	-10.2102
▁telewizor	-10.2107
▁ludzkie	-10.2111
▁twoja	-10.2111
▁łodzi	-10.2115
▁dłużej	-10.2116
▁otwarte	-10.2118
▁czyste	-10.212
dla	-10.212
zer	-10.2122
▁rano	-10.2125
▁rzeczywiście	-10.2129
▁ameryka	-10.2133
▁pomyśl	-10.2136
cyjnej	-10.2138
▁pacjent	-10.2143
▁specjalnie	-10.2147
▁dobrą	-10.2147
mencie	-10.2147
▁kolumn	-10.2151
▁święta	-10.2151
▁udostępni	-10.2153
▁pilot	-10.2154
▁wywiad	-10.2155
▁wykorzystać	-10.2157
▁zakaz	-10.2164
▁zamierza	-10.2168
▁egzamin	-10.2172
▁cechy	-10.2175
▁stra	-10.2177
▁tematy	-10.2183
▁województw	-10.2183
▁automat	-10.2188
żony	-10.2188
don	-10.2197
ziem	-10.2198
▁przeznaczony	-10.2212
chwyt	-10.2216
▁gdzieś	-10.222
xi	-10.2226
▁okolicy	-10.2227
▁tydzień	-10.2232
▁zdrowie	-10.2235
▁mel	-10.2238
pusz	-10.2238
▁każdą	-10.2241
ńskim	-10.2245
dek	-10.2248
żą	-10.2251
▁nazwy	-10.2252
▁gum	-10.2257
▁opinii	-10.2257
▁prosz	-10.2259
▁audio	-10.2261
▁zagro	-10.2267
ącą	-10.2269
świat	-10.227
izmu	-10.2281
niony	-10.2282
zatrudni	-10.2283
▁owoc	-10.2285
▁sha	-10.229
han	-10.2291
wały	-10.2291
▁odczyt	-10.2293
▁pewnym	-10.23
▁pozbawi	-10.2301
▁weekend	-10.2308
roni	-10.2309
▁set	-10.2309
▁dół	-10.231
▁skórę	-10.2315
liście	-10.2316
▁kombi	-10.2324
▁dać	-10.2326
grz	-10.2326
▁darmowe	-10.2327
▁pasażer	-10.2333
duk	-10.2336
▁policji	-10.2338
▁mieszkania	-10.2338
pisany	-10.2339
tru	-10.2348
▁własnej	-10.2351
▁potrzebuje	-10.2354
her	-10.2359
▁filmy	-10.2363
▁postanowił	-10.2365
▁doszło	-10.2367
▁świetny	-10.2371
żeń	-10.2372
▁geo	-10.2379
▁spędzi	-10.238
komuni	-10.238
▁http	-10.2382
owska	-10.2383
dzki	-10.2386
▁główny	-10.2397
▁momentu	-10.2397
▁pracować	-10.24
▁korzystania	-10.24
▁znajomy	-10.2401
red	-10.2404
▁bas	-10.2406
vel	-10.241
trakt	-10.2415
▁zwyczaj	-10.2415
▁udziela	-10.2417
bus	-10.242
▁roli	-10.242
stwem	-10.243
▁mniejsze	-10.243
▁tj	-10.2437
▁piękna	-10.2437
▁techniczny	-10.2441
▁foli	-10.2441
▁mną	-10.2441
▁wczoraj	-10.2443
▁wspólne	-10.2445
głów	-10.2448
▁arm	-10.245
▁uważam	-10.2451
▁konstrukcji	-10.2455
▁aktywności	-10.2471
▁temperatur	-10.2474
przeciw	-10.2479
▁popełni	-10.248
▁zarządu	-10.2481
▁żaden	-10.2483
▁ber	-10.2486
▁wolny	-10.2491
wój	-10.2492
▁modele	-10.2493
▁pomoże	-10.2493
▁wyróżni	-10.2494
▁mówić	-10.2497
struktur	-10.2503
onymi	-10.2504
▁konkretne	-10.2507
▁wyścig	-10.2514
rab	-10.2515
▁morza	-10.2516
▁szkolenia	-10.252
▁fer	-10.252
▁cenę	-10.2523
▁operacji	-10.2524
▁wyższy	-10.2526
▁wzdłuż	-10.2527
mut	-10.2528
tri	-10.2533
▁drogą	-10.2537
▁wyposażone	-10.2541
▁ogromny	-10.2544
arni	-10.2546
▁konfigur	-10.2547
▁analizy	-10.255
▁lider	-10.2551
▁wymagają	-10.2552
▁swego	-10.2556
▁pokarm	-10.2559
▁inicjatyw	-10.2562
▁kryzys	-10.2562
unek	-10.2567
▁motocykl	-10.2571
▁śmierć	-10.2576
▁multi	-10.2579
▁okazuje	-10.2581
finans	-10.2587
▁łatwy	-10.2588
▁przebywa	-10.2592
▁trzecie	-10.2593
▁krew	-10.2594
sil	-10.26
▁wspaniały	-10.2607
ight	-10.261
mas	-10.2613
▁przyszły	-10.2615
▁john	-10.262
▁późn	-10.2623
▁internetu	-10.2625
osob	-10.2626
projekt	-10.2626
▁kwestii	-10.2627
▁skutecznie	-10.2628
rzesz	-10.2631
rzek	-10.2636
▁dotyczą	-10.2637
▁pewien	-10.2639
▁budynek	-10.264
▁osobowych	-10.2641
▁biel	-10.2644
▁składników	-10.2649
stal	-10.2654
▁języku	-10.2658
czeń	-10.2661
owani	-10.2662
▁myślał	-10.2664
▁pojawiają	-10.2667
▁mógłby	-10.2672
▁tłum	-10.2672
▁tyłu	-10.2675
▁parku	-10.2682
▁zawi	-10.2682
▁zachowania	-10.2683
ród	-10.2684
▁prowadzić	-10.2685
▁włoski	-10.2688
▁tarcz	-10.269
arski	-10.2695
▁wnętrza	-10.2695
▁okazał	-10.2699
▁grupie	-10.27
▁oprogramowanie	-10.2702
▁okresu	-10.2705
bić	-10.2705
ołów	-10.271
encję	-10.2711
▁wychodzi	-10.2714
▁akademi	-10.2715
out	-10.2715
▁radzi	-10.2718
wców	-10.272
▁baj	-10.2721
tacji	-10.2723
▁decyzję	-10.2724
▁organizator	-10.2725
▁określony	-10.2726
acyjnego	-10.2734
waniu	-10.274
://	-10.2744
▁lutego	-10.2747
▁sklepie	-10.2752
kus	-10.2757
▁dzielnic	-10.2757
▁parlament	-10.2758
▁trudności	-10.276
▁rodzic	-10.2762
▁usunąć	-10.2763
▁uzysk	-10.2769
▁ostatnim	-10.2771
▁użytkow	-10.2773
▁parę	-10.2774
▁osi	-10.2779
▁michał	-10.2781
▁wyników	-10.2783
zdro	-10.2785
▁oryginalny	-10.2785
▁rozdział	-10.2791
▁fre	-10.2794
▁dostępna	-10.2795
▁liczb	-10.2797
▁grzyb	-10.2799
▁pośredni	-10.28
▁przedłuż	-10.2801
▁faz	-10.2802
▁taśm	-10.2802
▁stanowisko	-10.2809
▁strzał	-10.281
▁panie	-10.2812
▁zgadza	-10.2815
▁przetwarza	-10.2816
łączenie	-10.2816
▁naciśnij	-10.2817
▁podatku	-10.2818
▁can	-10.2824
▁połowie	-10.2826
▁argument	-10.2834
▁wymiany	-10.2836
▁dorosłych	-10.2839
▁konsekwen	-10.2841
▁matka	-10.2841
▁stare	-10.2842
▁umożliwi	-10.2844
szkol	-10.2844
▁alarm	-10.2846
▁mistrzostw	-10.2847
▁ciśnienie	-10.2847
ującą	-10.285
▁pozwalają	-10.2851
▁zadba	-10.2853
cyjnego	-10.2855
▁tworzenie	-10.2855
ckie	-10.2857
▁pływa	-10.2857
▁dłoni	-10.2867
▁kąpiel	-10.287
▁brakuje	-10.287
▁zamyka	-10.2873
▁krajobraz	-10.2874
▁dochodzi	-10.2877
▁zwierzę	-10.2879
▁dziennik	-10.288
▁pap	-10.2882
▁znajdziesz	-10.2885
▁rzadko	-10.2887
▁filmów	-10.2887
▁plastik	-10.2889
prezent	-10.2889
▁wygodne	-10.289
▁konieczności	-10.2891
▁rodzaje	-10.2894
▁wsparcia	-10.2903
▁prywatny	-10.2907
▁wydajność	-10.291
▁del	-10.291
▁własnym	-10.2911
▁bezpieczne	-10.2913
▁inwestor	-10.2914
tworzony	-10.2916
rażeni	-10.2919
▁zasięg	-10.292
▁stworzyć	-10.2922
jemy	-10.2925
▁ochot	-10.2936
kryte	-10.2942
▁historię	-10.2949
▁pomieszczenia	-10.295
▁szacun	-10.2952
▁turniej	-10.2953
▁kont	-10.2956
▁rog	-10.2961
▁medy	-10.2964
bb	-10.2964
▁milionów	-10.2968
łoby	-10.2971
▁oferują	-10.2973
▁rozmowy	-10.2977
▁zabawki	-10.298
▁fotografia	-10.2982
eksplo	-10.2983
«	-10.2984
żał	-10.2988
▁sypialni	-10.2989
▁egz	-10.2989
▁woli	-10.299
▁scho	-10.2994
▁międzynarodowe	-10.2994
▁udziału	-10.2996
▁ręcznie	-10.2997
▁traw	-10.2998
▁;)	-10.3
▁mówią	-10.3
▁formularz	-10.3002
▁sum	-10.3007
▁wyjątkowo	-10.3008
głoś	-10.3011
godnie	-10.3012
▁budowla	-10.3013
▁górę	-10.3014
szka	-10.3015
wanych	-10.3018
▁sterownik	-10.3019
uwzględni	-10.302
▁najbliższy	-10.3021
▁porządku	-10.3025
żąda	-10.3026
▁mody	-10.3029
▁zasilania	-10.3031
▁niewiele	-10.3032
▁istotny	-10.3033
szczególny	-10.3033
▁wiemy	-10.3037
▁alkohol	-10.3037
▁ant	-10.3046
▁inżynier	-10.3047
▁większej	-10.3048
▁biało	-10.3055
▁opóźni	-10.3056
▁drogę	-10.3056
▁wrocław	-10.3059
polski	-10.3064
▁zdolności	-10.3066
czeniu	-10.3069
powiększ	-10.3073
▁zasadzie	-10.3073
spa	-10.3074
▁powietrze	-10.3076
▁doskonałe	-10.308
▁zauważył	-10.308
ownie	-10.3083
▁sześć	-10.3089
▁miesiąca	-10.3095
▁dolarów	-10.3096
rzucił	-10.3099
▁powód	-10.3099
▁dniach	-10.3109
▁niskie	-10.311
▁głęboki	-10.3112
▁wiadomość	-10.3112
▁prowadzone	-10.3113
▁położony	-10.3114
▁programów	-10.3117
▁urodzin	-10.3122
▁zabawy	-10.3123
▁xvi	-10.3123
▁faktycznie	-10.3124
▁ogród	-10.3126
trą	-10.3126
erii	-10.3127
łaściw	-10.3128
▁odtwarza	-10.3129
▁design	-10.3133
▁skorzysta	-10.3134
gran	-10.3139
▁etapie	-10.3141
▁ekranu	-10.3146
▁producenta	-10.3147
noszenia	-10.3148
trzymuje	-10.315
▁wojen	-10.3153
▁przyspiesz	-10.3153
▁patrz	-10.3154
uszki	-10.3155
▁skutki	-10.316
technic	-10.3165
▁lekarza	-10.3166
▁kaz	-10.3167
dziw	-10.3168
▁zestawie	-10.317
▁wejście	-10.3172
▁powinni	-10.3176
▁play	-10.3177
▁dodatkowych	-10.3179
▁wszystkiego	-10.3181
▁zielone	-10.3186
▁pragnie	-10.3187
▁certyfikat	-10.319
czesn	-10.3191
▁pojazdu	-10.3191
▁air	-10.3193
▁opcja	-10.3194
deł	-10.3201
▁ułatwia	-10.3202
▁mieszkanie	-10.3205
▁niewielki	-10.3207
▁page	-10.3209
▁powoli	-10.321
zgod	-10.321
▁internecie	-10.3212
▁wrócił	-10.3216
▁kolorów	-10.3222
kwit	-10.3226
▁pojazdów	-10.3228
▁kąt	-10.323
▁publicznej	-10.3231
▁wspólnie	-10.3234
▁obiektów	-10.3237
▁android	-10.3239
▁cas	-10.3245
▁zaangażowani	-10.325
bat	-10.325
▁czasach	-10.3253
▁pozostawi	-10.3254
ekonomi	-10.3256
▁okręg	-10.3258
sprawiedliw	-10.3258
końc	-10.3258
▁smartfon	-10.3258
▁uczestników	-10.3258
▁chem	-10.326
▁rosji	-10.3267
▁konto	-10.327
▁utrzymywa	-10.327
ującej	-10.3272
▁spotka	-10.3272
zono	-10.3274
▁śniadanie	-10.3274
▁doktor	-10.3277
▁samych	-10.3277
ącej	-10.3277
▁opcje	-10.3283
▁syna	-10.3284
zdrowi	-10.3289
▁przestrzega	-10.3291
▁lodów	-10.3293
▁odzież	-10.3293
▁ekspert	-10.3294
różnorod	-10.3297
▁inną	-10.3298
▁pojemnik	-10.3298
czność	-10.33
▁zapewniają	-10.33
▁kadr	-10.3301
dzwoni	-10.3303
▁konstrukcja	-10.3305
▁pięknie	-10.3306
▁danego	-10.3307
▁zarządzanie	-10.3309
szkodliw	-10.331
▁banku	-10.3319
fabryk	-10.332
dził	-10.3321
stawić	-10.3322
▁prowadzenia	-10.3329
▁remont	-10.3332
▁towarów	-10.3338
▁krąż	-10.334
▁żadnej	-10.334
▁programie	-10.3345
▁dostępnych	-10.3348
▁przejść	-10.3348
▁kosmetyk	-10.3353
▁śpiewa	-10.3354
ping	-10.3354
▁gene	-10.3356
ped	-10.3358
▁rozkład	-10.3361
box	-10.3363
▁bywa	-10.3367
▁pracownicy	-10.337
▁znaczenia	-10.337
ris	-10.3371
▁zawartość	-10.3372
▁opon	-10.3374
▁pacjenta	-10.3374
▁skorzystać	-10.3375
istyczne	-10.3381
▁trend	-10.3385
▁ogólno	-10.3389
▁systemy	-10.3389
▁chłodz	-10.339
▁kolejnym	-10.339
dostarcz	-10.3393
▁ręka	-10.3398
krotnie	-10.3401
▁ben	-10.3405
▁zarzut	-10.341
▁zawierają	-10.3412
▁komórek	-10.3413
▁własności	-10.3415
▁sezonie	-10.342
▁opieki	-10.3423
▁pary	-10.3426
▁mała	-10.3427
▁użyte	-10.3428
▁status	-10.3432
▁gotowy	-10.3433
▁prezydenta	-10.3434
▁legend	-10.3436
▁podejście	-10.3441
▁posłu	-10.3443
▁dostać	-10.3446
lock	-10.3447
▁lokalizacji	-10.3448
▁określonych	-10.3448
▁opar	-10.3448
▁schemat	-10.3449
▁nagrody	-10.3454
▁uży	-10.3457
słuch	-10.3458
▁kwiaty	-10.3459
▁wysiłk	-10.3464
▁paliwa	-10.3465
przyj	-10.3465
▁konflikt	-10.3466
▁czynniki	-10.3469
▁objawy	-10.3473
▁głównych	-10.3474
▁umożliwiają	-10.3475
▁drzewa	-10.3475
▁oparciu	-10.3477
▁wspomaga	-10.3477
▁dopuszcza	-10.348
▁polskie	-10.3483
▁itd	-10.3486
wyraźn	-10.3486
▁chciałbym	-10.3489
▁lakier	-10.3491
▁muzyka	-10.3494
ring	-10.3501
▁uczelni	-10.3506
▁wspaniałe	-10.3512
▁ułatwi	-10.3512
▁odzyska	-10.3521
▁architekt	-10.3523
▁ukończ	-10.3524
▁dziennie	-10.353
▁wykorzystywane	-10.353
▁klawisz	-10.3534
▁działać	-10.3534
patr	-10.3536
źni	-10.3536
▁przeznaczone	-10.3539
▁uniknąć	-10.354
▁zarejestrowa	-10.3542
▁pozycję	-10.3543
▁char	-10.3544
▁wolności	-10.3544
▁członkowskie	-10.3548
wiązu	-10.355
▁wprowadzenie	-10.3551
▁poczucie	-10.3566
▁daleko	-10.3566
zasob	-10.3568
obron	-10.3569
hen	-10.357
▁chorób	-10.357
book	-10.3572
▁rezultat	-10.3583
▁mnóstwo	-10.3592
trop	-10.3595
dob	-10.3596
burz	-10.36
▁przestrzeń	-10.3601
rasta	-10.3602
▁tomasz	-10.3603
▁wyróżnia	-10.3605
owskiej	-10.3606
yjny	-10.361
▁czekolad	-10.3611
▁uczniowie	-10.3612
▁tanie	-10.3615
▁własną	-10.3616
bywa	-10.3622
▁butelk	-10.3627
▁automatyczne	-10.3629
piece	-10.3631
tkę	-10.3632
▁ciężki	-10.3633
stw	-10.3634
bież	-10.3635
▁lewej	-10.3636
▁naprawi	-10.3637
▁spędza	-10.3638
▁józef	-10.3645
▁mężczyźni	-10.3648
los	-10.3651
▁szlak	-10.3652
▁marek	-10.3653
▁uzależni	-10.3654
komór	-10.3658
▁miarę	-10.366
zbliż	-10.366
▁ostrze	-10.3665
▁własnego	-10.3667
▁sklepu	-10.3669
rabia	-10.367
▁wież	-10.3671
▁oddech	-10.3672
▁montażu	-10.3679
▁max	-10.368
▁służby	-10.3684
▁środek	-10.3684
▁codzienne	-10.3685
▁fotel	-10.3685
▁lista	-10.3685
kowo	-10.3685
▁facet	-10.3686
który	-10.3686
nastolatk	-10.3687
▁dobro	-10.3688
▁młodzieży	-10.3691
▁wykonana	-10.3691
▁słońca	-10.3694
▁mieszkańcy	-10.3701
▁morze	-10.3703
▁stopnia	-10.3705
▁data	-10.371
▁czyni	-10.3712
▁jeździ	-10.3713
▁tapet	-10.3718
ręb	-10.3726
▁relacji	-10.3733
▁konsument	-10.3736
▁party	-10.3736
▁wyraża	-10.3738
▁zawarte	-10.3739
▁głównej	-10.3739
▁restauracja	-10.374
yfikowa	-10.3742
▁zwycięstw	-10.3743
▁spróbuj	-10.375
▁brytyjski	-10.375
▁dum	-10.3756
▁osłon	-10.3757
▁deklar	-10.3758
▁nogi	-10.376
▁pil	-10.3767
owaliśmy	-10.377
▁obserwowa	-10.3776
▁punkty	-10.3784
prefer	-10.3786
wolu	-10.3788
▁źródeł	-10.379
▁chmur	-10.3791
spir	-10.3796
styczny	-10.3801
▁towarzyszy	-10.3801
bud	-10.3804
▁ukaz	-10.3809
▁okien	-10.3817
▁owoce	-10.3818
▁małżeństw	-10.3819
▁ludzki	-10.3821
▁wszelkich	-10.3821
▁skuteczne	-10.3822
▁literatur	-10.3824
▁recenz	-10.3825
▁sposoby	-10.3829
ntu	-10.3833
seksual	-10.3833
▁własny	-10.3835
▁dobrego	-10.3836
rost	-10.3837
płacić	-10.3839
kazał	-10.384
▁wielką	-10.3843
▁działają	-10.3847
▁zwyci	-10.3849
▁zawartości	-10.3852
▁stanowiska	-10.3853
▁kru	-10.3855
▁gleb	-10.3857
słab	-10.3857
▁szczegóły	-10.3859
▁aliexpress	-10.3859
▁rzym	-10.386
▁żyje	-10.3866
▁struktura	-10.3873
▁zagad	-10.3876
▁karol	-10.3877
▁kobie	-10.3882
▁wykonywania	-10.3883
berg	-10.3894
ü	-10.3895
▁wysoka	-10.3898
▁filozof	-10.39
▁wiedzę	-10.3902
acyjnej	-10.3904
wdzięcz	-10.3904
bez	-10.3906
▁plaży	-10.391
▁lekki	-10.3911
▁podstawowych	-10.3913
▁myślą	-10.3919
polit	-10.3922
ślad	-10.3931
łączenia	-10.3935
▁kieruj	-10.3935
rodzeni	-10.3936
tas	-10.3939
▁mono	-10.3944
śmiał	-10.3946
graf	-10.395
▁modlitw	-10.395
oid	-10.3951
potencjaln	-10.3951
▁francji	-10.3952
▁pięciu	-10.3953
▁bre	-10.3953
▁ekranie	-10.3955
▁urzędu	-10.3959
▁prosta	-10.3962
▁związany	-10.3964
▁użytkowania	-10.3967
ładow	-10.3968
zwyczaj	-10.3972
▁żona	-10.3972
buł	-10.3975
rzał	-10.3983
▁początkowo	-10.3983
▁pałac	-10.3988
▁zakupu	-10.3992
czerp	-10.3992
▁stanisław	-10.3993
▁robią	-10.3994
▁cóż	-10.3999
▁cor	-10.4
▁termo	-10.4004
▁wpływu	-10.4005
▁czwarte	-10.401
▁należał	-10.4011
▁prysznic	-10.4013
▁zastąpi	-10.4013
▁liczne	-10.4016
▁prywatne	-10.4025
▁decyzja	-10.4027
▁całkowite	-10.4029
▁popularny	-10.403
▁rośliny	-10.4032
▁regulamin	-10.4035
▁słodki	-10.4036
▁prowadzenie	-10.4038
srebr	-10.4044
▁wodzie	-10.4046
▁obiektyw	-10.4047
▁dodatki	-10.4048
niejszą	-10.4049
▁pochodzą	-10.4051
zakończ	-10.4056
▁wspólnego	-10.4058
▁młodzież	-10.4059
▁niczym	-10.406
▁społeczne	-10.406
▁osobiste	-10.406
czności	-10.406
▁zrozumieć	-10.4064
▁pamiętam	-10.407
▁zakończeniu	-10.4072
▁świadom	-10.4078
▁skali	-10.4082
▁czymś	-10.4086
▁okno	-10.4089
▁dzieli	-10.409
edyn	-10.4091
▁mieszkań	-10.4105
▁finansowych	-10.4112
▁staro	-10.4114
▁instytut	-10.4114
▁polskim	-10.4115
▁zaburzenia	-10.412
owałem	-10.4123
piera	-10.4124
ącym	-10.4125
artyst	-10.4125
ogen	-10.4129
▁elegancki	-10.4135
bakter	-10.4135
▁systemem	-10.4136
▁wysoką	-10.4137
▁schod	-10.4137
▁śnieg	-10.4138
▁opcję	-10.414
▁pogląd	-10.4144
▁ulubiony	-10.4145
▁kłopot	-10.4148
▁święty	-10.4148
▁tradycyjny	-10.415
opat	-10.4152
funk	-10.4152
▁eksperyment	-10.4153
▁którymi	-10.4154
▁ciasto	-10.4157
▁wskazują	-10.4157
▁osobiście	-10.4158
▁najlepszym	-10.416
▁trafił	-10.4162
aktualiz	-10.4166
▁niedawno	-10.417
błon	-10.417
▁specyfik	-10.4177
▁ciśnienia	-10.4178
nęły	-10.4182
▁listę	-10.4185
kowie	-10.4186
obraz	-10.419
▁nur	-10.419
▁lok	-10.4193
▁problemem	-10.4193
▁głowę	-10.4195
▁łącznie	-10.4196
▁temperaturze	-10.42
▁wielkim	-10.4203
atorów	-10.4204
▁popularne	-10.4209
▁robert	-10.4213
▁węgla	-10.4214
▁chiński	-10.4215
▁prawidłowe	-10.4216
▁uruchamia	-10.4216
▁procesie	-10.4218
▁inna	-10.4219
▁określić	-10.4219
▁płaski	-10.4219
▁prędkość	-10.4224
▁zdobył	-10.423
▁spośród	-10.4231
▁akurat	-10.4231
▁elektroniczne	-10.4231
▁głównego	-10.4234
▁wykorzystuje	-10.4235
▁samą	-10.424
▁potencjał	-10.4243
interpret	-10.4248
wiadcz	-10.4249
▁epi	-10.4249
▁prosimy	-10.4249
▁przewodnik	-10.4252
▁gospodarki	-10.4255
▁papieru	-10.4262
▁ciepło	-10.4266
▁urodził	-10.4268
▁zajmowa	-10.4271
▁ograniczenia	-10.4271
▁krzysztof	-10.4273
psychiczn	-10.4274
▁zacząć	-10.4275
niczej	-10.4275
▁wykonuje	-10.4285
▁luksus	-10.4285
▁pozostałych	-10.4286
trac	-10.429
▁paznokci	-10.4291
▁społecznej	-10.4295
▁odpowiednich	-10.4295
▁komitet	-10.4298
▁danej	-10.4299
▁niemcy	-10.43
▁obiad	-10.4304
▁medyczne	-10.4304
▁spr	-10.4307
▁ciepl	-10.4308
brzy	-10.4311
▁nieprze	-10.4314
▁kawy	-10.4314
▁lokalne	-10.4315
▁rozporządzenia	-10.4315
▁władze	-10.4316
▁lokalizacja	-10.4325
▁kwestia	-10.4328
▁ocena	-10.4329
▁meczu	-10.4336
▁tymczasem	-10.4336
▁przechodzi	-10.4336
▁spod	-10.4337
▁leki	-10.4341
dokonywa	-10.4342
▁profesor	-10.4348
▁korzystanie	-10.4352
▁zamkn	-10.4355
▁specjalny	-10.4356
▁szkoda	-10.4356
▁tłumaczy	-10.436
glu	-10.4361
dziedzi	-10.4365
acyjnym	-10.4365
▁publicznych	-10.4378
▁uprawia	-10.4378
▁bibli	-10.4381
▁hor	-10.4383
▁reżyser	-10.4387
źnie	-10.4389
▁głośnik	-10.4391
▁załącznik	-10.4392
▁medal	-10.4403
▁oczyszcza	-10.4404
▁zachować	-10.4405
▁obecności	-10.4405
▁samodzielnie	-10.4409
▁polityczne	-10.4417
▁otrzymuje	-10.4421
▁trybu	-10.4424
▁zwykły	-10.4424
▁sztuczne	-10.4425
ction	-10.4426
▁wasze	-10.4428
▁rozumiem	-10.4428
▁chrom	-10.4428
▁powyższe	-10.4431
▁kół	-10.4432
▁izrael	-10.4434
▁instytucji	-10.4436
izować	-10.4438
▁sposobem	-10.4438
▁microsoft	-10.4449
%)	-10.4449
▁wolne	-10.445
▁udostępnia	-10.445
▁internetowych	-10.4451
▁obecność	-10.4452
▁dialog	-10.4458
klas	-10.4462
▁§	-10.4469
▁poznać	-10.447
ort	-10.447
▁taras	-10.4471
▁konkretny	-10.4472
▁leków	-10.4474
▁edukacji	-10.4477
ö	-10.4481
▁międzynarodowy	-10.4481
▁organizacja	-10.4482
▁miesiące	-10.4483
▁prawej	-10.4485
▁zainteresowanie	-10.449
służ	-10.4491
▁limit	-10.4499
▁cyfr	-10.45
dio	-10.4502
cięż	-10.4506
▁terminie	-10.4507
▁sok	-10.4508
niesienie	-10.4509
▁zostali	-10.4513
▁dowiedzieć	-10.4514
▁szybciej	-10.4517
▁odbiera	-10.452
▁połączeniu	-10.4523
▁cd	-10.4525
▁jutro	-10.4527
▁zwiedza	-10.4528
▁wymagane	-10.4528
▁pokrywa	-10.4532
▁widoczne	-10.4546
▁krótkie	-10.4546
▁firmie	-10.4548
▁użycia	-10.4555
pomarańcz	-10.4556
ewicz	-10.4556
▁komórki	-10.4562
▁tradycyjne	-10.4563
▁częstotliwości	-10.4565
▁wielka	-10.4569
▁młodzi	-10.4569
▁beton	-10.457
▁detal	-10.4572
▁rozum	-10.4572
▁mniejszy	-10.4574
▁prawidłowo	-10.4575
▁mózgu	-10.4577
▁niezbędny	-10.4582
łożona	-10.4584
▁skóra	-10.4585
▁osiągnięcia	-10.4585
dyjski	-10.4585
chodzące	-10.4587
▁nakłada	-10.4588
▁poprawia	-10.4589
prywat	-10.4593
▁danym	-10.4593
▁oryginalne	-10.4595
▁baterii	-10.4595
▁producentów	-10.4596
▁brytanii	-10.4599
▁handlu	-10.4605
▁firmę	-10.4608
press	-10.4613
▁wyjaśnia	-10.4615
ult	-10.4617
▁większa	-10.4621
▁siedem	-10.4629
▁jedynym	-10.4632
▁partii	-10.4634
▁laser	-10.4634
▁zdrowe	-10.4641
▁czynników	-10.4642
▁społeczeństw	-10.4644
▁wydajności	-10.4647
potrzeb	-10.465
▁oferta	-10.4654
▁raj	-10.4657
▁uwzględnia	-10.466
▁powtórz	-10.466
▁zmianę	-10.4661
▁końców	-10.4663
▁przesłan	-10.4664
▁laptop	-10.4664
▁spokojnie	-10.4666
ństwo	-10.4667
▁osobę	-10.4669
mięk	-10.4672
▁ultra	-10.4674
▁stóp	-10.4676
▁faktur	-10.4678
▁maria	-10.468
▁musieli	-10.4682
ture	-10.4684
▁ciemno	-10.4684
▁szpitala	-10.4694
▁użytku	-10.4695
▁zdj	-10.4697
▁chleb	-10.4697
▁kle	-10.4697
arskie	-10.4698
▁handlowe	-10.47
▁sali	-10.4702
▁wybrane	-10.4704
▁pełną	-10.4706
bór	-10.4707
▁pewnego	-10.4707
▁słońce	-10.4707
▁klubu	-10.4711
▁sposobu	-10.4711
▁zintegrowa	-10.4713
▁tworzą	-10.4714
▁karmi	-10.4716
▁wspólny	-10.4717
starożyt	-10.4723
yfikacji	-10.4723
klawiatur	-10.4725
▁dodatkowy	-10.4726
▁natura	-10.4727
▁zapewne	-10.4727
▁osobą	-10.473
▁wydruk	-10.4732
▁piec	-10.4735
▁godzinę	-10.474
▁indywidualne	-10.4741
ning	-10.4742
▁ciepłe	-10.4743
▁produkcja	-10.4743
▁krawędzi	-10.4746
▁potraw	-10.4748
▁ćwiczenia	-10.4748
ckim	-10.4751
▁szal	-10.4753
get	-10.4754
▁szansę	-10.4756
organizow	-10.4756
▁organizmu	-10.4757
▁odczuwa	-10.4757
▁linia	-10.4761
▁wypowiedzi	-10.4764
▁sytuację	-10.4767
▁napięcie	-10.4775
encje	-10.4776
▁ogólny	-10.4777
rium	-10.4777
▁krytyk	-10.4784
▁jednostek	-10.4786
▁twoich	-10.4792
▁zdecydował	-10.4796
▁włoch	-10.4807
▁wyjątkiem	-10.4809
ses	-10.4813
▁szeroko	-10.4828
konstytu	-10.4833
▁dodał	-10.4834
▁przygotowanie	-10.4838
▁pracowni	-10.4839
▁możliwy	-10.4839
▁prosi	-10.484
▁przerwa	-10.4841
▁rozdziel	-10.4848
¿	-10.4852
wiedzi	-10.4853
▁londyn	-10.4855
illa	-10.4858
▁kwadrat	-10.4865
▁przeszłości	-10.4871
▁dziedzin	-10.4875
▁australi	-10.4878
wiedź	-10.4879
pał	-10.4881
▁przesył	-10.4882
dium	-10.4882
yjnych	-10.4885
dpowiedzialności	-10.4885
▁meble	-10.4887
▁ćwicz	-10.4893
▁kres	-10.4895
▁ustanowi	-10.4898
▁wszędzie	-10.4902
▁zagrożenia	-10.4904
▁goście	-10.4907
diagnoz	-10.4907
▁zgłoszeni	-10.4912
▁ustawia	-10.4919
sier	-10.4921
▁środowisko	-10.4922
▁gazu	-10.4925
▁uszkodzenia	-10.4927
▁tobą	-10.4927
▁zdolność	-10.493
▁powłok	-10.4932
▁paweł	-10.4932
▁hel	-10.4932
▁zaproponowa	-10.4934
▁ustala	-10.4939
▁flo	-10.4942
▁scenariusz	-10.4944
???	-10.4946
ciągnąć	-10.4948
▁zgodzi	-10.495
har	-10.4951
▁bierze	-10.4957
▁ulega	-10.4957
▁zamek	-10.4959
▁material	-10.496
▁studentów	-10.4966
▁serw	-10.4966
▁przygotowywa	-10.4968
▁wyjścia	-10.4975
▁rock	-10.4975
▁kontrakt	-10.4976
▁najwięcej	-10.4976
▁wyzna	-10.4982
▁rekord	-10.4991
harmoni	-10.4992
kowany	-10.4992
pet	-10.4993
▁sposobów	-10.4994
rent	-10.5002
ferenc	-10.5003
▁ubrania	-10.5006
puścił	-10.5009
▁reakcji	-10.501
▁przypadków	-10.5025
▁jack	-10.5031
męcz	-10.5037
eczek	-10.5046
▁napięcia	-10.5049
▁mąż	-10.5049
▁dróg	-10.5051
▁niewielkie	-10.5054
▁powrotem	-10.5054
▁rzeźb	-10.5061
▁dyplom	-10.5067
bert	-10.5072
stawiony	-10.5076
▁ofercie	-10.5077
▁ofert	-10.5077
▁mieszanin	-10.5079
▁nagrywa	-10.508
▁regulacji	-10.5083
▁biura	-10.5084
▁byliśmy	-10.5085
▁umów	-10.5094
społ	-10.5104
▁świeże	-10.5104
spekt	-10.5107
nadzor	-10.5108
▁władzy	-10.511
▁wejścia	-10.5116
jedno	-10.5117
organ	-10.5123
▁oliw	-10.5125
▁normalne	-10.5127
ding	-10.5138
bet	-10.5138
▁świetne	-10.5139
▁wyglądał	-10.514
▁głowie	-10.5142
▁pojęcia	-10.5143
▁walut	-10.5145
▁poradzi	-10.5145
▁społeczeństwa	-10.5151
▁stanów	-10.5156
▁zamówienie	-10.5157
▁hydro	-10.5161
▁odgrywa	-10.5161
▁kroki	-10.5163
▁skończy	-10.5164
owce	-10.5169
▁chrz	-10.517
▁bazie	-10.5171
[	-10.5173
▁idea	-10.5174
▁oczekuj	-10.5175
▁zamiar	-10.5177
▁uroczy	-10.5179
dale	-10.5183
▁waha	-10.5184
▁rękę	-10.5187
▁ustawić	-10.5187
▁administrator	-10.5188
rio	-10.5189
▁zapewnienia	-10.519
▁sukien	-10.5191
▁nawilż	-10.5193
▁marcin	-10.5193
▁zwiększenie	-10.5195
▁tworząc	-10.5198
▁zauważyć	-10.5199
▁cukier	-10.52
▁marka	-10.5204
agres	-10.5205
▁wakacje	-10.5205
▁zakończył	-10.5213
▁public	-10.5217
▁przyszłość	-10.5225
▁ruszy	-10.5229
▁płci	-10.5231
▁przygotowania	-10.5235
▁świeży	-10.5246
▁przygotować	-10.5247
▁trudny	-10.5247
▁pusty	-10.5251
▁imprezy	-10.5251
śle	-10.5256
▁dzisiejszy	-10.5257
▁wyposażenie	-10.5259
▁pasuje	-10.5262
▁poważne	-10.5263
▁przyczyną	-10.5265
▁narodowy	-10.5271
▁rado	-10.5272
▁odnosi	-10.5274
▁społecznych	-10.5279
▁osobom	-10.528
▁zasobów	-10.5283
▁sof	-10.5285
ńską	-10.5289
▁oczekiwania	-10.5291
▁słyszał	-10.5292
▁leży	-10.5295
▁patrzy	-10.5301
▁wieczorem	-10.5305
kręca	-10.5305
cierpliw	-10.5312
▁regularnie	-10.5313
▁tygodnia	-10.5315
▁wykorzystania	-10.5318
▁konkursu	-10.532
▁konferencji	-10.5322
▁przyczep	-10.5323
▁biskup	-10.5324
▁powinniśmy	-10.5326
▁brzuch	-10.5329
▁utrzyma	-10.5329
▁dwoma	-10.533
▁eksport	-10.5335
▁okazję	-10.5336
▁postrzega	-10.5348
▁oparte	-10.5352
▁szukać	-10.5353
czno	-10.5356
▁uniwersytetu	-10.5357
▁zgłasza	-10.5357
▁zamieni	-10.5359
▁analog	-10.5361
▁makijaż	-10.5362
cor	-10.5363
▁pamięć	-10.5363
▁japoński	-10.5368
▁przełącznik	-10.5369
▁gazet	-10.5369
▁pokaż	-10.5387
czesne	-10.5387
▁godzinach	-10.5391
prowadzono	-10.5399
▁zajęć	-10.54
▁kątem	-10.5406
▁polaków	-10.5408
▁jedyne	-10.5412
▁przesyła	-10.5412
zaangażowa	-10.5416
▁wnioski	-10.5419
▁elementem	-10.542
▁swoimi	-10.5421
stop	-10.5422
krycie	-10.5428
▁modeli	-10.5433
▁główna	-10.5434
fantastyczn	-10.5436
▁opinie	-10.5437
knął	-10.5443
▁anna	-10.5444
▁liści	-10.5445
▁okular	-10.5448
▁proto	-10.545
▁piosenka	-10.545
▁siłę	-10.5453
fel	-10.5453
▁stosunkowo	-10.5461
▁bab	-10.5462
▁przychodzi	-10.5464
wesel	-10.5466
terapeu	-10.5466
kopi	-10.5473
zmienn	-10.5474
▁budynków	-10.5475
▁najnowsze	-10.5477
▁vat	-10.5479
▁delikatnie	-10.548
▁największych	-10.5481
▁utrudni	-10.5484
▁świadczy	-10.5484
cznymi	-10.5485
grze	-10.5486
▁polityczny	-10.5486
▁budowę	-10.5493
▁główną	-10.5503
▁kwoty	-10.5511
▁pamięta	-10.5512
ycznej	-10.5512
▁nazwie	-10.5515
▁użyj	-10.5515
▁książek	-10.5515
▁strach	-10.5516
▁gotowe	-10.5518
▁dramat	-10.5521
▁sex	-10.5526
acyjna	-10.5528
ciśnieni	-10.553
▁turysty	-10.5534
▁cesar	-10.5537
▁głośno	-10.5537
vol	-10.5538
▁powstania	-10.5551
market	-10.5555
▁portret	-10.556
▁wyjątkowy	-10.5569
▁armii	-10.557
▁zdarzenia	-10.5573
▁paliw	-10.5576
▁sukienka	-10.5578
▁silny	-10.5578
▁you	-10.5578
▁procedury	-10.5586
▁cyklu	-10.5587
▁osiem	-10.5587
▁seria	-10.5587
▁mocz	-10.5593
▁kasz	-10.5595
▁diagnost	-10.5597
barw	-10.5599
głęb	-10.56
kuchen	-10.5604
▁poprosi	-10.5607
▁dyspozycji	-10.5608
▁wysokim	-10.5611
▁następuje	-10.5615
nięta	-10.5616
pamięt	-10.5618
▁powodów	-10.5621
▁wodne	-10.5624
▁transfer	-10.5626
▁łuk	-10.5629
▁kawa	-10.5631
▁folder	-10.5637
▁stale	-10.5639
▁świątyni	-10.564
▁fizyczny	-10.5641
▁zbliża	-10.5645
śmierteln	-10.5647
▁piek	-10.5649
▁gwarant	-10.5652
rzeń	-10.5654
▁atrakcji	-10.5657
▁współczesne	-10.5659
▁czuję	-10.5662
wróce	-10.567
▁upływ	-10.5672
▁dziećmi	-10.5673
▁ludźmi	-10.5675
▁znajdował	-10.5676
▁zapalenie	-10.5678
inter	-10.568
▁tygodnie	-10.5681
▁przechowywania	-10.5682
▁techniki	-10.5682
∏	-10.5687
▁gitar	-10.5689
▁term	-10.5694
▁ponowne	-10.5701
gada	-10.5702
liwość	-10.5703
´	-10.5704
▁orient	-10.5706
▁flag	-10.5706
▁średnio	-10.5709
▁spróbować	-10.5717
.....	-10.5717
light	-10.572
▁powiadomi	-10.5722
▁powszechnie	-10.5722
hr	-10.5723
▁pytań	-10.5723
▁radości	-10.5724
elektr	-10.5727
▁abs	-10.5732
▁pobyt	-10.5735
▁studiów	-10.5742
gur	-10.5748
▁planet	-10.5755
▁lokalnych	-10.5766
▁sportowe	-10.5771
czar	-10.5775
▁kształcie	-10.5778
zrozumiał	-10.5778
▁relaks	-10.5778
brot	-10.578
▁pełna	-10.5781
▁wyglądają	-10.5782
▁student	-10.5782
▁umowa	-10.5784
▁spotkał	-10.5786
”)	-10.579
▁kolejna	-10.5795
▁podkład	-10.5796
▁złoty	-10.5801
▁procesor	-10.5805
▁filmie	-10.5805
▁wyjście	-10.5808
▁parametr	-10.5812
▁narodow	-10.5812
▁struktury	-10.5818
›	-10.5818
▁web	-10.5819
▁dawno	-10.5821
▁weź	-10.5822
▁dziwne	-10.5823
▁stanach	-10.5824
bicie	-10.5827
▁umieszcza	-10.5828
▁masaż	-10.5841
▁wykrywa	-10.5842
roczne	-10.5844
▁wiąże	-10.5844
▁północnej	-10.5847
▁słup	-10.5847
▁metodą	-10.5847
graniczne	-10.585
▁zainteresowany	-10.5853
▁jakiegoś	-10.5854
▁parametry	-10.5858
łowie	-10.586
▁pęk	-10.586
ostrz	-10.586
▁jakaś	-10.5861
ńców	-10.5866
óż	-10.5869
▁ekspres	-10.5873
▁apel	-10.5874
▁biega	-10.5879
▁ochronę	-10.5879
▁chr	-10.5885
pisania	-10.5885
▁odbędzie	-10.5888
dawania	-10.5888
step	-10.5896
▁czysty	-10.5902
▁gospodarczy	-10.5903
stawione	-10.5905
▁wielkiego	-10.5908
łożeniu	-10.5911
▁transakcji	-10.5911
wentyl	-10.5913
▁ewa	-10.5916
▁history	-10.5924
▁szczegółowe	-10.5933
▁ustawienie	-10.5933
dawane	-10.5935
▁dodatek	-10.5938
▁klienci	-10.5945
wodzeni	-10.5945
▁otacza	-10.5946
▁ochrona	-10.5947
▁honor	-10.5948
▁obowiązek	-10.5949
▁wykończeni	-10.595
▁jednostka	-10.5951
▁błędów	-10.5952
▁bogu	-10.5956
▁wykazał	-10.5959
▁czytelnik	-10.5961
▁świe	-10.5968
▁pobytu	-10.5969
▁poważny	-10.5971
▁psycho	-10.5973
▁rozpoczął	-10.5973
socjal	-10.5983
dostęp	-10.5984
▁przetrwa	-10.5985
▁finał	-10.5991
▁ustawień	-10.5992
▁podaje	-10.5993
▁zwykłe	-10.5998
▁gatunków	-10.6003
▁potrzebujesz	-10.6004
jabł	-10.6006
▁strategii	-10.6007
▁korzystając	-10.6008
▁grupę	-10.6009
▁zdrowy	-10.6013
▁przytul	-10.6014
▁odległość	-10.6015
▁etykiet	-10.6016
▁wystąpienia	-10.6021
▁piątek	-10.6021
▁glo	-10.6026
krycia	-10.6026
▁powrót	-10.6028
chodzących	-10.6034
czywist	-10.6036
▁uczestnik	-10.604
▁sprzyja	-10.604
▁informuje	-10.6041
▁sąsiad	-10.6042
▁układa	-10.6051
▁dojrza	-10.6051
▁drewniane	-10.6053
▁członek	-10.6057
▁gwałt	-10.6058
back	-10.606
▁znanych	-10.6064
▁płuc	-10.6064
▁kolan	-10.6065
▁zakończenie	-10.6067
▁bomb	-10.607
▁gust	-10.6079
▁czynnik	-10.6085
▁alkoholu	-10.6086
▁wejść	-10.6088
▁elektron	-10.6089
▁jednostk	-10.6092
▁kolejną	-10.6093
▁zakończy	-10.6096
▁jedzenia	-10.6097
▁warunkiem	-10.6099
dzeń	-10.61
▁protest	-10.6102
puścić	-10.6105
▁królestw	-10.611
użyt	-10.6112
wodni	-10.6114
▁nastąpił	-10.6116
▁świąt	-10.6118
▁imieniu	-10.6123
▁wariant	-10.6126
▁kalendarz	-10.6129
powiedział	-10.6131
▁komin	-10.6138
licenc	-10.6138
▁owoców	-10.6138
▁krakowie	-10.6142
▁zwiększyć	-10.6144
▁grill	-10.6147
▁zdobywa	-10.6148
▁wzmacnia	-10.6153
▁strzela	-10.6167
▁dziennikarz	-10.6171
podzięk	-10.6171
▁najwyższej	-10.6176
konsum	-10.6179
stor	-10.618
▁kolejności	-10.6184
▁akcja	-10.6184
▁południowej	-10.6187
▁skarg	-10.6193
fol	-10.6195
▁kontrolę	-10.6195
▁import	-10.6195
▁biuro	-10.6197
▁nomin	-10.6197
▁tabeli	-10.6197
▁niszcz	-10.6198
▁pojedyncze	-10.6208
▁rozpoczęcie	-10.6213
▁określenie	-10.6213
▁obrony	-10.622
▁bedzie	-10.6222
▁łóżka	-10.6226
▁ocean	-10.6227
dziesięciu	-10.6227
▁photography	-10.6232
▁pochodzenia	-10.6233
▁ważna	-10.6233
▁choćby	-10.6234
▁wycofa	-10.6235
▁bagaż	-10.6235
▁stopień	-10.624
▁korzeni	-10.6242
▁płaszcz	-10.6242
▁cieszyć	-10.6242
▁flor	-10.6246
▁wydarzeń	-10.6246
▁powietrzu	-10.6247
syl	-10.6249
ńcu	-10.625
ńczyk	-10.6251
▁szablon	-10.6259
▁dłuższy	-10.6259
grodz	-10.6263
▁bluz	-10.6268
skończ	-10.6269
▁pokazać	-10.6269
▁opiekun	-10.6273
▁ciężkie	-10.6274
brze	-10.6275
▁medyczny	-10.6277
▁priorytet	-10.629
▁rosja	-10.6299
▁uchwał	-10.63
▁zacisk	-10.6307
▁wystarczająco	-10.6307
▁silne	-10.6313
▁rodzajów	-10.6316
stąpić	-10.6321
▁arkusz	-10.6322
jedzie	-10.6327
opol	-10.6328
▁utrzymać	-10.6329
▁mikołaj	-10.6334
▁rodzinie	-10.6334
▁przyjmuje	-10.6335
▁zapewniając	-10.634
▁zadaniem	-10.6342
▁budzi	-10.6348
kość	-10.6348
▁zapłaci	-10.6351
▁formuł	-10.6352
▁członkowie	-10.6364
▁sekcji	-10.6365
▁czarno	-10.6367
▁specjalnych	-10.6368
▁spis	-10.6371
▁wyposa	-10.6372
▁warszawy	-10.6374
▁słabo	-10.6377
równoważ	-10.6379
▁kabel	-10.6382
▁piłkarz	-10.6405
▁wielkość	-10.6408
▁(...)	-10.6409
▁sprzedawa	-10.6411
▁wojewódzki	-10.6411
▁sobotę	-10.6416
chodzenie	-10.6418
▁książkę	-10.642
święt	-10.6421
▁klasyczny	-10.6421
płyn	-10.6423
▁odpowiedniej	-10.6423
▁rośnie	-10.6426
▁pozytywne	-10.6427
książ	-10.643
▁kibic	-10.644
▁burmistrz	-10.6443
▁największą	-10.6453
cent	-10.6454
▁następujących	-10.6462
▁rozpocząć	-10.6462
▁zmianie	-10.6465
▁szczególne	-10.6466
▁wymyśl	-10.6466
tywne	-10.647
▁obserwuj	-10.647
▁źródłem	-10.6472
▁edycji	-10.6472
▁śród	-10.6478
punk	-10.6482
▁kontekście	-10.6493
▁złote	-10.6496
▁ogół	-10.6496
leśni	-10.6498
▁urlop	-10.6501
▁iphone	-10.6501
konkret	-10.6503
▁żadne	-10.6503
▁trwania	-10.6509
▁comp	-10.6511
słonecz	-10.6512
▁praktyce	-10.6513
▁zgody	-10.6518
▁europejskiego	-10.6519
▁kierownik	-10.6521
▁oddycha	-10.6522
▁zagrożenie	-10.6524
rządzi	-10.6525
▁zbada	-10.6532
arstwo	-10.6532
»	-10.6534
▁proporc	-10.6535
▁błędy	-10.654
▁plakat	-10.654
▁operacyjne	-10.6543
▁dotyczący	-10.6551
▁cebul	-10.6552
▁zróżnicowa	-10.6553
▁fajnie	-10.6557
alergi	-10.6557
▁koń	-10.6559
▁przestępstw	-10.656
▁xix	-10.6563
▁przypadki	-10.6565
▁niedzielę	-10.6566
▁identyfi	-10.6571
▁telewizji	-10.6573
▁odpowiedniego	-10.6573
▁przyciąga	-10.6579
▁trasy	-10.6581
▁reguły	-10.6583
▁rękaw	-10.6595
▁drewniany	-10.6595
▁neuro	-10.6597
ofer	-10.6604
skłon	-10.6607
▁kodeks	-10.6609
liwości	-10.661
~	-10.6611
▁hormon	-10.6612
▁komponent	-10.6621
▁dzwon	-10.6622
▁charakterze	-10.6623
▁balkon	-10.6626
▁niemczech	-10.6632
więk	-10.6632
wtór	-10.6633
▁europejskich	-10.6635
▁jasny	-10.6636
▁szerokie	-10.6646
▁pełno	-10.6646
▁wodny	-10.6648
▁pomidor	-10.6649
pływa	-10.665
▁gwarantuje	-10.6655
▁żółty	-10.6656
▁toreb	-10.6656
▁zdjęciu	-10.6656
▁wykres	-10.6662
▁następnego	-10.6664
▁uczucie	-10.6664
▁maryn	-10.6668
▁ilustracja	-10.667
▁zamknięty	-10.6672
▁pojemności	-10.6672
▁straci	-10.6672
▁aromat	-10.6673
▁jakąś	-10.6688
▁zdrad	-10.6688
▁koszyk	-10.6691
▁samochody	-10.6693
·	-10.6694
▁gospodarczej	-10.6694
▁białka	-10.6702
▁kierowcy	-10.6703
odpowiedzialność	-10.6706
▁kiedykolwiek	-10.6712
▁ulepsz	-10.6717
▁wnętrze	-10.6722
▁odporność	-10.6724
▁szczepi	-10.6726
▁znaki	-10.6732
▁otworzyć	-10.6733
rezerw	-10.6735
▁branż	-10.6736
▁największym	-10.6737
▁kostium	-10.6737
▁bawić	-10.6741
▁traci	-10.6741
▁internetowy	-10.6743
▁zarabia	-10.6748
▁cyfrowy	-10.6749
▁apple	-10.675
▁suche	-10.6752
odawcy	-10.6755
▁diod	-10.6761
▁rysunek	-10.6762
▁mózg	-10.6767
▁zajmując	-10.6767
▁świętego	-10.6768
▁powstanie	-10.6772
▁muzyczny	-10.6786
▁odpowiedzialny	-10.6789
▁maksymalne	-10.6791
▁juli	-10.6792
▁obaw	-10.6796
▁najnowszy	-10.6798
ford	-10.6799
żółt	-10.6808
▁czynienia	-10.6808
▁odcieni	-10.6808
▁postępowanie	-10.6808
▁sesji	-10.6811
inicj	-10.6818
▁licencji	-10.6822
▁przetwarzania	-10.6826
▁chorych	-10.683
▁cre	-10.6833
▁farm	-10.6835
▁energię	-10.6841
▁sejm	-10.6845
▁oświetlenie	-10.6854
▁paryż	-10.6855
▁odpowiednią	-10.6856
▁uczestnicy	-10.6857
à	-10.6861
przecięt	-10.6865
▁pieprz	-10.6871
▁aktualnie	-10.6873
▁doceni	-10.6875
å	-10.6875
ologia	-10.6883
▁lekkie	-10.6885
▁wersję	-10.6888
▁dystans	-10.6893
płaca	-10.6896
▁tylne	-10.6897
▁paul	-10.6903
▁publicznego	-10.6904
▁chirurg	-10.6909
▁reform	-10.691
▁zdefiniowa	-10.6911
dawanie	-10.6911
▁ludziom	-10.6913
▁stracił	-10.6916
▁jelit	-10.6917
zlokalizowa	-10.6918
▁pokazał	-10.6921
standard	-10.6926
▁opłaca	-10.6926
▁spotkać	-10.6926
▁amator	-10.6926
▁uroczystości	-10.6927
▁niniejszej	-10.6928
▁męskie	-10.6929
▁fla	-10.693
▁dzieła	-10.6932
▁komputerze	-10.6936
▁leczeniu	-10.6937
▁odporności	-10.6943
▁średniej	-10.6944
▁otwarcie	-10.6945
powszechni	-10.6945
▁ukrywa	-10.6947
▁zachód	-10.6954
▁maksymalnie	-10.6963
cisnąć	-10.6964
▁ręki	-10.6965
▁świadczenia	-10.6966
▁front	-10.6967
▁miękkie	-10.6968
▁oparty	-10.6969
▁klasyczne	-10.6971
▁poleca	-10.6978
łbym	-10.6981
▁zaczynają	-10.6981
▁witam	-10.6983
porządkowa	-10.6988
▁black	-10.6995
▁świadomość	-10.7002
▁bezpośrednie	-10.7002
▁sprawiedliwości	-10.7007
▁dowolnym	-10.7008
▁bezpieczny	-10.701
▁kwotę	-10.7011
prote	-10.7016
▁stworzył	-10.7017
strzyk	-10.7021
wiązania	-10.7024
▁pomnik	-10.7029
▁kolekcji	-10.7037
program	-10.7039
▁sylwet	-10.7043
▁wyzwanie	-10.7045
etyl	-10.7048
▁spotkań	-10.7051
▁katowic	-10.7056
▁umieścić	-10.706
▁poważnie	-10.7061
▁spodnie	-10.7066
▁obowiązków	-10.7069
▁jedyny	-10.707
używa	-10.7085
▁pokazują	-10.7086
▁członkowskich	-10.7086
▁terytorium	-10.709
▁kupił	-10.7091
▁muzyczne	-10.7092
▁regionie	-10.7096
▁ćwiczeń	-10.7097
▁wyjątkowe	-10.7097
▁księżyc	-10.71
▁związki	-10.7104
uczciw	-10.7107
▁przyjazny	-10.711
▁zabezpieczenia	-10.7111
kazano	-10.7116
▁związ	-10.7117
rodzin	-10.7118
padają	-10.7124
▁wojciech	-10.7125
▁konfiguracji	-10.7126
▁wrócić	-10.7127
grub	-10.7129
▁próbuje	-10.713
▁współczesny	-10.7134
▁głową	-10.7136
▁skończył	-10.7137
▁połączone	-10.7139
▁wydarzenie	-10.7145
▁szczerze	-10.7149
▁drzewo	-10.7162
▁utrzymanie	-10.7163
▁ministra	-10.717
krocz	-10.718
▁znajdujący	-10.7182
▁papież	-10.7185
▁wdraża	-10.7187
▁rąk	-10.7189
▁przyjemności	-10.719
▁niesamowite	-10.719
▁wentylator	-10.7191
▁częściowo	-10.7193
▁niniejszego	-10.7205
▁parametrów	-10.7205
▁pozytywny	-10.7209
▁prawdę	-10.7212
▁wydoby	-10.7215
człon	-10.7217
▁dopóki	-10.7218
▁instalacja	-10.722
▁orzech	-10.7225
▁koniecznie	-10.7234
▁nikogo	-10.7236
▁ofertę	-10.7247
▁brud	-10.7251
▁serdecznie	-10.7258
▁prezentuje	-10.7264
▁ściśle	-10.7265
system	-10.7265
▁otrzymywa	-10.7265
stabiliz	-10.7266
analiz	-10.7267
▁trwałe	-10.7272
▁mierze	-10.7272
▁gotów	-10.7277
rewolucj	-10.728
▁aktywność	-10.7281
▁poinformował	-10.7288
▁podatkowe	-10.7297
▁łącząc	-10.7303
▁sałat	-10.7316
▁wykonuj	-10.7322
▁mr	-10.7329
▁projektant	-10.7333
▁band	-10.7334
put	-10.7338
▁talent	-10.7342
yzacja	-10.7349
▁funkcjonowania	-10.7352
▁współczynnik	-10.7354
▁oznak	-10.7356
▁dźwig	-10.7358
▁składnik	-10.7362
▁skutek	-10.7364
▁bezpłatny	-10.7367
▁godzinie	-10.7367
▁podziwia	-10.7371
▁dziur	-10.7373
jesien	-10.7374
▁córka	-10.7374
pisanie	-10.738
legal	-10.7381
▁hałas	-10.7382
▁trwały	-10.7385
▁operacyjny	-10.7387
▁emocjonal	-10.7388
▁puchar	-10.739
▁pozostawia	-10.7391
towarzysz	-10.7402
▁rozważa	-10.741
▁niby	-10.7417
▁uzupełnia	-10.7425
▁przemian	-10.7429
▁przeszkadza	-10.7431
▁wyjść	-10.7433
▁atmosfery	-10.7446
▁świetna	-10.7449
cznik	-10.7449
żeniu	-10.7452
▁konieczność	-10.7455
▁areszt	-10.7455
▁połączeń	-10.7455
mysl	-10.7457
▁fajne	-10.7458
▁gospodarz	-10.7458
▁górze	-10.7464
▁relacje	-10.7465
▁ekstra	-10.7466
tyzm	-10.747
▁udowodni	-10.7472
▁twoją	-10.7479
▁rzeczywisty	-10.748
▁słoneczne	-10.7483
▁elektroniczny	-10.7486
▁zagranicznych	-10.7493
▁spożywa	-10.7502
▁nastąpi	-10.7509
▁czap	-10.751
▁hasło	-10.7511
▁sand	-10.7516
▁kwalifikacj	-10.7521
▁młoda	-10.7525
▁dostarczy	-10.7529
▁użytkownicy	-10.7531
▁transform	-10.7531
czyste	-10.7531
czyzn	-10.7535
▁podobno	-10.7543
▁przygotowany	-10.7544
▁prowadzony	-10.7554
▁stopniowo	-10.7555
▁wielokrotnie	-10.7557
▁poczeka	-10.7557
▁stwierdza	-10.7561
▁stworzenie	-10.7561
październik	-10.7564
▁kanap	-10.7568
▁home	-10.757
adapt	-10.7571
▁ustalenia	-10.7571
strasz	-10.7574
▁mięso	-10.7575
▁pewnych	-10.7579
▁pozycja	-10.7583
wniosko	-10.7589
▁szerokości	-10.759
▁blokad	-10.7591
▁spadek	-10.7593
▁łazienka	-10.7593
▁dokładne	-10.7601
▁zmniejszenie	-10.7601
rzeź	-10.7604
▁historyczne	-10.7607
▁złożył	-10.7607
rozgrywk	-10.7609
▁wprowadzić	-10.7609
▁lęk	-10.761
▁cmentarz	-10.7614
▁obawia	-10.7621
▁kontrola	-10.7625
▁wokal	-10.7626
niesiony	-10.7626
▁emisji	-10.7637
▁piosenki	-10.7637
▁policja	-10.7638
▁dziad	-10.7639
▁ekip	-10.7641
#	-10.7642
▁szerokość	-10.7642
▁ucieka	-10.7647
▁sfer	-10.7662
▁zawarty	-10.7663
▁informację	-10.7667
szcząc	-10.767
▁oferujemy	-10.7672
▁świadomości	-10.7677
▁bezpłatne	-10.7683
▁rozmów	-10.7687
▁największy	-10.7689
▁wierzch	-10.7691
▁łap	-10.7692
▁różnymi	-10.7693
▁powodować	-10.7694
▁złota	-10.7694
▁fundament	-10.7695
▁kult	-10.7696
skocz	-10.7702
greg	-10.7703
▁wygrał	-10.7705
▁żydowski	-10.7706
wozi	-10.7708
▁administracji	-10.7709
▁powstaje	-10.771
▁rejestracji	-10.7712
▁samochodowy	-10.7717
▁fort	-10.7721
▁znajdziemy	-10.7724
▁sukni	-10.7727
izowane	-10.7738
▁utrzymania	-10.774
ryzm	-10.7751
▁minimum	-10.7753
▁pada	-10.7757
▁pomagają	-10.7758
▁wagi	-10.7765
▁stowarzyszenia	-10.7766
▁barier	-10.7768
▁nadają	-10.777
pokryw	-10.7771
▁treść	-10.7776
gub	-10.7781
▁założenia	-10.7788
▁pojęcie	-10.7788
▁bluetooth	-10.7803
▁nagrodę	-10.7813
▁bogaty	-10.7813
izując	-10.782
respond	-10.782
dynamic	-10.7821
▁instrukcja	-10.7832
skór	-10.7832
š	-10.7834
▁hiszpański	-10.7834
biegł	-10.7839
ografii	-10.7839
▁szczęścia	-10.784
▁wzrasta	-10.7845
▁wystąpił	-10.7845
▁fot	-10.7849
▁chlor	-10.7851
▁jakimś	-10.7855
▁ciągłe	-10.7856
▁kręg	-10.7857
▁braci	-10.7861
▁skontaktowa	-10.7863
▁robocze	-10.7866
▁starego	-10.7871
▁zablokowa	-10.7871
▁przyjęcie	-10.7873
▁show	-10.7874
▁dyscyplin	-10.7881
ctwa	-10.7887
▁tatuaż	-10.7889
▁walce	-10.7891
druk	-10.7895
▁stadion	-10.7896
▁awans	-10.7897
▁chłodni	-10.7897
▁współpracę	-10.7901
▁cienki	-10.7901
▁absolutnie	-10.7902
▁odpowiedział	-10.7908
▁nauczyć	-10.7912
▁eleganc	-10.7916
▁kieszeni	-10.7921
▁tren	-10.7922
▁kolon	-10.7931
▁humor	-10.794
▁siłowni	-10.7943
▁ścier	-10.7952
ślizg	-10.7952
jeździe	-10.7953
▁cro	-10.7953
▁prognoz	-10.7954
▁powinieneś	-10.7957
▁ośrodka	-10.7964
▁załatwi	-10.797
▁umowę	-10.7972
▁uniwersytet	-10.7974
▁polecenia	-10.7978
▁pojedynczy	-10.798
▁kampanii	-10.7982
▁podjąć	-10.7984
▁przypadkow	-10.7992
kompeten	-10.7999
▁porozmawia	-10.8005
▁zatrudnienia	-10.8006
▁korzystnie	-10.8013
▁cztero	-10.8014
▁uszczelni	-10.8014
▁przewidywa	-10.8014
▁czci	-10.8022
▁pracując	-10.803
▁aplikacje	-10.8033
▁hasła	-10.8034
wróć	-10.8042
▁pisarz	-10.8044
▁móc	-10.8045
▁mega	-10.8052
▁członka	-10.8057
▁miecz	-10.8059
▁smart	-10.8062
▁obsługuje	-10.8069
▁głowic	-10.8071
▁zaczęli	-10.8072
▁personalizacja	-10.8075
▁ramiona	-10.8075
ewangeli	-10.8079
▁kil	-10.8084
▁poniższy	-10.8092
▁połowy	-10.8093
▁prowadzący	-10.8096
▁reszta	-10.8098
▁broń	-10.8102
gałęzi	-10.8105
▁spodoba	-10.8107
▁współpraca	-10.8107
▁zabiera	-10.8108
▁refer	-10.8108
▁kategoria	-10.8111
▁praktyczne	-10.8113
rosły	-10.8115
▁strumieni	-10.8115
eczkę	-10.812
ctwo	-10.8121
▁królewski	-10.8126
▁dekoracyjn	-10.8127
▁wschód	-10.8127
▁cytryn	-10.8129
▁odcinek	-10.8129
rozwiązywa	-10.8131
▁statystyk	-10.8136
▁podaj	-10.8141
▁rocznic	-10.8144
▁drewno	-10.8146
▁normalny	-10.8151
roczny	-10.8172
▁wykorzystywany	-10.8173
▁pierścieni	-10.8175
▁segment	-10.8177
▁wymienione	-10.8178
▁decyzje	-10.8181
▁tętni	-10.8182
▁mleka	-10.8184
przybliż	-10.8187
▁regener	-10.8188
▁pomyślał	-10.819
æ	-10.8192
var	-10.8193
dykt	-10.8198
▁wymiana	-10.82
▁ludności	-10.8203
▁korpus	-10.8204
▁zwrócił	-10.8204
▁zawierające	-10.8205
▁widoczny	-10.8208
▁zapewnienie	-10.8219
▁dostaje	-10.8222
▁ciele	-10.8226
▁konsul	-10.8233
▁samsung	-10.8236
drażni	-10.8237
▁przyszłe	-10.8238
▁emocje	-10.8238
▁głupi	-10.8239
▁piór	-10.824
▁osłabi	-10.824
jeśli	-10.8242
▁człowiekiem	-10.8245
▁czyszczenia	-10.8246
świec	-10.825
▁dzieckiem	-10.8252
▁konsekwencji	-10.8253
..............	-10.8253
▁dowiedz	-10.8256
▁rozpoczęła	-10.8265
▁mld	-10.8266
▁gorące	-10.8267
▁rezygn	-10.8267
▁sprawiają	-10.8268
><	-10.8269
▁przemyśle	-10.8275
▁punkcie	-10.8275
▁przyczynia	-10.8277
▁kilkanaście	-10.8279
▁monet	-10.8282
▁wzboga	-10.8283
▁przełom	-10.8285
vent	-10.8295
▁rekrut	-10.8301
▁anioł	-10.8305
▁odpadów	-10.8305
smaż	-10.8307
▁zrezygnowa	-10.8312
konsultacj	-10.8312
“	-10.8315
▁przyjęcia	-10.8316
▁obciążenia	-10.8319
▁zębów	-10.8322
▁oficer	-10.8322
▁homo	-10.8325
▁final	-10.8326
▁cieszę	-10.8334
▁męża	-10.8336
inteligent	-10.8336
▁przeciwieństwie	-10.834
▁zaopatrz	-10.8343
▁podwójne	-10.8347
katastrof	-10.835
www	-10.8351
▁czuć	-10.8356
▁obrotu	-10.8359
gratul	-10.8364
znajd	-10.8364
▁skórze	-10.8365
▁menedżer	-10.8367
▁wzbudz	-10.8373
▁zużycie	-10.8379
▁zdrowotne	-10.838
▁twierdzą	-10.8382
▁fajny	-10.8383
▁obraca	-10.8387
▁jakub	-10.8387
▁piękno	-10.8393
patybiln	-10.8394
▁nadzoru	-10.8395
▁cyfrowe	-10.8399
▁wieczór	-10.8404
▁ekonomiczne	-10.8408
▁działając	-10.841
▁kosztuje	-10.8412
▁kabin	-10.8414
▁work	-10.8414
▁aluminium	-10.8414
nictwie	-10.8416
▁zamknięte	-10.8419
chodzenia	-10.842
▁stud	-10.8421
▁ambi	-10.8422
▁sercu	-10.8422
▁mineral	-10.8423
▁bliżej	-10.8425
fiolet	-10.8426
▁pogoda	-10.8427
▁patrząc	-10.8434
▁historyczny	-10.8434
▁stacja	-10.8435
▁stół	-10.8438
▁sposob	-10.8441
▁budowlane	-10.8441
▁stworzenia	-10.8442
szczone	-10.845
▁bezpiecznie	-10.8452
▁budynki	-10.8454
▁ryż	-10.8455
▁agent	-10.8456
▁toalet	-10.8458
▁modern	-10.8463
▁kilometrów	-10.8464
▁najwyższe	-10.8466
presji	-10.847
groź	-10.8482
▁trybunał	-10.8484
▁angel	-10.8485
▁stosunek	-10.8489
▁normalnie	-10.8493
▁dłuższe	-10.8494
wzgórz	-10.8495
▁usłyszał	-10.8497
▁zaprojektowany	-10.8506
▁każdemu	-10.8516
▁przejazd	-10.8516
▁sześciu	-10.8518
▁aktualizacji	-10.8521
▁antoni	-10.8524
▁poszczególne	-10.8525
satelit	-10.8526
▁niemniej	-10.8526
▁kraków	-10.8527
głod	-10.8528
▁pewność	-10.8529
▁higien	-10.8538
kowska	-10.8541
▁usytuowa	-10.8545
▁miejskiej	-10.8548
wierzchni	-10.8551
▁zapomina	-10.8552
▁odkrywa	-10.8552
▁święte	-10.8554
▁następujący	-10.857
▁niedługo	-10.8571
▁wynalazku	-10.8573
▁ogromną	-10.8573
▁następne	-10.8582
▁dotąd	-10.8587
▁otoczenia	-10.8588
▁narkotyk	-10.8592
izacją	-10.8597
szlachet	-10.8598
▁funkcjonariusz	-10.86
▁jur	-10.8602
▁chemiczny	-10.8604
▁powieści	-10.8606
toksycz	-10.8606
▁zdrowo	-10.8607
▁wiąz	-10.862
▁uczucia	-10.8621
▁uniemożliwi	-10.8623
▁rytm	-10.863
▁najlepsza	-10.8632
▁ważną	-10.8632
▁małż	-10.8635
▁doczeka	-10.8636
▁ładowania	-10.8644
▁litr	-10.8653
▁wydawnictw	-10.8653
▁konkurencji	-10.8654
▁radość	-10.8655
tworzenia	-10.8657
▁przewodniczący	-10.8658
▁katolicki	-10.8661
▁sygnal	-10.8662
▁roboczy	-10.8662
pór	-10.8666
▁atmosfera	-10.8668
ministr	-10.8668
średniowiecz	-10.8671
tworzenie	-10.8672
ewskiego	-10.8674
▁uciec	-10.8675
▁pozyska	-10.8675
▁poszerz	-10.8675
▁starsze	-10.8676
▁nut	-10.8681
▁narodowego	-10.8683
▁aktualne	-10.8685
▁oczach	-10.8688
▁anten	-10.8691
▁wziął	-10.8694
▁realizację	-10.8695
alizm	-10.8699
️	-10.87
inger	-10.87
▁łożysk	-10.8704
▁skuteczny	-10.8706
▁kurczak	-10.8711
▁związków	-10.8711
▁szczęśliwy	-10.8713
▁dosyć	-10.8729
stawienie	-10.873
produkcyjn	-10.8733
▁zadowolony	-10.8738
▁twardy	-10.8741
▁uwolni	-10.8744
▁obsługę	-10.8744
▁grubości	-10.8747
▁wykorzystując	-10.8748
▁instrukcji	-10.8749
▁bogate	-10.875
▁nierdzewnej	-10.8751
▁policjant	-10.8762
▁kupując	-10.8765
ĺľ	-10.8774
▁zainteresowania	-10.878
▁administr	-10.8784
▁porównywa	-10.8784
▁opakowania	-10.8791
▁zawierający	-10.8794
▁zderz	-10.8799
▁świadectw	-10.8802
▁[…]	-10.8809
▁przygotowane	-10.8814
▁dvd	-10.8815
▁zmniejszyć	-10.8821
▁komórkowy	-10.8821
hydrauliczn	-10.8826
▁sufit	-10.883
▁naczynia	-10.8832
▁odsłon	-10.8834
▁klasztor	-10.8835
▁artykule	-10.8837
▁przyjemność	-10.8839
▁portugal	-10.8841
▁aleksandr	-10.8845
▁szczecin	-10.8846
▁przestał	-10.8851
▁mlecz	-10.8852
▁ulubione	-10.8852
▁aplikację	-10.8852
▁poniedziałek	-10.8856
▁eksploatacji	-10.8858
▁samochodem	-10.8862
▁głowa	-10.8863
▁stolicy	-10.8865
▁infrastruktury	-10.8865
▁charakteryzuje	-10.8882
▁śledzi	-10.8897
▁geograf	-10.89
▁nocleg	-10.8905
▁skok	-10.8906
alizacji	-10.8907
▁profesjonalny	-10.891
▁urok	-10.8913
▁przystąpi	-10.8916
▁widokiem	-10.8916
▁towarzyszą	-10.8918
▁emocji	-10.8921
▁mleko	-10.8921
▁ograniczone	-10.8922
▁naklejki	-10.8922
▁kwota	-10.8928
▁podręcznik	-10.8935
▁wieloma	-10.8937
▁pełen	-10.8937
▁turystów	-10.8938
▁game	-10.8941
▁końcowy	-10.8942
▁dodatku	-10.8946
pati	-10.8947
▁łóżko	-10.8953
▁emerytur	-10.8956
▁rund	-10.8956
▁uratowa	-10.8962
</	-10.8965
▁tradycji	-10.8969
▁narodowej	-10.8971
▁zaawansowany	-10.8973
▁łukasz	-10.8975
neutral	-10.8979
▁mogłaby	-10.898
▁anglii	-10.8982
▁ciepły	-10.8985
▁książce	-10.8985
▁time	-10.8987
▁pobrać	-10.8987
▁christ	-10.8988
▁kościele	-10.8989
▁biała	-10.9
house	-10.9003
▁piłki	-10.9003
▁ŝe	-10.9004
▁world	-10.9022
▁przedstawione	-10.9028
plastycz	-10.903
▁wiedza	-10.903
▁dyskusji	-10.9039
▁stolik	-10.9051
▁babci	-10.9051
▁kryształ	-10.9061
▁administracyjne	-10.9063
▁berlin	-10.9065
▁oszczędza	-10.9076
▁decyduje	-10.9081
▁dotarł	-10.9082
▁uległ	-10.9085
▁południe	-10.9086
˝	-10.9092
▁indeks	-10.9092
▁zalety	-10.9096
▁naukowcy	-10.9097
▁kwalifi	-10.9097
▁rękawic	-10.91
▁gwarancji	-10.9101
▁wypł	-10.9107
▁jedyną	-10.9119
▁suplement	-10.9125
▁cześć	-10.9126
▁wyposażenia	-10.9127
noszenie	-10.9127
▁ziarn	-10.9127
stein	-10.9129
▁nadmiar	-10.9131
▁publikacji	-10.9133
▁przejście	-10.9133
▁recept	-10.9136
pisana	-10.914
▁cookie	-10.9142
▁najlepszą	-10.9143
▁promocji	-10.9143
▁ograniczenie	-10.9144
▁ładunk	-10.9145
powtarza	-10.9147
<	-10.916
▁umiera	-10.9162
obserw	-10.9165
▁spokój	-10.9167
▁okazać	-10.9171
▁przestrzenn	-10.9175
board	-10.9176
▁kosmetycz	-10.9176
▁samochodowe	-10.9179
doskonal	-10.9185
▁ogłoszenia	-10.9185
godność	-10.9201
wiązany	-10.9203
▁rozdzielczości	-10.9206
▁żydów	-10.9209
▁wątpi	-10.921
elastycz	-10.9211
▁walczyć	-10.9218
▁substancje	-10.9219
▁warunkami	-10.9219
▁odzwierciedl	-10.9222
▁dyrektywy	-10.9224
▁bieżące	-10.9227
▁przepraszam	-10.9235
▁charakterystyk	-10.9235
▁zmysł	-10.9237
▁ewentualnie	-10.9241
▁przyrody	-10.9246
▁dzisiejsze	-10.925
▁spektakl	-10.9255
▁drut	-10.9256
intelektu	-10.9257
▁zwiększenia	-10.9258
▁handlowych	-10.926
immun	-10.9262
▁rocznie	-10.9262
▁wieloletni	-10.9269
▁morskie	-10.9273
▁proponuje	-10.9276
▁odcinku	-10.9277
▁żadna	-10.928
▁doprowadzić	-10.9283
natural	-10.9285
▁otworzył	-10.9286
▁przybył	-10.9293
▁skonfigurowa	-10.9293
▁skrzyni	-10.9305
▁słoneczny	-10.9309
rehabilit	-10.9318
▁meksyk	-10.9318
▁członkiem	-10.933
▁kamień	-10.933
▁kierunek	-10.9343
▁maluch	-10.9344
▁podatkowy	-10.9349
▁nośnik	-10.9351
▁sms	-10.9352
▁przedszkola	-10.9353
▁dziecku	-10.9355
▁rozciąga	-10.9359
▁sprzecz	-10.936
▁ręką	-10.9364
▁najbliższe	-10.9366
▁rusza	-10.9368
▁zastanowi	-10.9368
▁wyeliminowa	-10.937
▁agencji	-10.937
▁skuteczność	-10.9373
▁benzyn	-10.9377
stawił	-10.9386
▁pedagog	-10.9388
▁chciałabym	-10.9392
tive	-10.9393
▁wyobra	-10.9393
▁znaleźli	-10.9398
▁delikatny	-10.94
▁wymienionych	-10.9418
pisano	-10.942
▁wyobraźni	-10.9429
▁uprawnienia	-10.9431
europe	-10.9433
miejsc	-10.9438
▁piłka	-10.9439
▁klientom	-10.9451
▁równa	-10.9458
▁garaż	-10.9461
▁kawiarni	-10.9464
▁ciemny	-10.947
▁miłośnik	-10.9477
▁oficjalne	-10.9478
▁upewnij	-10.948
▁egzemplarz	-10.9494
▁przejdź	-10.9501
plat	-10.9504
▁wynagrodzenia	-10.9505
▁blue	-10.9508
tylko	-10.9514
▁nisko	-10.9514
▁kontrast	-10.9515
▁więź	-10.9515
▁szczególną	-10.9517
ilustr	-10.9518
▁przyjąć	-10.952
▁zbudowany	-10.9521
▁drukarki	-10.953
▁portfel	-10.9532
▁propag	-10.9537
klad	-10.9538
▁skał	-10.9546
▁zaczęły	-10.9549
▁grzegorz	-10.955
▁nazwą	-10.9555
▁talerz	-10.9557
▁podzielić	-10.9558
godzin	-10.9558
▁spotkaniu	-10.9559
▁polecenie	-10.9569
▁myśleć	-10.9569
▁pozwalając	-10.9579
▁dwukrotnie	-10.9579
▁teorii	-10.9584
▁opanowa	-10.9586
▁filmik	-10.959
▁zapobiec	-10.9596
▁energetyczne	-10.9597
▁zabrać	-10.9599
▁pawła	-10.9601
▁artystów	-10.9608
hydr	-10.9608
▁wskazane	-10.9611
wiadomi	-10.9614
▁kompozyt	-10.9619
pięci	-10.9623
zagospodarow	-10.9628
▁kontroler	-10.9628
oficjalny	-10.9633
▁otwarcia	-10.964
martwi	-10.9642
▁pewna	-10.9647
▁zamku	-10.9648
▁skontaktuj	-10.9654
▁gest	-10.9663
▁drobne	-10.9666
cjom	-10.9666
▁palet	-10.9667
▁powszechne	-10.9668
żołądk	-10.9677
▁produkcję	-10.9678
▁chemiczne	-10.9683
▁sekret	-10.9685
▁oszczędności	-10.9688
▁adapter	-10.969
▁impuls	-10.9694
▁korytarz	-10.9696
▁stwarza	-10.9697
▁ogłosił	-10.9699
▁plecak	-10.9699
▁przeprowadzone	-10.9701
▁dywan	-10.9715
▁poczuł	-10.9716
▁twarde	-10.972
▁przypadek	-10.9725
▁niemożliwe	-10.9729
▁obejrzeć	-10.9729
▁stwierdzono	-10.9739
cięcie	-10.974
▁mebli	-10.9743
▁harry	-10.9743
▁przystosowa	-10.9745
▁fryzur	-10.9748
słania	-10.9751
▁niebezpieczne	-10.9754
▁wniosków	-10.9756
▁kapitan	-10.9756
▁prokuratur	-10.9765
▁dziesięć	-10.9765
oskop	-10.9774
▁zbrodni	-10.9775
▁ranking	-10.9776
▁świeżo	-10.9781
▁azot	-10.9781
▁odnośnie	-10.9782
▁opowieści	-10.9786
▁miliard	-10.9788
▁zdąży	-10.9794
▁okazja	-10.9799
błyskawic	-10.9801
▁gimnazjum	-10.9807
kompens	-10.9808
▁miedzi	-10.9813
stawienia	-10.9814
▁dowiedział	-10.9816
▁korekt	-10.9818
▁autostrad	-10.9823
▁stereo	-10.9824
▁odtwarzacz	-10.9825
▁ręczne	-10.9832
▁przeżywa	-10.9832
▁wątroby	-10.9833
▁wskazywa	-10.9836
▁ostrzega	-10.9837
▁delikatne	-10.9841
▁obrębie	-10.985
▁regionalne	-10.9851
▁promocja	-10.9855
przewlek	-10.9858
▁istnienia	-10.9858
▁statyst	-10.9862
trans	-10.9865
▁senior	-10.987
▁niekiedy	-10.9872
▁szkody	-10.9877
▁aranż	-10.9877
▁hiszpanii	-10.9878
wyklu	-10.9878
▁zaczęło	-10.9879
▁finansowy	-10.988
▁urządzeniu	-10.9884
class	-10.9892
▁macierzy	-10.9893
wiązać	-10.9894
▁piekarnik	-10.9901
wirtual	-10.9901
▁żadnym	-10.9903
pętl	-10.9907
▁administracyjny	-10.9907
▁japonii	-10.9908
manipul	-10.9917
▁drew	-10.9919
personal	-10.9921
niesione	-10.993
▁utraty	-10.9932
▁grecki	-10.9933
▁komórkowe	-10.9934
wiązanie	-10.9937
▁zachodniej	-10.9942
▁galerii	-10.9942
▁umiar	-10.9958
▁islam	-10.9959
międzynarodowych	-10.9973
▁zmierza	-10.9973
▁zaprojektowane	-10.9973
▁smok	-10.9973
osobowy	-10.9979
▁miękki	-10.9992
▁ośrodek	-10.9995
▁doświadczeń	-11
▁rabat	-11.0006
normal	-11.0006
▁patron	-11.0009
▁terminal	-11.0009
▁fundacji	-11.0012
▁gorąco	-11.0014
dwór	-11.0018
▁artysty	-11.0021
▁przekroczy	-11.0022
▁podkreślił	-11.0023
▁zaawansowane	-11.0026
▁wyrówna	-11.0028
▁dodatkową	-11.0031
▁zwalcza	-11.0031
▁idealna	-11.0034
▁powodem	-11.0035
▁zgodę	-11.0037
▁umiejętność	-11.004
które	-11.004
▁kazimierz	-11.0043
skrom	-11.0043
▁otrzymują	-11.0046
▁chwal	-11.0047
▁absolwent	-11.0048
pycha	-11.0048
▁pyszne	-11.0063
▁pięcio	-11.0067
▁popularności	-11.0067
▁odnotowa	-11.0068
í	-11.007
solidar	-11.0071
▁debiut	-11.0075
▁aktualny	-11.0082
kręcić	-11.0085
▁łazienki	-11.0092
▁lotnicze	-11.0094
▁wydawało	-11.0098
▁opakowanie	-11.0099
▁chęci	-11.0112
▁publiczny	-11.0114
▁giełd	-11.0115
▁życzenia	-11.0118
▁regularne	-11.0119
▁ręcznik	-11.0119
▁doskonała	-11.0128
▁wskazał	-11.0128
▁mechaniczne	-11.0131
▁opodatkow	-11.0133
▁artystyczne	-11.0136
▁filip	-11.0136
▁przejścia	-11.0142
▁anal	-11.0144
▁umieszczone	-11.0146
▁gabinet	-11.0153
▁dysponuje	-11.0156
▁życzę	-11.0159
▁oficjalnie	-11.016
▁netto	-11.0164
▁reguł	-11.0166
▁tożsamości	-11.017
▁dziękujemy	-11.0171
dyrektyw	-11.0174
˛	-11.0175
▁golf	-11.0181
▁wersje	-11.0181
▁negatywny	-11.0186
▁silikon	-11.0188
▁wskazówki	-11.019
▁zęba	-11.0191
▁wbrew	-11.0197
koncepcj	-11.0204
▁odśwież	-11.0205
▁piątk	-11.0207
▁przydatne	-11.0219
tańcz	-11.0221
▁ramię	-11.0225
▁rozporządzenie	-11.0229
▁pistolet	-11.023
▁porozumienia	-11.0235
▁projekcie	-11.0247
▁założyciel	-11.0254
spódnic	-11.0259
▁jakichkolwiek	-11.0262
▁naturalnie	-11.0263
}	-11.0264
▁zaoferowa	-11.0268
▁dojść	-11.0269
▁ocenę	-11.0271
▁południowy	-11.0274
▁gorzej	-11.0276
▁makaron	-11.0276
▁powstrzyma	-11.0277
▁producenci	-11.0277
▁jorku	-11.0279
▁spojrzał	-11.0281
▁lektur	-11.0283
▁swych	-11.0286
▁akcent	-11.0293
▁zmęczeni	-11.0294
▁związana	-11.0294
▁przetarg	-11.0309
▁znajdą	-11.0311
kapit	-11.0315
▁kolekcja	-11.0322
▁paczk	-11.0331
lodow	-11.0331
▁wifi	-11.0331
rośl	-11.0341
▁wiążą	-11.0345
▁uzgodni	-11.0351
▁puste	-11.0352
skoczył	-11.0353
dwudziest	-11.0354
▁ukończył	-11.0355
infrastruktur	-11.0359
▁polską	-11.0359
▁minus	-11.0368
rącz	-11.0369
▁fizyk	-11.0378
view	-11.0379
▁wynikające	-11.039
▁zmaga	-11.0394
▁zdziwi	-11.0394
▁sponsor	-11.0394
▁lotniczy	-11.0395
▁youtube	-11.0405
▁video	-11.0418
części	-11.0418
lezieni	-11.0419
chrześcijański	-11.0424
▁niebezpieczny	-11.0437
▁inwestycje	-11.0437
będzie	-11.0438
▁włókna	-11.0442
▁ustalić	-11.0443
▁wprowadzenia	-11.045
▁zatrudnia	-11.0451
▁łask	-11.0451
▁koncepcja	-11.0453
tworzona	-11.046
▁mikrofon	-11.0465
▁kryteria	-11.0468
▁rozmowa	-11.0471
▁istniał	-11.0476
eczko	-11.0479
rozstrzygni	-11.0481
▁sznur	-11.0482
shop	-11.0486
▁rzadki	-11.0488
▁odżywia	-11.0493
▁umieszczony	-11.0496
▁nóż	-11.0512
synchroniz	-11.0516
▁kariery	-11.0519
▁bieżąco	-11.0526
▁sprząta	-11.0526
▁wyrobów	-11.0527
▁zaakceptowa	-11.053
▁obudowy	-11.053
wymiar	-11.0537
▁ciemne	-11.0543
▁refleks	-11.0544
▁zjednoczone	-11.0549
▁dosłownie	-11.0553
▁sojusz	-11.0557
▁ekonomiczny	-11.0557
▁kręgosłup	-11.056
▁przeprowadzić	-11.056
▁dominują	-11.0561
▁skutków	-11.0562
▁zespole	-11.0562
▁dociera	-11.0566
▁university	-11.057
▁usunięcia	-11.057
▁koncepcji	-11.0577
▁zidentyfikowa	-11.0583
▁wrześniu	-11.0583
▁korzystne	-11.0583
▁połączony	-11.0588
papieros	-11.0588
▁jesli	-11.0591
▁zaskakują	-11.0592
€	-11.0596
▁wschodniej	-11.0599
▁zespołów	-11.0603
▁praktyczny	-11.0609
▁dojazd	-11.0611
▁wzywa	-11.0612
proszeni	-11.0621
▁połowę	-11.0627
▁ankiet	-11.0631
▁wynoszą	-11.0632
▁wzmacniacz	-11.0633
cylindr	-11.0635
▁maksymalna	-11.0635
▁jarosław	-11.0639
{	-11.0642
▁relacja	-11.0645
▁tadeusz	-11.065
▁pielęgnacji	-11.0668
▁naczyń	-11.0669
▁realizowane	-11.067
▁dalszych	-11.0671
▁parafii	-11.0673
inteligenc	-11.0676
▁stefan	-11.0684
▁wspomniane	-11.0689
▁ścieżki	-11.0694
▁doskonałą	-11.0696
▁twórcy	-11.0697
▁seryjne	-11.0697
▁david	-11.0701
▁minimalne	-11.0702
▁zasilacz	-11.0704
▁najszybciej	-11.0712
▁zakończenia	-11.072
▁charakteryzują	-11.0721
▁high	-11.0723
▁zasłon	-11.0733
▁ogień	-11.0734
▁pozytywnie	-11.0739
▁studiu	-11.0739
▁krakowski	-11.0747
▁przewodu	-11.0748
▁podkreślić	-11.0748
▁pomieszczeń	-11.0751
▁parafia	-11.0752
▁stowarzyszenie	-11.0754
ździ	-11.0764
▁leżąc	-11.0765
kultur	-11.0768
▁hybryd	-11.0772
▁populacji	-11.0772
▁słaby	-11.0773
▁słabe	-11.0779
▁zawodów	-11.0781
odzysk	-11.0783
▁statku	-11.0783
▁europejska	-11.0785
▁zasadniczo	-11.0785
▁chrześcijan	-11.0803
samochod	-11.0815
▁znajomość	-11.0817
▁zapamięta	-11.0818
▁gorący	-11.0819
złośliw	-11.0819
▁ciecz	-11.0819
▁końcowe	-11.0824
wierzyteln	-11.0827
▁kompakt	-11.0835
▁jedyna	-11.0844
▁założył	-11.0846
▁mianowicie	-11.0848
▁gładki	-11.0849
▁niezbyt	-11.0862
▁bezprzewodowy	-11.0862
▁odcinka	-11.087
▁upewnić	-11.0872
▁mateusz	-11.0872
▁podatnik	-11.0873
▁prokurator	-11.0875
▁panoram	-11.0886
▁rzędu	-11.0888
▁intensywne	-11.0888
▁spowoduje	-11.0893
▁kaplic	-11.0894
▁pudełko	-11.0897
▁połowa	-11.0906
▁wrażenia	-11.091
▁pokoi	-11.0911
▁przeszło	-11.0911
▁utworzyć	-11.0917
▁bieżący	-11.0923
stąpił	-11.0934
▁analit	-11.0934
±	-11.0938
▁publiczne	-11.0942
▁turystyczne	-11.0947
zryw	-11.0948
tytuł	-11.0948
▁barbar	-11.095
▁lcd	-11.0952
▁skrzydła	-11.0953
а	-11.0954
▁oszczęd	-11.0961
▁zdobi	-11.0965
▁dęb	-11.0966
▁niezależny	-11.0971
▁wskazany	-11.0971
▁wyposażona	-11.0973
▁obróbki	-11.0978
▁srebrny	-11.098
▁uniwersytecie	-11.0989
▁turystyczny	-11.0989
▁niesamowity	-11.0992
▁śluz	-11.0992
▁ewentualne	-11.0994
▁słownik	-11.0995
▁nadzieje	-11.0999
▁usunięcie	-11.1002
▁regulator	-11.1004
▁ograniczony	-11.1012
▁michael	-11.1013
▁william	-11.1018
▁wizerunk	-11.1021
▁komercyjnych	-11.1021
▁złoto	-11.1024
▁przygotował	-11.1025
▁niepodległości	-11.1026
▁zgodności	-11.103
▁fitness	-11.1034
▁podłogi	-11.1035
▁pierwotne	-11.104
▁ameryki	-11.1043
▁sytuacje	-11.1045
▁nauczył	-11.1048
▁ekstrem	-11.1048
▁zespołem	-11.1056
▁chęć	-11.106
▁uniwersalny	-11.1067
absolut	-11.1068
▁domaga	-11.1075
▁wyobraża	-11.1076
▁automatyczny	-11.1077
▁dotrzeć	-11.1084
▁wójt	-11.1087
▁damskie	-11.1089
▁okoliczn	-11.109
▁sekretarz	-11.1095
▁objęty	-11.1109
▁przewiduje	-11.1111
point	-11.1117
▁czerwcu	-11.1118
▁zdarzeń	-11.1121
—	-11.1122
▁rekomend	-11.1129
▁zajmują	-11.1133
▁grube	-11.1138
▁drobny	-11.1139
▁popyt	-11.1146
▁obojętn	-11.1148
▁niezwykłe	-11.1151
▁realizacja	-11.1156
▁błękit	-11.1156
▁chłopiec	-11.1163
▁potwierdzenie	-11.1165
▁janusz	-11.1166
▁odnowi	-11.1172
▁angaż	-11.1173
▁nagród	-11.1173
▁równocześnie	-11.1175
▁regulacja	-11.1176
▁ognisk	-11.1177
▁przyjemny	-11.1183
▁oczywiste	-11.1188
syntez	-11.1196
▁zabrał	-11.1199
▁badacz	-11.12
▁atrakcyjne	-11.1202
▁kopalni	-11.1205
▁towarzystwa	-11.1205
tywny	-11.1207
kładamy	-11.121
▁negatywne	-11.1219
▁farmaceuty	-11.1219
▁rezultacie	-11.1227
▁powodzeniem	-11.123
▁potwierdził	-11.1233
▁pojemność	-11.1235
▁radziecki	-11.1239
▁telewizyjny	-11.1246
▁stosując	-11.125
▁siostra	-11.1252
▁service	-11.1254
▁samodzielne	-11.1257
▁cieszą	-11.1261
▁otwórz	-11.1261
negatyw	-11.1271
▁elastyczne	-11.1272
▁wyprzedz	-11.1276
▁złącze	-11.1277
▁inspektor	-11.1279
▁znaczący	-11.128
▁kongres	-11.1282
▁matematyk	-11.1287
▁wstrząs	-11.129
▁spółek	-11.129
▁uwadze	-11.1293
▁podświetl	-11.1294
▁bogactw	-11.1295
▁flash	-11.1299
▁rozmowie	-11.1305
▁objętości	-11.1307
▁głup	-11.131
▁olbrzymi	-11.1312
▁atrakcyjny	-11.1313
▁odpowiedzieć	-11.1314
▁rysunku	-11.1318
▁równe	-11.1319
▁usprawni	-11.1332
▁dowodów	-11.1335
▁wezwani	-11.1337
▁kształcenia	-11.1337
▁chłopców	-11.134
▁napoje	-11.1344
▁usłysz	-11.1348
▁zespoły	-11.1351
▁podwójny	-11.1357
▁szklane	-11.1357
▁audi	-11.1365
▁rozczarow	-11.1366
▁bruk	-11.1373
▁poniższe	-11.1374
▁stężenia	-11.1376
▁kontekst	-11.1376
▁uwalnia	-11.1379
▁architektury	-11.1382
▁wyższa	-11.1383
▁wytłumacz	-11.1393
▁niniejszym	-11.1398
▁dzięk	-11.1404
▁wtorek	-11.1405
▁smaczne	-11.1408
▁henryk	-11.1409
▁biegun	-11.1413
ództw	-11.1422
▁naklejka	-11.1427
▁uczestniczył	-11.1432
▁podąża	-11.1434
▁dostrzega	-11.1438
jprawdopodobniej	-11.1443
sprzęg	-11.1455
▁tzn	-11.1456
▁pozbyć	-11.1457
▁artystyczny	-11.1463
о	-11.1465
▁seksualne	-11.1467
▁osobowości	-11.1471
ç	-11.1485
▁całkowity	-11.1491
▁zaobserwowa	-11.1495
▁orkiestr	-11.1496
▁narzeka	-11.1497
�	-11.1499
▁skutku	-11.1505
▁spokoju	-11.1506
▁spręż	-11.1509
▁podsumowan	-11.1518
▁prawdziwa	-11.1519
▁zrozumienie	-11.152
▁austria	-11.1522
▁szczotk	-11.1525
▁oczami	-11.1527
▁póki	-11.1527
▁traktat	-11.1528
▁zawór	-11.1528
▁rzeczywistość	-11.153
▁ograniczeń	-11.1545
▁james	-11.1547
▁szlif	-11.1548
▁siedzibą	-11.155
▁wygrywa	-11.1553
▁daniel	-11.1559
▁efekcie	-11.1564
▁liceum	-11.1567
▁bmw	-11.157
▁pożyczki	-11.1575
▁ambasad	-11.1575
▁dekad	-11.1578
▁kapłan	-11.1579
▁instalowa	-11.1587
▁terytoria	-11.1589
▁znacząco	-11.159
▁prestiż	-11.1592
▁błogosławi	-11.1595
▁wędk	-11.1597
▁począwszy	-11.1598
▁pułk	-11.1598
▁książę	-11.1603
▁stężenie	-11.1604
▁współpracuje	-11.1604
▁wydatków	-11.1604
▁zabrakło	-11.1615
▁ściąga	-11.1616
▁weryfi	-11.1625
▁strukturę	-11.1626
▁przyjaźni	-11.1626
▁swym	-11.1631
klei	-11.1635
▁bliskie	-11.1636
▁zaprosi	-11.1641
▁zjeść	-11.1643
▁wstyd	-11.1644
▁wbudowany	-11.1645
▁hiszpan	-11.1648
▁niezależne	-11.165
▁wytrzymałość	-11.1654
▁propozycje	-11.1658
▁objęte	-11.1659
▁dolegliwości	-11.1666
kazywał	-11.1668
town	-11.1668
▁skuteczności	-11.1669
kierunkow	-11.1672
▁tramwaj	-11.1675
▁zachwyca	-11.1675
▁finansów	-11.1679
▁tunel	-11.1679
▁grudniu	-11.1681
▁łódź	-11.1681
dynamik	-11.1685
dziesięcio	-11.1689
▁jedne	-11.1693
▁pogrzeb	-11.1695
▁przemieszcza	-11.1695
prowadź	-11.1704
▁wrocławiu	-11.1708
▁jazda	-11.1717
▁nagroda	-11.1725
▁powita	-11.1732
▁zdoła	-11.1734
▁instytucja	-11.1735
▁inwestycja	-11.175
free	-11.1756
▁swobodnie	-11.1761
▁rzymski	-11.1763
▁rozegra	-11.1765
▁bateria	-11.1767
▁przod	-11.177
▁przyjęty	-11.1774
▁enzym	-11.1775
▁funkcjonowanie	-11.1793
▁harmonogram	-11.1793
▁instancji	-11.1796
▁premium	-11.1796
▁tęskn	-11.1796
▁akademicki	-11.1796
▁posiłki	-11.1797
▁sześcio	-11.1802
▁komiks	-11.1811
▁laboratorium	-11.1816
▁oświetlenia	-11.1816
▁policjanci	-11.1825
▁jesienią	-11.1837
▁podjęcia	-11.1837
▁dąży	-11.1839
▁żółte	-11.184
śniadani	-11.1844
▁podejrzewa	-11.1848
uprzejm	-11.1852
▁trudniej	-11.1855
×	-11.186
▁edycja	-11.1863
▁zatok	-11.1867
drive	-11.1869
▁kapelusz	-11.1869
ryjski	-11.1871
▁bransolet	-11.1872
▁południowo	-11.1872
▁indywidualnie	-11.1876
count	-11.188
▁kontynent	-11.188
−	-11.1898
▁krzew	-11.1898
▁bliźni	-11.1903
▁pomogą	-11.1907
płuka	-11.191
▁trójkąt	-11.191
▁produkcyjne	-11.1913
▁świąteczne	-11.1913
▁dalszym	-11.1916
▁resztę	-11.1919
▁przekłada	-11.1919
▁propozycja	-11.192
▁otóż	-11.1928
▁wąski	-11.193
▁przeprowadzenia	-11.1931
▁micro	-11.1931
field	-11.1932
▁nadmierne	-11.1935
▁księż	-11.1935
▁powiązane	-11.1936
▁rozgrywa	-11.1936
▁sprężyn	-11.194
▁edukacyjny	-11.1945
nawigacj	-11.1945
▁rozkaz	-11.1955
▁rozległ	-11.1959
▁maksymalny	-11.196
▁street	-11.1963
▁instagram	-11.1966
▁studenci	-11.1966
zamkni	-11.198
▁niewątpliwie	-11.198
▁kojarzy	-11.1983
▁temacie	-11.1987
▁patelni	-11.1987
▁island	-11.1989
wielokrotn	-11.1992
▁asystent	-11.1992
▁zaktualizowa	-11.1995
▁mobilne	-11.2
▁piłkę	-11.2002
▁instytucje	-11.201
▁oszust	-11.2011
smak	-11.2024
▁jacek	-11.2025
▁zagadnienia	-11.2026
nictwem	-11.2028
wiązał	-11.2029
▁gigant	-11.2029
▁zrozumienia	-11.204
â	-11.2043
▁podejścia	-11.2054
▁zamieszkania	-11.2055
▁starannie	-11.2055
▁decydując	-11.2056
▁pewną	-11.2056
▁niedaleko	-11.2061
▁dowolnego	-11.2061
▁osiągnięcie	-11.2063
▁rzeczywiste	-11.207
bóstw	-11.2072
konwencjonal	-11.2078
▁powrotu	-11.208
▁mechaniczny	-11.2081
▁wielkanoc	-11.2085
▁bezprzewodowe	-11.2086
▁rakiet	-11.2086
▁audyt	-11.2087
▁pacjenci	-11.2087
▁zbigniew	-11.2093
▁inteligentny	-11.2099
▁utworów	-11.2104
sql	-11.2104
▁styczniu	-11.2105
▁błysk	-11.2107
▁wynagrodzenie	-11.2108
▁narodzenie	-11.211
▁ostateczne	-11.2122
▁ochronne	-11.2128
▁arabski	-11.2135
▁przemocy	-11.2139
▁zdejm	-11.214
krwawi	-11.2142
▁pomieszczeniu	-11.2144
***	-11.2144
▁klip	-11.2152
▁zacznij	-11.2157
▁częstotliwość	-11.2159
▁wyzwania	-11.2163
▁świadczą	-11.2166
▁zdecydować	-11.217
craft	-11.2181
▁dowolny	-11.2183
▁kompetencji	-11.2183
ridge	-11.2195
▁wielko	-11.2205
▁pobrania	-11.2207
▁zanurz	-11.2214
▁ochronie	-11.2222
▁graficzny	-11.2222
▁wyszło	-11.2223
▁office	-11.2229
▁odporne	-11.2243
▁kilogram	-11.2247
▁norweg	-11.2253
▁zmodyfikowa	-11.2253
▁martin	-11.2253
ustawodaw	-11.226
▁oświadczenie	-11.2263
▁pozdrawiam	-11.2268
▁granat	-11.2271
▁medycyny	-11.2277
▁przełącza	-11.2286
▁gniew	-11.2289
¬	-11.2298
▁odsetek	-11.2308
wykona	-11.2322
▁rozpoczęcia	-11.2323
▁możliwa	-11.2326
▁atut	-11.2332
płynąć	-11.2335
▁algorytm	-11.2335
▁biżuteria	-11.2335
▁uprawnień	-11.2344
▁łatwa	-11.2344
▁nikomu	-11.2345
▁majątku	-11.2345
▁ekologiczne	-11.2346
▁skojarz	-11.2348
▁wchłania	-11.2354
▁pierwotnie	-11.2378
▁elektrowni	-11.2384
▁ogrzewania	-11.2391
▁wydziela	-11.2392
▁reakcja	-11.2393
‘	-11.2396
▁posiłek	-11.2397
▁august	-11.24
▁oferowane	-11.2403
▁dziewięć	-11.2409
▁zachowuje	-11.2412
▁wiktor	-11.2412
moderniz	-11.2415
▁deweloper	-11.2418
▁władysław	-11.2418
▁jedwab	-11.2418
▁literacki	-11.2419
▁znajomości	-11.2421
▁kuchenny	-11.2439
▁młodszy	-11.2441
▁naruszenia	-11.2444
▁dokonuje	-11.2449
▁nigdzie	-11.2458
▁obserwacji	-11.2458
▁zapłaty	-11.2461
▁ekstrakt	-11.2465
rachunkow	-11.2474
▁zmusza	-11.2474
pełnosprawnych	-11.2483
▁słynne	-11.2484
▁przyrodni	-11.2485
pozytyw	-11.2487
▁naruszenie	-11.249
▁transmisji	-11.2492
efekt	-11.2504
▁przygotowuje	-11.2507
▁siostry	-11.2511
▁czystości	-11.2512
▁łóżku	-11.2512
▁spokojne	-11.2514
religijny	-11.2517
▁przyjemne	-11.252
▁przeznaczona	-11.252
▁żelaza	-11.2521
▁odnaleźć	-11.2523
▁opowieść	-11.253
▁lunch	-11.2534
▁hurtowni	-11.2539
▁prawdziwą	-11.2545
▁wysyłka	-11.2552
▁karabin	-11.2552
▁zaburzeń	-11.2555
▁kokos	-11.2566
▁obrotowy	-11.2569
▁ameryce	-11.257
▁prywatności	-11.2574
control	-11.2574
▁sierpniu	-11.2577
▁odnawia	-11.2581
▁antybiotyk	-11.2583
▁galaxy	-11.2586
▁karierę	-11.2586
▁prostokąt	-11.2589
▁zmywa	-11.2596
▁realizowany	-11.2597
▁wielkopolski	-11.2599
▁agnieszka	-11.2608
▁religii	-11.2617
uszczel	-11.2622
▁zalecenia	-11.2625
▁równowagi	-11.263
▁czołg	-11.2634
▁zorientowa	-11.2636
▁znajdź	-11.2646
▁toleran	-11.2647
▁produkowane	-11.265
▁pielgrzym	-11.2655
▁przychodów	-11.2656
▁pozyskiwa	-11.2665
▁wtrysk	-11.2667
▁mundur	-11.2671
▁przenieść	-11.2673
▁jesień	-11.2674
▁oryginał	-11.2677
▁odniesienia	-11.2678
▁publiczności	-11.2681
▁kilkunastu	-11.2684
▁powodow	-11.2686
▁wymogi	-11.2689
▁wirtualne	-11.2691
▁dziecięce	-11.2701
technolog	-11.2702
▁wcześnie	-11.2704
▁obsłudze	-11.2706
▁vintage	-11.2709
▁piwnic	-11.2717
▁pozwól	-11.2722
▁oboje	-11.273
▁zaskoczeni	-11.2731
▁piętrze	-11.2732
▁instruktor	-11.2741
▁kapital	-11.2745
▁ogrzewanie	-11.2752
▁kompozycji	-11.2754
▁oferowany	-11.2754
▁kierunki	-11.2757
▁pdf	-11.2765
▁świadczeń	-11.2774
▁kwietniu	-11.2776
▁katarzyna	-11.2782
▁blondyn	-11.2782
▁pożegna	-11.2782
▁wydłu	-11.2784
▁zużycia	-11.2789
▁wiosną	-11.2793
▁poprzecz	-11.2795
▁niezwykły	-11.2805
▁słychać	-11.2808
▁zapotrzebowanie	-11.2808
▁atmosferę	-11.2811
▁george	-11.2814
rześcijań	-11.2819
▁otwarta	-11.2824
▁bilans	-11.2831
▁awarii	-11.2837
ładun	-11.2837
znajomi	-11.2844
▁pierścień	-11.285
telewizyjn	-11.2853
mechanic	-11.2854
и	-11.2976
‡	-11.3118
ñ	-11.3164
ă	-11.3543
ы	-11.3568
е	-11.393
©	-11.3988
č	-11.4123
ø	-11.4386
с	-11.4851
→	-11.4938
р	-11.5191
‑	-11.524
²	-11.5351
н	-11.556
т	-11.5679
|	-11.5759
§	-12.0595
•	-12.7487
ľ	-13.6168
