<unk>	0
<s>	0
</s>	0
<0x00>	0
<0x01>	0
<0x02>	0
<0x03>	0
<0x04>	0
<0x05>	0
<0x06>	0
<0x07>	0
<0x08>	0
<0x09>	0
<0x0A>	0
<0x0B>	0
<0x0C>	0
<0x0D>	0
<0x0E>	0
<0x0F>	0
<0x10>	0
<0x11>	0
<0x12>	0
<0x13>	0
<0x14>	0
<0x15>	0
<0x16>	0
<0x17>	0
<0x18>	0
<0x19>	0
<0x1A>	0
<0x1B>	0
<0x1C>	0
<0x1D>	0
<0x1E>	0
<0x1F>	0
<0x20>	0
<0x21>	0
<0x22>	0
<0x23>	0
<0x24>	0
<0x25>	0
<0x26>	0
<0x27>	0
<0x28>	0
<0x29>	0
<0x2A>	0
<0x2B>	0
<0x2C>	0
<0x2D>	0
<0x2E>	0
<0x2F>	0
<0x30>	0
<0x31>	0
<0x32>	0
<0x33>	0
<0x34>	0
<0x35>	0
<0x36>	0
<0x37>	0
<0x38>	0
<0x39>	0
<0x3A>	0
<0x3B>	0
<0x3C>	0
<0x3D>	0
<0x3E>	0
<0x3F>	0
<0x40>	0
<0x41>	0
<0x42>	0
<0x43>	0
<0x44>	0
<0x45>	0
<0x46>	0
<0x47>	0
<0x48>	0
<0x49>	0
<0x4A>	0
<0x4B>	0
<0x4C>	0
<0x4D>	0
<0x4E>	0
<0x4F>	0
<0x50>	0
<0x51>	0
<0x52>	0
<0x53>	0
<0x54>	0
<0x55>	0
<0x56>	0
<0x57>	0
<0x58>	0
<0x59>	0
<0x5A>	0
<0x5B>	0
<0x5C>	0
<0x5D>	0
<0x5E>	0
<0x5F>	0
<0x60>	0
<0x61>	0
<0x62>	0
<0x63>	0
<0x64>	0
<0x65>	0
<0x66>	0
<0x67>	0
<0x68>	0
<0x69>	0
<0x6A>	0
<0x6B>	0
<0x6C>	0
<0x6D>	0
<0x6E>	0
<0x6F>	0
<0x70>	0
<0x71>	0
<0x72>	0
<0x73>	0
<0x74>	0
<0x75>	0
<0x76>	0
<0x77>	0
<0x78>	0
<0x79>	0
<0x7A>	0
<0x7B>	0
<0x7C>	0
<0x7D>	0
<0x7E>	0
<0x7F>	0
<0x80>	0
<0x81>	0
<0x82>	0
<0x83>	0
<0x84>	0
<0x85>	0
<0x86>	0
<0x87>	0
<0x88>	0
<0x89>	0
<0x8A>	0
<0x8B>	0
<0x8C>	0
<0x8D>	0
<0x8E>	0
<0x8F>	0
<0x90>	0
<0x91>	0
<0x92>	0
<0x93>	0
<0x94>	0
<0x95>	0
<0x96>	0
<0x97>	0
<0x98>	0
<0x99>	0
<0x9A>	0
<0x9B>	0
<0x9C>	0
<0x9D>	0
<0x9E>	0
<0x9F>	0
<0xA0>	0
<0xA1>	0
<0xA2>	0
<0xA3>	0
<0xA4>	0
<0xA5>	0
<0xA6>	0
<0xA7>	0
<0xA8>	0
<0xA9>	0
<0xAA>	0
<0xAB>	0
<0xAC>	0
<0xAD>	0
<0xAE>	0
<0xAF>	0
<0xB0>	0
<0xB1>	0
<0xB2>	0
<0xB3>	0
<0xB4>	0
<0xB5>	0
<0xB6>	0
<0xB7>	0
<0xB8>	0
<0xB9>	0
<0xBA>	0
<0xBB>	0
<0xBC>	0
<0xBD>	0
<0xBE>	0
<0xBF>	0
<0xC0>	0
<0xC1>	0
<0xC2>	0
<0xC3>	0
<0xC4>	0
<0xC5>	0
<0xC6>	0
<0xC7>	0
<0xC8>	0
<0xC9>	0
<0xCA>	0
<0xCB>	0
<0xCC>	0
<0xCD>	0
<0xCE>	0
<0xCF>	0
<0xD0>	0
<0xD1>	0
<0xD2>	0
<0xD3>	0
<0xD4>	0
<0xD5>	0
<0xD6>	0
<0xD7>	0
<0xD8>	0
<0xD9>	0
<0xDA>	0
<0xDB>	0
<0xDC>	0
<0xDD>	0
<0xDE>	0
<0xDF>	0
<0xE0>	0
<0xE1>	0
<0xE2>	0
<0xE3>	0
<0xE4>	0
<0xE5>	0
<0xE6>	0
<0xE7>	0
<0xE8>	0
<0xE9>	0
<0xEA>	0
<0xEB>	0
<0xEC>	0
<0xED>	0
<0xEE>	0
<0xEF>	0
<0xF0>	0
<0xF1>	0
<0xF2>	0
<0xF3>	0
<0xF4>	0
<0xF5>	0
<0xF6>	0
<0xF7>	0
<0xF8>	0
<0xF9>	0
<0xFA>	0
<0xFB>	0
<0xFC>	0
<0xFD>	0
<0xFE>	0
<0xFF>	0
▁the	-3.20555
.	-3.25678
s	-3.38944
,	-3.38953
▁	-3.78109
▁of	-3.8636
▁and	-4.0976
▁to	-4.12258
▁a	-4.21862
▁in	-4.32938
▁is	-4.68343
0	-4.9109
1	-4.97976
▁for	-4.98311
ing	-5.16467
▁I	-5.16585
▁with	-5.19807
▁The	-5.19837
-	-5.22878
▁that	-5.22975
'	-5.27486
2	-5.27783
▁it	-5.2782
ed	-5.32623
▁on	-5.3707
▁be	-5.43629
t	-5.47588
▁you	-5.49993
d	-5.53182
▁are	-5.56674
▁was	-5.6425
▁not	-5.66277
▁(	-5.70776
▁from	-5.77508
▁-	-5.77747
▁by	-5.83267
▁this	-5.86311
▁as	-5.86321
:	-5.86812
3	-5.87751
▁will	-5.88913
5	-5.89644
▁or	-5.90963
ly	-5.93357
▁can	-5.98806
y	-6.00894
▁at	-6.02892
▁have	-6.03651
9	-6.05268
4	-6.05373
er	-6.06287
e	-6.0892
▁an	-6.09526
)	-6.12554
?	-6.19292
6	-6.26487
8	-6.289
n	-6.29355
▁It	-6.29853
▁"	-6.30129
▁In	-6.31097
▁we	-6.31103
▁A	-6.31738
▁which	-6.33885
al	-6.39839
7	-6.40522
▁your	-6.40749
▁also	-6.41799
▁he	-6.43275
▁but	-6.44765
▁has	-6.47449
m	-6.47939
▁all	-6.53295
▁one	-6.60545
a	-6.61673
▁time	-6.64586
▁about	-6.65636
▁S	-6.6706
in	-6.68034
es	-6.68188
▁so	-6.69296
▁they	-6.71257
r	-6.71442
"	-6.71978
▁his	-6.73058
▁were	-6.74787
▁more	-6.75027
▁do	-6.75785
▁their	-6.77865
▁there	-6.79868
▁my	-6.83381
▁We	-6.83846
th	-6.84336
▁out	-6.85474
re	-6.85557
▁This	-6.86126
!	-6.87733
▁only	-6.88489
▁me	-6.89462
▁who	-6.90604
▁up	-6.93189
▁other	-6.93688
▁them	-6.95221
o	-6.96512
▁no	-6.96919
▁like	-6.99281
▁our	-6.99371
▁what	-7.01298
or	-7.02116
▁when	-7.04683
i	-7.04893
▁very	-7.05211
g	-7.08285
/	-7.08502
▁He	-7.11192
▁her	-7.11433
▁P	-7.12017
▁had	-7.13896
;	-7.14054
▁if	-7.14669
▁been	-7.14756
▁people	-7.14861
▁should	-7.15114
▁such	-7.15783
S	-7.1608
▁new	-7.16646
▁first	-7.17629
).	-7.1838
▁into	-7.18442
▁would	-7.19471
▁use	-7.19534
▁C	-7.20003
▁re	-7.20299
l	-7.20619
ation	-7.21128
p	-7.21219
▁You	-7.22525
b	-7.23694
▁over	-7.23923
▁work	-7.24643
k	-7.26451
ic	-7.26659
▁most	-7.2759
▁after	-7.27626
▁And	-7.27685
▁B	-7.28226
c	-7.2852
▁its	-7.29153
▁well	-7.31258
le	-7.33479
▁de	-7.34323
▁may	-7.34701
▁than	-7.35814
ion	-7.3596
▁two	-7.36082
ers	-7.36331
▁any	-7.36626
▁because	-7.36988
u	-7.38144
▁know	-7.39042
▁If	-7.39321
▁used	-7.39594
▁she	-7.41387
▁K	-7.41819
▁us	-7.42169
D	-7.42429
ar	-7.4279
on	-7.43103
▁some	-7.4353
▁good	-7.43646
▁E	-7.43757
▁just	-7.43801
▁many	-7.43805
ll	-7.44027
▁For	-7.44039
▁years	-7.44733
▁F	-7.45999
▁these	-7.46764
en	-7.47257
ve	-7.47293
▁place	-7.47556
an	-7.49083
▁him	-7.49421
▁even	-7.50504
▁D	-7.50584
el	-7.50807
▁how	-7.50969
▁where	-7.51682
B	-7.52253
▁get	-7.52498
▁There	-7.53343
able	-7.54671
▁make	-7.54825
▁made	-7.55541
▁They	-7.55862
▁G	-7.56707
at	-7.56788
il	-7.58794
▁see	-7.59959
f	-7.60043
▁way	-7.60529
’	-7.60711
ity	-7.60783
A	-7.6081
),	-7.60996
▁M	-7.61143
ch	-7.61208
h	-7.61567
▁Re	-7.61916
▁take	-7.62175
▁then	-7.62386
▁p	-7.62645
ive	-7.63438
▁does	-7.64089
▁don	-7.64625
z	-7.64847
us	-7.65518
ur	-7.65532
▁much	-7.66458
et	-7.66763
▁need	-7.67196
▁did	-7.67203
▁So	-7.67544
▁year	-7.68207
▁system	-7.68229
▁go	-7.68422
M	-7.68523
P	-7.68903
▁part	-7.69528
▁want	-7.70184
▁day	-7.70245
ry	-7.70424
▁same	-7.70605
C	-7.70626
...	-7.7105
▁life	-7.71439
w	-7.72092
li	-7.72281
▁W	-7.72737
▁under	-7.73005
na	-7.73111
▁water	-7.73424
it	-7.74058
▁great	-7.75489
x	-7.7561
▁O	-7.75664
▁car	-7.76008
▁different	-7.76288
ment	-7.76432
▁long	-7.76528
▁But	-7.77135
▁To	-7.77619
▁un	-7.77905
▁end	-7.78273
▁high	-7.78549
F	-7.78725
▁right	-7.78935
▁T	-7.79528
▁could	-7.80555
I	-7.80638
▁back	-7.80658
E	-7.80718
%	-7.80916
ia	-7.81007
to	-7.81658
▁am	-7.81693
▁“	-7.81815
st	-7.82421
▁As	-7.82924
▁during	-7.83097
▁here	-7.83221
▁must	-7.83312
G	-7.83477
T	-7.8371
L	-7.83922
▁world	-7.84049
▁What	-7.8412
▁Polish	-7.84794
▁R	-7.86539
▁each	-7.87087
▁now	-7.87525
▁important	-7.88444
▁between	-7.88464
ka	-7.88704
▁case	-7.88768
▁/	-7.8896
▁information	-7.893
▁set	-7.89353
▁help	-7.90751
▁before	-7.90805
W	-7.91379
▁without	-7.91393
age	-7.91589
▁through	-7.91606
▁On	-7.92393
ate	-7.92498
la	-7.9252
ter	-7.93783
K	-7.93804
▁i	-7.94198
▁When	-7.94366
co	-7.94922
▁number	-7.95584
▁find	-7.95803
ce	-7.95953
ol	-7.96019
▁both	-7.96324
ne	-7.96581
▁order	-7.96647
▁...	-7.96958
ta	-7.97141
ness	-7.97434
▁best	-7.97492
▁e	-7.97561
▁own	-7.98505
ary	-7.98577
R	-7.98665
▁Poland	-7.99869
ent	-8.00173
▁still	-8.00293
ist	-8.0046
▁No	-8.00809
ma	-8.00888
▁hand	-8.01436
▁After	-8.01467
est	-8.02077
me	-8.02846
▁However	-8.0319
▁children	-8.03343
de	-8.04433
▁said	-8.0462
▁L	-8.04673
▁down	-8.04858
▁love	-8.04923
id	-8.05346
▁few	-8.05382
▁last	-8.05594
um	-8.05736
as	-8.05758
up	-8.05797
▁every	-8.06054
▁At	-8.06066
▁She	-8.06338
▁–	-8.073
▁too	-8.07447
▁H	-8.07669
▁company	-8.07898
ant	-8.08058
▁light	-8.08189
▁something	-8.09069
▁possible	-8.09224
H	-8.09515
▁think	-8.09554
▁those	-8.09882
N	-8.10017
ine	-8.10093
ni	-8.10162
▁De	-8.10557
▁example	-8.10596
▁lot	-8.1113
▁home	-8.11336
V	-8.11604
ty	-8.11834
▁data	-8.11846
te	-8.11881
▁small	-8.11983
▁three	-8.12368
▁free	-8.12718
▁c	-8.12912
▁Do	-8.13145
▁N	-8.13212
ro	-8.13265
se	-8.13394
ie	-8.1382
▁look	-8.13874
▁man	-8.13987
ir	-8.14271
O	-8.14353
▁while	-8.14402
▁using	-8.14539
▁come	-8.14842
▁off	-8.15722
▁already	-8.15805
is	-8.15904
ri	-8.16087
▁power	-8.16302
▁often	-8.16387
▁found	-8.17243
▁head	-8.17768
▁body	-8.1787
ra	-8.18345
ance	-8.18758
▁next	-8.18867
lo	-8.19218
▁form	-8.19228
ating	-8.1947
ge	-8.19494
▁always	-8.19617
▁available	-8.20173
ian	-8.20386
▁co	-8.20816
▁around	-8.21295
▁St	-8.21314
▁large	-8.2136
▁area	-8.21393
▁How	-8.22133
va	-8.22358
▁second	-8.22747
▁room	-8.23129
▁course	-8.23343
▁point	-8.23421
▁better	-8.23961
”	-8.24061
mo	-8.24226
ated	-8.24589
▁change	-8.24941
▁city	-8.24968
man	-8.25475
▁[	-8.25646
ul	-8.26581
▁game	-8.26724
▁fact	-8.26991
▁market	-8.28067
▁against	-8.28146
ting	-8.28325
ac	-8.28479
▁little	-8.28878
no	-8.2889
▁All	-8.29001
▁service	-8.29656
the	-8.29717
▁name	-8.29787
▁control	-8.30274
▁support	-8.30529
▁dis	-8.30542
ck	-8.30666
▁person	-8.30784
▁Z	-8.31037
▁An	-8.31053
▁m	-8.31159
▁another	-8.31388
▁family	-8.31887
▁play	-8.31899
▁school	-8.31973
▁V	-8.31993
▁design	-8.32031
▁really	-8.3252
▁group	-8.32876
▁con	-8.33005
▁result	-8.33153
▁start	-8.33304
▁f	-8.33498
am	-8.33502
▁amount	-8.33507
▁products	-8.34137
mi	-8.34619
▁several	-8.34973
]	-8.34986
im	-8.35345
▁Le	-8.35458
▁special	-8.35701
▁being	-8.3586
▁give	-8.35888
ga	-8.35975
▁pre	-8.3601
be	-8.36187
▁level	-8.36548
ut	-8.36938
ad	-8.36979
ke	-8.37426
▁process	-8.37479
▁took	-8.37487
ek	-8.37674
▁days	-8.37962
ies	-8.381
▁Ba	-8.38118
U	-8.38518
▁say	-8.38728
less	-8.39176
ak	-8.39229
▁ex	-8.39326
ow	-8.39477
da	-8.39629
▁account	-8.39818
▁above	-8.39863
ous	-8.40479
▁full	-8.40978
pa	-8.41302
v	-8.41701
▁short	-8.41842
▁product	-8.41921
▁again	-8.4204
▁Ma	-8.42213
▁problem	-8.42236
op	-8.42245
▁main	-8.42488
▁going	-8.42828
▁Co	-8.42938
▁color	-8.4305
▁J	-8.43294
▁care	-8.43936
▁PLN	-8.43987
▁period	-8.4439
▁type	-8.44427
▁until	-8.44492
▁hard	-8.44575
▁including	-8.44635
▁quality	-8.44805
▁development	-8.44838
▁pro	-8.4487
▁put	-8.45212
▁open	-8.45367
▁old	-8.45466
▁side	-8.45652
ci	-8.45759
▁di	-8.45794
".	-8.45803
▁feel	-8.46212
he	-8.46299
▁food	-8.46332
ism	-8.46346
▁show	-8.4659
▁post	-8.46691
▁able	-8.4708
Y	-8.47611
▁book	-8.47975
▁real	-8.48047
▁left	-8.48429
▁beautiful	-8.48447
▁never	-8.48466
wi	-8.48522
pe	-8.48641
▁air	-8.48779
ling	-8.48838
▁business	-8.48957
▁worth	-8.49756
▁child	-8.4992
▁following	-8.50157
▁due	-8.50387
ted	-8.50533
▁present	-8.50656
▁got	-8.50724
old	-8.51217
▁b	-8.51233
▁team	-8.51306
▁Be	-8.51331
▁U	-8.51418
go	-8.51892
▁view	-8.52639
▁position	-8.52668
▁st	-8.52926
▁why	-8.53579
▁today	-8.53621
ial	-8.53757
▁addition	-8.53764
▁These	-8.53922
▁per	-8.53996
▁value	-8.54105
tic	-8.54231
▁European	-8.54383
▁Ro	-8.54555
▁cannot	-8.55209
▁line	-8.55212
▁My	-8.55302
▁Ra	-8.55359
▁building	-8.55542
▁price	-8.55936
▁among	-8.56005
▁since	-8.5617
▁law	-8.56328
▁white	-8.56394
▁One	-8.56539
▁offer	-8.56567
▁project	-8.56718
▁God	-8.56786
j	-8.56866
▁read	-8.56878
tion	-8.56929
▁various	-8.57052
▁bit	-8.57118
▁everything	-8.57252
▁g	-8.57256
▁local	-8.57786
▁w	-8.57898
▁La	-8.57961
▁skin	-8.57993
▁house	-8.58074
▁away	-8.58225
▁Po	-8.58373
▁run	-8.58545
ba	-8.58758
ff	-8.58766
mb	-8.58817
▁ti	-8.59031
▁less	-8.59124
▁individual	-8.59184
▁let	-8.59197
▁services	-8.5928
ized	-8.59498
ite	-8.59501
ization	-8.59606
com	-8.59615
▁New	-8.59632
▁face	-8.59725
▁conditions	-8.59829
▁Mo	-8.59846
ki	-8.60013
ca	-8.6008
▁Con	-8.60384
▁That	-8.60591
▁Bo	-8.60644
▁together	-8.60784
pl	-8.60787
▁necessary	-8.60881
ill	-8.60992
▁means	-8.61222
▁With	-8.61397
ot	-8.61454
X	-8.61518
▁human	-8.61608
▁country	-8.61659
▁within	-8.61699
▁however	-8.6172
▁contact	-8.61768
Z	-8.61952
▁create	-8.61953
▁program	-8.62226
▁sure	-8.62419
▁difficult	-8.62581
▁Al	-8.62776
ko	-8.62778
▁times	-8.62942
ski	-8.63067
▁Li	-8.63177
▁working	-8.63214
nd	-8.63259
▁turn	-8.63382
▁hair	-8.63417
▁production	-8.63465
▁women	-8.63544
ally	-8.63713
▁experience	-8.63907
der	-8.63934
un	-8.63983
ure	-8.64112
and	-8.64195
▁whole	-8.64552
do	-8.65043
▁works	-8.65099
ice	-8.65371
▁pay	-8.65432
▁known	-8.65475
ny	-8.65569
▁young	-8.65708
▁provide	-8.65728
▁given	-8.65775
▁treatment	-8.6585
mon	-8.666
om	-8.66621
▁money	-8.66934
▁public	-8.67155
min	-8.67169
▁state	-8.67699
▁later	-8.67717
▁social	-8.67792
▁easy	-8.67854
▁X	-8.67926
▁called	-8.67934
▁situation	-8.6801
▁film	-8.6815
▁access	-8.68155
▁become	-8.68444
ha	-8.68596
▁natural	-8.69003
ti	-8.69131
▁live	-8.69251
▁Sa	-8.69251
▁far	-8.69779
▁material	-8.69861
tro	-8.70119
▁check	-8.70142
▁size	-8.70322
▁based	-8.70347
▁center	-8.70888
sh	-8.70922
▁moment	-8.71058
▁things	-8.71246
▁least	-8.7136
▁space	-8.71478
▁others	-8.71626
ful	-8.71864
ex	-8.71957
▁version	-8.72381
▁application	-8.72414
les	-8.72505
▁Me	-8.72563
▁activities	-8.72892
▁office	-8.72921
wa	-8.72949
ner	-8.73194
▁thing	-8.7327
▁minutes	-8.73396
rs	-8.7342
▁nice	-8.7345
lu	-8.73481
ence	-8.7355
▁results	-8.7363
▁Now	-8.73948
▁kind	-8.73994
di	-8.74036
▁health	-8.74047
▁hours	-8.74065
▁according	-8.7408
vi	-8.74378
▁keep	-8.74386
▁started	-8.74414
▁heart	-8.7467
▁someone	-8.74797
▁list	-8.7489
▁especially	-8.74943
▁Mi	-8.74994
▁front	-8.7504
bo	-8.75142
▁Warsaw	-8.75238
one	-8.7533
▁contract	-8.75453
ów	-8.75604
▁buy	-8.75618
▁&	-8.76002
▁road	-8.76182
▁came	-8.76189
▁art	-8.76198
▁model	-8.76282
▁oil	-8.7632
▁condition	-8.76766
que	-8.76817
▁black	-8.76973
▁field	-8.7698
▁energy	-8.77141
▁looking	-8.77199
▁didn	-8.77327
em	-8.77414
▁temperature	-8.77463
▁sp	-8.77608
ten	-8.77647
▁nothing	-8.77659
",	-8.77713
▁website	-8.77718
▁thought	-8.77765
▁modern	-8.77819
od	-8.77931
ton	-8.7799
▁related	-8.78338
▁non	-8.78384
▁low	-8.78409
▁device	-8.78475
bi	-8.78659
▁Ka	-8.78693
▁top	-8.78721
sk	-8.78929
▁subject	-8.78979
▁current	-8.79055
▁enough	-8.7918
▁try	-8.79234
ja	-8.79409
▁event	-8.79454
son	-8.79539
▁close	-8.79652
▁specific	-8.79655
▁tell	-8.79842
▁date	-8.79998
…	-8.80123
▁changes	-8.80132
cz	-8.80255
▁return	-8.80282
▁located	-8.80285
▁bar	-8.80476
▁add	-8.80648
mm	-8.80674
▁series	-8.80734
▁test	-8.8076
per	-8.80778
▁training	-8.80928
tra	-8.80964
▁quite	-8.81175
▁rest	-8.81253
▁effect	-8.81273
▁problems	-8.81309
▁night	-8.81479
▁choose	-8.81631
▁almost	-8.81713
▁range	-8.81817
▁Then	-8.81896
con	-8.81963
▁construction	-8.82159
▁Can	-8.82229
▁similar	-8.82306
▁question	-8.82469
ical	-8.82513
▁perfect	-8.82545
▁says	-8.82576
▁months	-8.82825
ile	-8.82945
gu	-8.8303
▁Art	-8.83063
▁music	-8.83115
▁won	-8.83388
▁four	-8.83395
▁risk	-8.83969
▁sub	-8.84013
▁clean	-8.84067
ster	-8.84172
▁woman	-8.8428
▁cover	-8.84396
▁tax	-8.84416
▁computer	-8.84742
ities	-8.84829
ft	-8.84858
▁key	-8.84885
▁once	-8.8492
▁everyone	-8.84931
▁increase	-8.85029
▁Ta	-8.85097
▁opinion	-8.85109
▁age	-8.85147
▁include	-8.85324
▁en	-8.85343
po	-8.85396
▁red	-8.85574
▁interesting	-8.85645
▁million	-8.85825
▁personal	-8.85879
▁Car	-8.85979
sa	-8.86316
▁Pa	-8.86361
dy	-8.86379
▁table	-8.86389
▁From	-8.86601
ub	-8.86737
▁taken	-8.86739
▁equipment	-8.87006
▁content	-8.87226
ide	-8.87267
▁comp	-8.87364
▁Dr	-8.87464
▁v	-8.87531
▁Our	-8.87643
ring	-8.87703
▁went	-8.87764
▁decision	-8.88038
ho	-8.88076
▁probably	-8.88093
▁la	-8.88124
ig	-8.88142
ru	-8.88159
▁professional	-8.88407
▁taking	-8.88463
▁entire	-8.88468
▁whether	-8.88489
▁performance	-8.88662
▁stay	-8.88691
ator	-8.88692
tor	-8.88713
ap	-8.8881
▁competition	-8.88826
▁inter	-8.89351
ish	-8.89526
J	-8.89632
▁completely	-8.89667
▁half	-8.89719
▁past	-8.89739
▁Wi	-8.89852
▁created	-8.89857
▁needs	-8.89893
▁card	-8.90263
▁idea	-8.90663
."	-8.90707
▁allows	-8.90754
▁rate	-8.90797
▁ca	-8.90797
▁thanks	-8.90833
▁text	-8.90921
▁Mar	-8.9105
ning	-8.91161
▁Ex	-8.91234
▁simple	-8.91273
▁basis	-8.91326
▁role	-8.91354
king	-8.91387
▁video	-8.91556
▁history	-8.916
▁makes	-8.91606
▁war	-8.91732
▁lower	-8.91771
▁fire	-8.91773
▁anything	-8.91844
ize	-8.91884
ł	-8.92027
▁method	-8.92094
▁meet	-8.92101
▁common	-8.92105
▁photo	-8.9216
▁Lo	-8.92178
▁allow	-8.9241
▁total	-8.9242
ium	-8.92569
▁Ja	-8.92599
▁future	-8.92623
side	-8.92689
▁ma	-8.92794
▁d	-8.92864
▁mother	-8.92946
▁screen	-8.92956
ible	-8.92959
oc	-8.92992
▁phone	-8.931
▁remember	-8.93175
line	-8.93496
▁break	-8.93526
▁network	-8.93537
year	-8.93821
▁land	-8.93828
▁solution	-8.93848
▁recommend	-8.94021
▁Ca	-8.9414
▁answer	-8.94217
▁Ha	-8.94302
▁season	-8.94365
▁stage	-8.9444
The	-8.9446
▁k	-8.9448
▁ago	-8.94656
▁cut	-8.94872
out	-8.94912
▁original	-8.94936
▁shall	-8.95019
▁Pro	-8.95162
▁fun	-8.95445
▁believe	-8.95455
▁companies	-8.95467
▁o	-8.95469
▁beginning	-8.95545
▁countries	-8.95648
▁students	-8.95677
▁share	-8.9569
▁German	-8.95799
▁Na	-8.95812
▁research	-8.95816
▁surface	-8.96177
▁court	-8.96337
▁making	-8.96431
▁provided	-8.96447
ph	-8.96518
▁May	-8.96529
▁turned	-8.96533
▁comes	-8.96542
▁quickly	-8.96614
▁anti	-8.96752
▁additional	-8.97037
ative	-8.97038
▁hotel	-8.97098
▁language	-8.97231
▁stop	-8.97398
▁act	-8.9744
▁Or	-8.97505
land	-8.97677
sz	-8.97768
▁call	-8.97795
mp	-8.9787
▁week	-8.9801
▁yourself	-8.98028
fo	-8.98044
▁men	-8.98079
mit	-8.98146
▁Ko	-8.98159
▁plant	-8.98246
▁knowledge	-8.98282
io	-8.983
▁blood	-8.98381
▁job	-8.98487
▁protection	-8.98518
▁War	-8.98522
vo	-8.98524
▁bring	-8.98552
▁etc	-8.98656
▁ba	-8.98691
za	-8.98767
▁cost	-8.98802
▁prevent	-8.98854
▁itself	-8.98932
▁Some	-8.98963
▁transport	-8.98983
▁Go	-8.9913
▁drive	-8.99198
▁near	-8.99258
▁visit	-8.99357
▁li	-8.99361
▁image	-8.99516
▁action	-8.99581
▁bad	-8.99633
▁along	-8.99766
lic	-9.00073
way	-9.0008
▁certain	-9.00185
>	-9.00229
▁further	-9.00301
▁hope	-9.00363
▁popular	-9.00486
▁eyes	-9.00537
we	-9.00639
os	-9.00889
▁travel	-9.00913
▁understand	-9.00987
▁longer	-9.01082
▁site	-9.01271
ab	-9.01534
▁legal	-9.01537
▁yet	-9.01576
▁done	-9.01762
▁author	-9.01771
▁connection	-9.01795
ina	-9.019
▁speed	-9.0194
▁door	-9.01957
▁single	-9.01981
▁built	-9.01985
▁During	-9.02074
ger	-9.02157
▁activity	-9.02174
▁received	-9.02212
ven	-9.02258
cre	-9.02281
▁national	-9.02511
▁button	-9.02525
▁By	-9.02536
▁third	-9.02629
▁costs	-9.02663
▁machine	-9.02664
▁soon	-9.02763
ip	-9.0312
▁heat	-9.03366
▁government	-9.03476
▁decided	-9.03491
▁fight	-9.03508
ep	-9.03571
▁style	-9.03604
▁floor	-9.03721
▁friends	-9.03727
▁big	-9.03746
▁im	-9.03792
▁death	-9.03971
ions	-9.03989
▁h	-9.04069
▁leave	-9.04121
▁general	-9.04213
lin	-9.04222
▁management	-9.04229
▁ensure	-9.04287
▁mind	-9.04288
▁function	-9.04351
▁press	-9.04371
▁mean	-9.04501
▁words	-9.04574
▁matter	-9.04574
▁TV	-9.04659
▁might	-9.04845
▁sun	-9.04959
▁store	-9.0513
▁write	-9.05388
▁usually	-9.0541
▁photos	-9.05419
ew	-9.05445
▁enjoy	-9.05481
act	-9.05491
▁meeting	-9.05571
▁mode	-9.05607
▁wall	-9.05754
▁Bi	-9.05976
▁engine	-9.06082
▁fl	-9.06088
wo	-9.06089
▁strong	-9.06166
▁Europe	-9.0634
▁clear	-9.06417
▁weight	-9.06475
ang	-9.06763
▁ground	-9.06765
▁report	-9.06885
▁doesn	-9.06895
▁himself	-9.06907
▁having	-9.06913
▁gas	-9.0705
▁station	-9.07084
▁address	-9.07133
▁vi	-9.07162
▁sound	-9.07174
ver	-9.07233
▁operation	-9.07244
pi	-9.07422
▁appropriate	-9.07443
▁cause	-9.07443
▁financial	-9.07502
▁became	-9.076
▁bank	-9.07806
▁pass	-9.07869
▁+	-9.07911
▁wanted	-9.07923
▁nature	-9.08041
ory	-9.08065
(	-9.08102
pro	-9.08139
▁doctor	-9.08173
▁elements	-9.08313
ors	-9.0841
▁file	-9.08426
▁materials	-9.08631
time	-9.08721
gen	-9.08745
▁talk	-9.08862
▁app	-9.08922
▁ask	-9.08993
▁move	-9.08995
▁girl	-9.09041
fa	-9.09086
ef	-9.09144
▁standard	-9.09157
ever	-9.09222
▁Fa	-9.09334
▁fall	-9.09438
▁:)	-9.09649
ze	-9.09764
ę	-9.09794
▁attention	-9.09926
ving	-9.0995
▁Not	-9.1002
▁Mr	-9.10077
ach	-9.10207
▁board	-9.10581
▁below	-9.10708
ug	-9.10769
▁learn	-9.10841
men	-9.10859
▁x	-9.10891
▁Free	-9.10931
▁po	-9.10991
ology	-9.1123
ps	-9.11294
▁select	-9.11416
qui	-9.11425
▁plan	-9.11525
▁offers	-9.11558
▁cross	-9.11605
ard	-9.11651
▁pressure	-9.11776
ec	-9.11899
by	-9.11954
▁reason	-9.12107
ag	-9.12165
owski	-9.12217
▁issue	-9.12248
▁wide	-9.12426
▁green	-9.12657
▁deal	-9.1267
▁class	-9.12694
mer	-9.12722
▁background	-9.13068
ual	-9.13085
ight	-9.13112
▁r	-9.13138
▁attack	-9.13269
▁required	-9.13326
▁Of	-9.1335
▁His	-9.13429
fi	-9.13483
▁advantage	-9.1349
yl	-9.13549
fin	-9.13664
▁Ne	-9.1395
▁safe	-9.14013
▁prepared	-9.14066
▁request	-9.14113
▁Wa	-9.1416
ron	-9.14275
▁story	-9.14429
▁region	-9.14462
▁parts	-9.14545
▁Pi	-9.14605
▁According	-9.14719
▁added	-9.14769
▁higher	-9.14779
▁please	-9.14933
▁dry	-9.15088
▁structure	-9.15112
▁although	-9.15219
air	-9.15268
ther	-9.15287
▁relationship	-9.15303
▁se	-9.15312
▁terms	-9.1539
▁living	-9.15721
▁began	-9.15937
br	-9.15973
▁economic	-9.16057
▁warm	-9.16077
▁trip	-9.16112
▁sea	-9.16179
▁interest	-9.16309
▁Therefore	-9.16382
▁sometimes	-9.16392
▁section	-9.16447
▁shape	-9.16496
▁environment	-9.16508
▁Vi	-9.16626
end	-9.16627
▁asked	-9.16635
▁themselves	-9.16674
▁location	-9.16684
▁century	-9.16763
▁Sp	-9.1677
nt	-9.16837
▁active	-9.1689
let	-9.16977
cy	-9.17057
▁online	-9.17114
▁km	-9.1743
▁therefore	-9.17451
▁Thanks	-9.17485
bu	-9.17851
▁Let	-9.17852
▁town	-9.17858
▁Stock	-9.18003
▁study	-9.18017
▁page	-9.1808
▁thousand	-9.1812
▁presented	-9.18132
▁types	-9.18211
ens	-9.18303
▁National	-9.18327
▁shows	-9.18413
▁final	-9.18448
▁mm	-9.18505
ud	-9.18724
▁included	-9.18727
▁University	-9.18734
ging	-9.18777
▁unique	-9.18877
▁Well	-9.18882
gi	-9.18906
set	-9.19014
▁mo	-9.19254
▁unit	-9.19412
▁base	-9.1945
▁paper	-9.19531
▁EU	-9.19573
▁practice	-9.19578
▁Bu	-9.19664
▁complete	-9.19704
▁particular	-9.19707
▁eat	-9.19719
▁areas	-9.19725
▁apartment	-9.19799
▁party	-9.198
▁eye	-9.19815
hi	-9.19898
▁brand	-9.20044
ments	-9.20125
▁outside	-9.20138
▁self	-9.2026
sion	-9.2028
▁World	-9.20624
ON	-9.20706
▁display	-9.20716
▁systems	-9.20965
▁cr	-9.20966
▁property	-9.21035
▁step	-9.21072
▁damage	-9.21082
tu	-9.21131
▁games	-9.21174
▁train	-9.21256
ious	-9.21362
▁parents	-9.21411
▁includes	-9.21514
tle	-9.21561
▁takes	-9.21651
▁Act	-9.21747
che	-9.21826
▁Y	-9.21893
▁events	-9.21898
▁considered	-9.21954
▁receive	-9.21997
▁investment	-9.22012
tain	-9.22034
▁watch	-9.22049
▁points	-9.22108
▁enter	-9.22142
▁link	-9.22152
▁inside	-9.2229
▁dark	-9.22293
▁ten	-9.22443
▁disease	-9.22503
▁match	-9.2251
▁user	-9.22589
ship	-9.2274
ability	-9.22825
▁ra	-9.22853
for	-9.22912
▁cases	-9.22967
▁happy	-9.23048
▁success	-9.23082
▁five	-9.23208
▁English	-9.23288
▁bi	-9.23291
▁First	-9.23311
red	-9.2332
▁States	-9.23336
▁search	-9.23456
▁Sta	-9.23477
▁protect	-9.23642
▁Please	-9.23656
▁seen	-9.23689
▁character	-9.23874
▁sense	-9.2388
▁sh	-9.23952
▁selected	-9.23961
ER	-9.23968
our	-9.24101
▁*	-9.24325
▁dream	-9.24498
▁media	-9.24516
▁path	-9.24526
▁Just	-9.24559
▁official	-9.24571
▁article	-9.24579
▁Su	-9.24603
▁j	-9.24712
▁held	-9.24735
▁designed	-9.24737
▁true	-9.2479
gg	-9.24868
▁American	-9.24894
▁carried	-9.24898
▁Di	-9.24911
▁l	-9.25009
▁sc	-9.25034
▁looks	-9.25078
▁develop	-9.25108
▁technology	-9.25337
▁anyone	-9.25472
▁devices	-9.25665
▁word	-9.25677
▁month	-9.257
val	-9.25841
▁hands	-9.25856
▁appear	-9.25976
▁Court	-9.26114
▁early	-9.26117
▁choice	-9.26123
▁sign	-9.26194
▁features	-9.2624
▁Photo	-9.26343
▁box	-9.265
▁collection	-9.26538
▁glass	-9.26545
▁saw	-9.26555
▁deep	-9.26585
▁Se	-9.26606
fe	-9.26625
sis	-9.26733
▁effects	-9.26818
ler	-9.26953
▁blue	-9.27042
▁hot	-9.27075
▁industry	-9.27183
tan	-9.27269
_	-9.27287
▁metal	-9.27304
▁pain	-9.27308
▁respect	-9.27441
uch	-9.27545
▁hit	-9.27711
▁cm	-9.27753
▁#	-9.27764
ż	-9.27845
▁members	-9.2787
▁multi	-9.28074
▁changed	-9.28152
▁easily	-9.28317
▁Here	-9.28331
▁star	-9.2835
▁myself	-9.2843
▁approach	-9.28508
▁church	-9.28522
▁movie	-9.28523
str	-9.28533
▁effective	-9.28561
ES	-9.28733
▁load	-9.2884
▁Fi	-9.2885
▁getting	-9.2892
▁title	-9.29125
▁picture	-9.29154
▁II	-9.29293
▁reduce	-9.29465
▁Only	-9.29528
▁avoid	-9.29542
▁immediately	-9.29596
▁lead	-9.29643
▁doing	-9.29714
▁imp	-9.29781
................	-9.29836
ction	-9.2984
▁payment	-9.29877
▁lack	-9.29946
▁safety	-9.30003
ber	-9.30169
▁camera	-9.30313
▁source	-9.30451
ell	-9.30484
▁lost	-9.30517
▁record	-9.30592
▁option	-9.30673
▁separate	-9.30741
▁education	-9.30767
ska	-9.30775
▁either	-9.30809
gra	-9.30975
▁rules	-9.30982
▁En	-9.31147
▁charge	-9.31184
▁rooms	-9.31235
▁Christmas	-9.3132
hy	-9.31456
▁security	-9.31546
aw	-9.31635
▁Even	-9.31704
▁code	-9.3173
▁wait	-9.31744
▁colors	-9.31793
lar	-9.32019
▁else	-9.32062
▁players	-9.32125
▁Du	-9.32264
▁fast	-9.32294
▁patients	-9.32324
▁towards	-9.32439
ified	-9.3248
ok	-9.32514
▁chance	-9.32529
▁Pre	-9.32549
▁installation	-9.32585
▁behind	-9.32586
▁restaurant	-9.32621
▁maybe	-9.32627
▁Your	-9.32685
ise	-9.32746
IN	-9.32752
▁six	-9.32775
use	-9.32786
▁acid	-9.32792
▁cat	-9.32857
▁director	-9.32936
▁apply	-9.33088
au	-9.33162
▁son	-9.33168
▁switch	-9.33175
▁gave	-9.33284
▁improve	-9.33307
tter	-9.33402
lan	-9.33452
▁ho	-9.33501
▁Internet	-9.33529
▁private	-9.33592
▁though	-9.33667
▁limit	-9.33695
▁Each	-9.33704
row	-9.33771
▁US	-9.33799
▁achieve	-9.33808
▁September	-9.33808
▁father	-9.3383
▁friend	-9.33892
▁mar	-9.33936
▁Ar	-9.33976
▁route	-9.34016
▁international	-9.34096
▁du	-9.34135
▁basic	-9.34152
tri	-9.34182
▁customers	-9.34323
so	-9.34527
▁fruit	-9.34552
▁Ad	-9.34596
▁places	-9.34616
nic	-9.34639
cent	-9.34811
▁Because	-9.34933
▁Dis	-9.34981
eg	-9.35018
▁seat	-9.35127
▁•	-9.3513
▁garden	-9.35276
▁directly	-9.35287
▁rule	-9.35304
▁dress	-9.35328
▁figure	-9.35352
▁Most	-9.35428
▁June	-9.35445
led	-9.35466
iv	-9.35493
▁Member	-9.35495
EC	-9.35569
▁performed	-9.35596
ple	-9.35606
▁summer	-9.35708
AR	-9.35738
▁High	-9.35744
▁cool	-9.35799
▁rather	-9.35811
▁correct	-9.35818
▁demand	-9.35857
▁band	-9.35896
▁played	-9.35935
ris	-9.35958
▁walk	-9.36105
light	-9.36129
nia	-9.36153
▁ready	-9.36292
▁em	-9.36345
board	-9.36353
▁baby	-9.36419
▁Center	-9.36548
▁stock	-9.36653
▁cha	-9.36741
▁previous	-9.36796
▁needed	-9.36845
▁influence	-9.36853
zy	-9.36932
AL	-9.3695
▁positive	-9.37134
ations	-9.37177
ue	-9.37178
▁running	-9.37192
▁sleep	-9.37217
▁trans	-9.37224
if	-9.37308
▁club	-9.37354
▁count	-9.37363
▁ha	-9.37365
▁Da	-9.37473
▁click	-9.37476
▁touch	-9.37484
▁Th	-9.37497
▁na	-9.37517
▁Today	-9.37569
ists	-9.37611
▁Commission	-9.37674
▁sent	-9.37675
▁fa	-9.37698
▁technical	-9.3784
▁feeling	-9.37861
si	-9.37965
▁kitchen	-9.37982
av	-9.38039
▁continue	-9.38113
▁concept	-9.38138
▁build	-9.38138
▁Council	-9.38202
▁drink	-9.38222
▁Jo	-9.38229
▁track	-9.38267
ło	-9.38272
▁gift	-9.38294
▁purchase	-9.38405
of	-9.38571
ification	-9.38737
▁police	-9.38916
▁Gra	-9.38939
uff	-9.38984
▁affect	-9.39035
▁gives	-9.39187
▁extremely	-9.39199
▁ever	-9.39259
AN	-9.39285
▁host	-9.39335
ea	-9.3946
▁requirements	-9.39491
ng	-9.39568
▁August	-9.39581
▁Such	-9.3972
▁School	-9.39744
▁users	-9.39822
▁cap	-9.39834
mor	-9.39883
▁Great	-9.40106
▁seems	-9.40115
▁provides	-9.40144
▁culture	-9.40287
ct	-9.40297
▁spend	-9.40355
▁mainly	-9.40428
▁Ch	-9.40472
tin	-9.40473
▁transfer	-9.40512
▁distance	-9.40618
▁mu	-9.40692
▁length	-9.40772
▁Ti	-9.40775
▁potential	-9.40943
port	-9.40953
▁window	-9.41043
▁force	-9.41078
▁Un	-9.41158
▁opportunity	-9.41164
ee	-9.41171
▁authorities	-9.41174
▁follow	-9.41187
▁questions	-9.41201
▁movement	-9.4128
▁fine	-9.41403
▁flow	-9.41411
▁Jan	-9.41428
▁employees	-9.41529
ier	-9.4166
ą	-9.41742
▁complex	-9.41746
▁bed	-9.41785
▁agreement	-9.41792
▁significant	-9.41803
▁average	-9.42025
nu	-9.42102
▁March	-9.42284
▁perform	-9.42437
▁Man	-9.42464
▁send	-9.4249
▁capital	-9.42521
▁Don	-9.42523
▁com	-9.4254
▁ball	-9.42611
▁cable	-9.4277
res	-9.42782
▁Why	-9.42794
▁normal	-9.42876
▁shop	-9.42884
▁via	-9.42929
▁exercise	-9.42948
▁$	-9.42955
▁soft	-9.42987
ose	-9.42989
▁guarantee	-9.42992
é	-9.43042
▁operating	-9.43151
▁trade	-9.43152
▁taste	-9.43191
▁increased	-9.43192
▁president	-9.43208
▁goal	-9.43316
▁direction	-9.43424
ric	-9.4347
ries	-9.4354
▁solutions	-9.43631
▁State	-9.43657
▁responsible	-9.43674
▁winter	-9.43726
par	-9.43857
▁cold	-9.43898
▁actually	-9.43905
▁looked	-9.43917
▁Ho	-9.43988
mail	-9.43994
tel	-9.44033
▁fit	-9.44127
▁famous	-9.44142
▁associated	-9.44147
▁Union	-9.4426
cu	-9.44456
▁focus	-9.44547
▁Com	-9.44572
pp	-9.4458
serv	-9.44591
▁purpose	-9.44763
▁Si	-9.44806
▁simply	-9.44827
▁super	-9.44867
▁sports	-9.44905
▁December	-9.45007
▁pictures	-9.45059
▁former	-9.451
▁topic	-9.45119
▁layer	-9.45125
▁shown	-9.4513
▁village	-9.45148
fer	-9.45208
▁supply	-9.45261
▁fully	-9.45312
,"	-9.45355
▁document	-9.45422
▁pattern	-9.45506
▁member	-9.45569
▁vehicle	-9.45705
▁dog	-9.45831
▁groups	-9.4586
▁Set	-9.45938
▁Bar	-9.45987
▁remove	-9.46042
▁Ni	-9.46063
▁stand	-9.46158
▁round	-9.46163
▁finally	-9.46166
▁morning	-9.46175
▁ship	-9.46235
–	-9.46242
▁element	-9.46282
ix	-9.46372
▁Russian	-9.46373
▁frame	-9.46387
▁reach	-9.46413
▁physical	-9.46415
▁October	-9.46506
▁established	-9.46535
izing	-9.46644
▁staff	-9.46721
▁Office	-9.46762
▁cooperation	-9.46787
cycl	-9.4681
▁developed	-9.46916
▁wrote	-9.46982
▁weeks	-9.47092
hu	-9.47144
▁bag	-9.47149
▁direct	-9.47155
▁Ga	-9.47186
own	-9.47234
▁sale	-9.4725
▁steel	-9.47328
▁implementation	-9.47332
▁Are	-9.47405
car	-9.47406
▁political	-9.4753
▁mass	-9.47558
▁save	-9.47563
▁details	-9.47564
art	-9.47639
called	-9.47641
▁hospital	-9.47657
pt	-9.47715
ped	-9.47861
▁bus	-9.47958
▁Also	-9.47988
vent	-9.48001
▁burn	-9.48032
▁procedure	-9.48116
▁claim	-9.48235
▁strength	-9.48276
▁Ju	-9.48337
lit	-9.48401
▁review	-9.48413
▁block	-9.48414
▁met	-9.48477
▁late	-9.48492
▁Unfortunately	-9.48589
ration	-9.48631
▁happened	-9.487
▁impact	-9.48755
▁interested	-9.48763
▁Fr	-9.48785
▁told	-9.48798
▁wood	-9.48859
▁wrong	-9.48933
▁secret	-9.48981
▁Germany	-9.4907
▁fish	-9.49104
RE	-9.49129
ob	-9.49149
▁Her	-9.49161
▁January	-9.49162
▁slightly	-9.49176
▁fresh	-9.49345
ably	-9.49404
ult	-9.49405
▁covered	-9.49421
ik	-9.49604
▁forest	-9.49607
form	-9.49771
▁Za	-9.49801
▁manufacturer	-9.49826
work	-9.4986
▁port	-9.49986
▁patient	-9.50011
▁April	-9.50166
▁loan	-9.50224
▁described	-9.50252
▁written	-9.50449
▁speak	-9.505
van	-9.50602
▁preparation	-9.50642
tre	-9.50751
▁November	-9.50768
▁born	-9.508
▁organization	-9.50815
▁cur	-9.50828
▁traditional	-9.50845
▁interior	-9.50874
spect	-9.50912
▁connected	-9.50948
▁felt	-9.51004
▁United	-9.51037
▁placed	-9.51088
ery	-9.51199
▁Church	-9.51235
istic	-9.5124
▁reading	-9.5127
▁diet	-9.51302
▁possibility	-9.51577
▁Lu	-9.51589
▁Another	-9.51595
ear	-9.51598
▁pe	-9.51647
▁foreign	-9.51717
▁=	-9.51875
▁farm	-9.51993
▁currently	-9.52132
▁fat	-9.52217
▁comfortable	-9.52243
▁motor	-9.52287
▁consider	-9.52438
▁heard	-9.52485
ey	-9.52508
den	-9.52577
▁communication	-9.5263
cal	-9.52679
ants	-9.52749
▁exchange	-9.52776
EN	-9.52811
▁waiting	-9.52857
▁tried	-9.52878
▁suggest	-9.52908
▁pan	-9.5303
▁highest	-9.53045
▁software	-9.53062
ins	-9.53101
▁cream	-9.53138
▁wheel	-9.53195
▁player	-9.53215
▁equipped	-9.53253
▁enable	-9.53301
tur	-9.53384
▁Who	-9.53396
▁medical	-9.53428
▁panel	-9.53503
▁huge	-9.53504
▁signal	-9.53529
▁Ku	-9.53565
ture	-9.53576
▁Maybe	-9.53603
▁recommended	-9.53613
ase	-9.53616
east	-9.53705
▁paid	-9.53876
ign	-9.53897
▁maximum	-9.53984
▁studies	-9.53996
▁El	-9.54001
▁daily	-9.54015
▁accept	-9.54075
▁More	-9.54172
▁excellent	-9.542
ai	-9.54396
uk	-9.54402
lay	-9.54405
▁sex	-9.54533
▁Col	-9.54548
ping	-9.54561
ition	-9.54727
▁President	-9.54814
ient	-9.54909
LE	-9.54914
▁memory	-9.54957
▁suit	-9.54991
rap	-9.55
▁methods	-9.55011
▁prices	-9.55068
▁meters	-9.55075
▁July	-9.55115
▁draw	-9.55136
▁Service	-9.55219
▁App	-9.55229
lf	-9.55285
▁French	-9.55287
▁City	-9.55361
▁plate	-9.55386
▁pick	-9.554
ld	-9.5546
▁conduct	-9.55536
▁item	-9.55644
▁coming	-9.55663
ov	-9.55677
▁items	-9.55753
rze	-9.55756
▁n	-9.5581
▁su	-9.5582
▁loss	-9.55839
▁symbol	-9.5596
▁term	-9.56056
▁wonder	-9.5606
▁joint	-9.56076
▁customer	-9.5612
lip	-9.56199
▁beach	-9.56306
PS	-9.56373
▁statement	-9.56439
▁Je	-9.5644
▁flat	-9.56497
▁ob	-9.56505
▁—	-9.56511
▁wish	-9.56546
dic	-9.56561
▁pump	-9.56594
▁voice	-9.56685
mun	-9.56695
▁boy	-9.5672
▁caused	-9.56744
▁Many	-9.5678
▁properties	-9.56815
▁ul	-9.56845
▁spring	-9.56869
▁fi	-9.5692
▁park	-9.57001
ological	-9.57031
ble	-9.57107
▁issues	-9.57131
OS	-9.57147
ash	-9.57371
▁favorite	-9.57379
▁map	-9.57686
▁cell	-9.57695
▁Use	-9.57732
▁Cor	-9.5775
▁bo	-9.57766
▁battery	-9.57805
▁connect	-9.58013
▁feature	-9.58052
▁menu	-9.58145
▁thus	-9.5815
▁appearance	-9.58152
▁profile	-9.58231
her	-9.58254
▁message	-9.58306
▁guide	-9.58342
rk	-9.58384
▁Ri	-9.58424
▁wife	-9.58494
▁Fe	-9.58634
▁starting	-9.58641
kin	-9.58666
ward	-9.58782
▁decide	-9.5902
sta	-9.5902
▁organized	-9.59026
▁Add	-9.59049
▁difference	-9.59101
▁daughter	-9.59128
▁album	-9.59147
oo	-9.59189
cle	-9.59263
▁appeared	-9.59266
▁mark	-9.59282
▁limited	-9.59307
▁accident	-9.59318
ev	-9.59451
▁task	-9.59472
▁community	-9.59492
▁plastic	-9.59494
▁trying	-9.59667
▁wind	-9.59694
sp	-9.59747
tal	-9.59769
▁playing	-9.59786
▁Where	-9.59826
▁object	-9.59837
▁Although	-9.59857
cer	-9.59938
ular	-9.59939
▁Windows	-9.59995
▁hour	-9.6004
▁skills	-9.60059
▁files	-9.60216
▁serious	-9.60216
▁Per	-9.60234
▁>	-9.60239
▁models	-9.60327
▁internal	-9.60331
▁accordance	-9.60402
▁plants	-9.60412
▁Two	-9.60518
nal	-9.60586
▁definitely	-9.60731
ła	-9.60762
▁custom	-9.60766
▁gr	-9.60796
▁largest	-9.60809
▁expect	-9.60814
▁whose	-9.60837
press	-9.60892
▁behavior	-9.60916
▁atmosphere	-9.61022
▁People	-9.61035
vel	-9.61037
day	-9.611
▁owner	-9.61313
▁General	-9.61343
tru	-9.61362
▁Since	-9.61388
▁filter	-9.61413
ane	-9.61529
▁hold	-9.61583
▁suitable	-9.61656
▁package	-9.61684
▁scene	-9.61763
▁across	-9.61847
▁Republic	-9.61866
▁THE	-9.61985
og	-9.61995
▁combination	-9.62059
▁collect	-9.6207
▁error	-9.62247
▁animals	-9.62265
▁hear	-9.62346
meter	-9.62433
cur	-9.62465
▁bottom	-9.62528
▁Group	-9.62578
▁Work	-9.62583
▁recently	-9.62655
▁handle	-9.62659
▁couple	-9.62724
▁happen	-9.62728
ino	-9.62816
OR	-9.62874
▁volume	-9.62919
▁coffee	-9.62939
▁install	-9.63012
▁analysis	-9.6302
▁min	-9.63023
▁log	-9.6304
bor	-9.63056
▁download	-9.63147
ING	-9.63177
▁died	-9.63204
ana	-9.63213
▁projects	-9.63225
ran	-9.63351
▁policy	-9.63365
▁driving	-9.63467
▁poor	-9.63481
▁double	-9.63528
▁Article	-9.63582
▁Jesus	-9.63584
▁belong	-9.63702
▁lose	-9.63735
▁drop	-9.63801
▁wedding	-9.63828
▁closed	-9.63834
▁external	-9.63854
▁evening	-9.63898
chi	-9.63922
room	-9.64034
▁obtained	-9.64046
▁depends	-9.64088
▁growth	-9.6419
▁goes	-9.6427
low	-9.64411
▁Black	-9.6445
ick	-9.64478
▁easier	-9.64523
▁contains	-9.64599
▁led	-9.64627
▁hundred	-9.64653
▁capacity	-9.64736
▁perfectly	-9.64781
▁published	-9.64795
▁smooth	-9.64804
▁allowed	-9.64876
▁values	-9.64882
py	-9.64885
▁classic	-9.64904
▁Qu	-9.64909
▁liquid	-9.64976
▁brought	-9.65031
▁treat	-9.65037
rz	-9.65073
▁Gu	-9.65097
▁See	-9.65217
▁increasing	-9.65245
▁provisions	-9.65284
▁finish	-9.65337
▁Pe	-9.65409
▁obtain	-9.65455
▁|	-9.65481
▁books	-9.65672
▁applications	-9.65757
▁Hu	-9.65794
ole	-9.65845
▁maintain	-9.65854
▁documents	-9.65913
▁rock	-9.65926
▁reasons	-9.65948
nes	-9.65989
▁mentioned	-9.66013
▁writing	-9.66084
▁Ru	-9.66092
▁height	-9.6613
pir	-9.66157
▁fear	-9.66194
▁mix	-9.66209
▁grow	-9.66221
ś	-9.66304
▁greater	-9.66349
▁healthy	-9.66359
rd	-9.66408
AT	-9.66421
▁[...]	-9.66495
▁balance	-9.66503
▁para	-9.66751
▁commune	-9.6681
▁Day	-9.6683
▁Sea	-9.66878
▁Pol	-9.66901
▁released	-9.66907
▁ability	-9.66947
rzy	-9.66965
▁driver	-9.66981
▁painting	-9.66987
▁pool	-9.66987
▁creating	-9.67015
+	-9.67019
▁promotion	-9.67084
▁percent	-9.67103
▁rich	-9.67125
▁bathroom	-9.67187
▁setting	-9.67223
▁foot	-9.67252
▁brother	-9.67274
▁fell	-9.673
▁win	-9.67335
ax	-9.67418
tar	-9.6751
oid	-9.67584
▁camp	-9.67651
▁refer	-9.67688
▁lives	-9.67782
▁Good	-9.67882
und	-9.67884
lies	-9.67887
bar	-9.67889
rit	-9.68005
▁micro	-9.68016
▁weather	-9.68031
▁guy	-9.68037
▁rights	-9.6815
▁John	-9.68258
▁alone	-9.68279
▁tree	-9.6828
▁tra	-9.68401
▁tool	-9.68405
bro	-9.68429
gro	-9.68472
▁useful	-9.68496
▁worked	-9.68539
▁sweet	-9.68543
▁stone	-9.68557
▁composition	-9.68662
▁extra	-9.6873
▁electronic	-9.68781
▁fuel	-9.68958
rate	-9.68971
▁mobile	-9.69039
ław	-9.69155
▁paint	-9.6922
▁buildings	-9.6932
nch	-9.6933
▁opening	-9.69591
len	-9.69601
▁Yes	-9.69607
▁cons	-9.69608
▁Tra	-9.69609
▁comfort	-9.69624
▁cor	-9.69785
az	-9.69817
pre	-9.69829
▁Inter	-9.69848
ray	-9.69874
▁Will	-9.69887
▁levels	-9.69901
▁actions	-9.69954
▁lock	-9.70005
▁leader	-9.70065
▁applied	-9.70067
▁exist	-9.7009
vers	-9.70124
ham	-9.70132
▁Before	-9.70132
ica	-9.70133
▁cars	-9.70173
▁breath	-9.7019
▁require	-9.70224
uc	-9.70226
▁notice	-9.70262
▁ne	-9.70299
ify	-9.70331
▁whom	-9.70373
▁command	-9.70409
▁serve	-9.70474
▁meaning	-9.70495
des	-9.70545
nk	-9.70861
▁requires	-9.70902
lig	-9.70924
▁Bra	-9.70926
▁reaction	-9.70935
▁letter	-9.70955
ged	-9.70956
US	-9.70967
▁instead	-9.70998
▁tools	-9.71017
▁threat	-9.71066
▁release	-9.71102
▁referred	-9.71112
▁song	-9.71136
▁indicate	-9.71181
▁channel	-9.7121
ost	-9.71262
▁major	-9.71293
▁prepare	-9.71353
▁hall	-9.71413
bra	-9.71465
▁radio	-9.71471
▁options	-9.71473
▁waste	-9.71506
cul	-9.71585
free	-9.71602
▁stress	-9.71631
▁cells	-9.71641
sur	-9.71724
ned	-9.71933
▁horse	-9.71963
▁knew	-9.71976
▁Hotel	-9.72005
▁hi	-9.72047
nik	-9.72296
cor	-9.72313
▁Mu	-9.72326
vol	-9.72331
▁military	-9.72389
▁While	-9.72456
du	-9.72499
▁challenge	-9.72515
▁listen	-9.72604
▁latest	-9.72719
rus	-9.72809
▁husband	-9.72843
bin	-9.72849
rot	-9.72874
▁prove	-9.73065
▁determine	-9.73144
ches	-9.73205
▁talking	-9.73207
▁estate	-9.73246
▁participants	-9.73271
▁rid	-9.73285
▁sales	-9.73363
iński	-9.73365
ates	-9.73384
atch	-9.73423
ets	-9.73482
▁OF	-9.73538
bb	-9.73541
▁Other	-9.73541
▁independent	-9.73547
mar	-9.73642
▁Park	-9.737
▁wear	-9.73723
▁server	-9.7377
▁units	-9.73771
▁sa	-9.73819
▁walls	-9.73857
▁goods	-9.73943
▁gain	-9.73949
▁contain	-9.73954
▁repair	-9.74004
zi	-9.74086
▁credit	-9.74087
▁Home	-9.74096
▁salt	-9.74121
▁exactly	-9.74136
▁installed	-9.7415
▁rain	-9.74268
▁Minister	-9.74269
▁presence	-9.74292
▁border	-9.74321
dzi	-9.74371
▁regulations	-9.74377
▁kill	-9.74393
can	-9.74398
▁guests	-9.74401
▁Christ	-9.74413
▁Krakow	-9.74501
lk	-9.74574
▁benefits	-9.74684
▁earn	-9.74701
ET	-9.74759
ung	-9.74804
nce	-9.74806
▁evidence	-9.74866
duc	-9.74867
▁Pu	-9.7488
over	-9.74919
ack	-9.74936
▁Te	-9.75037
▁occasion	-9.75094
dle	-9.75143
▁negative	-9.75148
ya	-9.75196
ctor	-9.7527
▁supposed	-9.75307
▁solid	-9.75349
▁Law	-9.75386
bal	-9.75401
▁leaves	-9.75492
▁obligation	-9.75499
▁piece	-9.75513
▁involved	-9.75529
▁street	-9.75572
IC	-9.75587
▁girls	-9.75665
▁income	-9.75689
▁clearly	-9.75936
hen	-9.75943
▁bought	-9.75956
▁seem	-9.76118
▁<	-9.76121
▁Hi	-9.76152
pri	-9.76233
▁invite	-9.76268
▁chi	-9.7631
▁produce	-9.76509
▁pen	-9.76511
▁Sz	-9.76527
ound	-9.76625
▁selection	-9.76679
ically	-9.76702
gar	-9.76723
▁alcohol	-9.76745
night	-9.76748
▁managed	-9.76749
▁classes	-9.76782
▁forward	-9.76792
▁functions	-9.76881
▁leg	-9.76931
▁fee	-9.76934
ink	-9.77035
▁settings	-9.77048
▁variety	-9.77071
▁commercial	-9.77087
▁February	-9.77095
ED	-9.77147
▁description	-9.7718
kowski	-9.77195
▁student	-9.77235
▁quick	-9.77324
ake	-9.77432
ding	-9.77471
right	-9.77505
▁amazing	-9.77515
top	-9.7756
▁adjust	-9.77593
▁attempt	-9.77658
▁ear	-9.77678
▁thank	-9.77782
▁fans	-9.77866
▁sta	-9.77871
har	-9.77934
▁announced	-9.77972
▁intended	-9.77976
▁learning	-9.78008
lia	-9.78054
rt	-9.78105
▁middle	-9.78108
mic	-9.78152
▁wants	-9.78184
▁Ki	-9.7822
▁parties	-9.78346
▁pack	-9.78408
▁Sha	-9.78416
▁exceed	-9.78512
▁authority	-9.78563
▁inform	-9.78604
IT	-9.78635
▁Air	-9.78695
▁lo	-9.78707
▁turns	-9.78733
gram	-9.78767
▁agree	-9.78769
ement	-9.78838
unt	-9.78852
▁ta	-9.78889
▁roof	-9.78899
▁truth	-9.78948
▁sensor	-9.79033
▁central	-9.7906
▁roll	-9.79205
ties	-9.7921
▁gold	-9.79252
▁leading	-9.79275
▁Street	-9.79287
▁Note	-9.79315
▁becomes	-9.79336
▁wash	-9.79425
▁Every	-9.79471
chan	-9.79566
▁produced	-9.79588
▁milk	-9.79682
▁flowers	-9.79727
▁miss	-9.79864
▁species	-9.79911
pped	-9.8003
term	-9.80051
ans	-9.80063
▁bright	-9.80186
bl	-9.80216
▁furniture	-9.8022
bel	-9.80252
▁remain	-9.80294
▁spot	-9.80338
▁square	-9.8034
▁Russia	-9.80375
▁tu	-9.80461
part	-9.80482
▁sector	-9.80592
▁electric	-9.806
▁certainly	-9.80617
not	-9.80643
▁earlier	-9.80678
ming	-9.80692
▁symptoms	-9.80703
▁comment	-9.80718
▁stick	-9.80781
▁wonderful	-9.80826
▁mid	-9.8089
▁resolution	-9.80912
graph	-9.81072
ń	-9.81151
▁target	-9.81187
box	-9.81211
▁finger	-9.81222
war	-9.81258
▁ones	-9.81265
▁spread	-9.81295
▁traffic	-9.81357
▁PC	-9.81359
▁arm	-9.81401
cha	-9.81442
▁forms	-9.81459
▁platform	-9.8147
▁pretty	-9.81471
▁Red	-9.81515
▁purposes	-9.81521
▁dance	-9.81552
ó	-9.81556
▁doubt	-9.81578
▁ring	-9.81588
IS	-9.81615
▁giving	-9.81625
lon	-9.81656
▁master	-9.8169
▁properly	-9.81699
▁meat	-9.81746
▁scale	-9.81842
▁straight	-9.81901
ib	-9.81928
▁regard	-9.81959
▁corner	-9.81969
▁manual	-9.82024
▁seven	-9.8209
pic	-9.82126
▁Lord	-9.82179
zo	-9.82188
▁failure	-9.82197
▁fan	-9.82298
▁tank	-9.82299
▁completed	-9.823
▁cup	-9.82317
▁measures	-9.82442
▁throughout	-9.82447
▁vote	-9.82456
▁expected	-9.82488
▁tasks	-9.82497
▁trust	-9.82501
▁Roman	-9.82584
eu	-9.8259
matic	-9.82606
▁appeal	-9.82614
▁tri	-9.82713
▁ideal	-9.82736
▁funds	-9.82785
▁budget	-9.82876
▁resistance	-9.82885
.”	-9.83034
mber	-9.83042
▁fe	-9.83077
▁print	-9.83103
▁Tri	-9.83206
▁cho	-9.83229
▁proper	-9.83233
▁smile	-9.833
ral	-9.8331
ren	-9.83365
▁China	-9.83424
gue	-9.8349
▁edge	-9.83494
▁regular	-9.83546
▁Star	-9.83549
▁lamp	-9.83553
▁consists	-9.83555
OL	-9.83598
▁causes	-9.836
▁ver	-9.83729
▁sum	-9.83757
▁numerous	-9.83811
▁larger	-9.83818
▁population	-9.83848
▁feed	-9.83851
▁components	-9.83879
EL	-9.83945
▁Power	-9.83955
▁icon	-9.8399
▁visible	-9.84004
yn	-9.84011
▁Christian	-9.84023
cc	-9.84171
mal	-9.84178
▁processing	-9.84182
▁progress	-9.8422
▁pipe	-9.84221
▁session	-9.84221
▁factors	-9.84281
▁Fo	-9.84293
▁tourist	-9.84326
▁sheet	-9.84371
▁generation	-9.84391
▁scar	-9.84413
▁storage	-9.84428
see	-9.84467
▁automatically	-9.84633
▁campaign	-9.84637
▁web	-9.84667
▁planned	-9.84744
▁join	-9.848
pping	-9.84871
AS	-9.84881
▁jump	-9.84885
▁reflect	-9.8489
▁Both	-9.84917
cho	-9.84923
▁wine	-9.84997
▁delivery	-9.85055
▁Royalty	-9.85068
▁shoes	-9.85094
▁highly	-9.85097
▁benefit	-9.85125
burg	-9.85164
▁specialist	-9.8517
Ma	-9.85221
ox	-9.85225
▁Cho	-9.85279
▁profit	-9.85306
▁sugar	-9.85327
▁showed	-9.85374
lock	-9.85379
▁Cre	-9.85403
▁successful	-9.85439
▁South	-9.85501
▁opened	-9.85535
In	-9.85538
hol	-9.85569
▁status	-9.85581
rr	-9.85603
▁France	-9.85631
▁begin	-9.85654
sha	-9.8567
▁mistake	-9.85711
▁processes	-9.8574
▁response	-9.85783
ah	-9.85789
▁Their	-9.85856
▁dr	-9.85906
);	-9.85915
▁clothes	-9.85968
▁ro	-9.85968
je	-9.8597
▁Board	-9.85983
place	-9.86168
▁Have	-9.8618
wn	-9.86232
▁Check	-9.8624
▁lines	-9.86293
uck	-9.86349
▁insurance	-9.86353
▁LED	-9.86366
ulation	-9.86403
▁concert	-9.86413
▁Image	-9.86462
piece	-9.86542
ker	-9.86548
▁steps	-9.86582
▁passed	-9.86609
▁Due	-9.86637
▁thick	-9.8668
TA	-9.86685
▁thinking	-9.86693
▁ref	-9.86754
ette	-9.86775
▁Light	-9.86807
SO	-9.8682
▁occur	-9.86838
▁tea	-9.8685
▁output	-9.86892
▁moved	-9.86913
▁despite	-9.86977
▁plans	-9.87025
▁upon	-9.87043
▁license	-9.87097
▁interview	-9.87127
▁district	-9.87166
▁animal	-9.87222
sia	-9.87225
▁ideas	-9.87293
▁partner	-9.87315
▁particularly	-9.87368
▁entered	-9.87472
zz	-9.87513
▁plot	-9.87514
▁heavy	-9.8752
qu	-9.87537
▁introduced	-9.87622
▁sand	-9.87697
▁chain	-9.87711
▁offered	-9.87714
dz	-9.87764
▁throw	-9.87766
▁Poles	-9.87793
We	-9.87813
RA	-9.88026
ened	-9.88037
gan	-9.88107
▁afraid	-9.88125
my	-9.88219
▁friendly	-9.88252
▁explain	-9.88296
owska	-9.88337
AM	-9.88379
▁IN	-9.88525
▁kg	-9.88565
gy	-9.88585
▁society	-9.88655
mat	-9.88692
▁diseases	-9.88704
▁remains	-9.88729
▁bio	-9.88746
▁reference	-9.88798
▁Tu	-9.88872
▁Bank	-9.8895
▁encourage	-9.88952
▁island	-9.88964
▁heating	-9.89017
▁growing	-9.89019
ons	-9.89021
▁indicated	-9.89133
▁sold	-9.89235
▁conducted	-9.89256
▁agent	-9.89281
▁compared	-9.89303
▁North	-9.8932
▁Q	-9.89345
MS	-9.89408
▁copy	-9.89419
▁Women	-9.8952
▁exhibition	-9.89538
▁gl	-9.8954
▁shot	-9.89558
▁manager	-9.89573
▁internet	-9.89579
▁Cr	-9.89647
▁specified	-9.89747
▁Play	-9.8977
▁drug	-9.89791
▁depending	-9.89889
▁digital	-9.8993
▁Regulation	-9.8995
▁ski	-9.89991
▁Water	-9.90023
▁permanent	-9.90043
▁mini	-9.90049
Q	-9.90055
tract	-9.90061
han	-9.90063
▁inhabitants	-9.9014
▁mis	-9.90153
▁priest	-9.90159
▁z	-9.90198
▁Color	-9.90239
▁Sunday	-9.9026
▁accessories	-9.90346
tern	-9.90374
▁resources	-9.90375
▁cards	-9.90396
▁kids	-9.90419
▁Italian	-9.90453
▁wooden	-9.90536
▁smaller	-9.90563
▁eight	-9.9058
▁Comp	-9.90586
▁efficient	-9.90692
▁par	-9.90694
▁appears	-9.90727
▁cities	-9.90753
▁attract	-9.90809
▁existing	-9.90821
▁science	-9.90833
dia	-9.90845
▁edition	-9.90879
▁client	-9.90891
back	-9.90903
▁San	-9.91009
▁zone	-9.91106
▁career	-9.91131
▁mention	-9.9117
▁significantly	-9.91203
▁equal	-9.9121
▁programs	-9.91223
▁meal	-9.91244
▁note	-9.91279
ley	-9.91309
play	-9.9135
▁bra	-9.91382
▁cancer	-9.91466
▁express	-9.91527
▁global	-9.91531
▁House	-9.91575
▁treated	-9.91582
▁essential	-9.91711
▁expensive	-9.91774
▁impossible	-9.91782
▁reality	-9.91831
▁dose	-9.91853
▁spent	-9.91917
▁ways	-9.91922
clo	-9.91956
owa	-9.91977
▁fabric	-9.92017
ome	-9.92018
▁chemical	-9.92027
▁tests	-9.92111
▁beauty	-9.92216
▁auto	-9.92218
lish	-9.92254
cra	-9.92281
▁Piotr	-9.92297
body	-9.92383
▁snow	-9.92434
▁worse	-9.92482
▁bike	-9.92501
▁Leg	-9.92505
▁sentence	-9.92515
▁Once	-9.92544
▁System	-9.92587
▁drawing	-9.92625
▁certificate	-9.9265
jo	-9.9265
▁proceedings	-9.92785
aries	-9.9281
▁protein	-9.9285
▁Department	-9.92923
▁standards	-9.92978
▁river	-9.93
▁White	-9.93051
▁employee	-9.9316
▁yellow	-9.93178
vis	-9.93179
▁Make	-9.93342
cess	-9.93362
▁Ter	-9.93427
▁laugh	-9.93437
▁fulfill	-9.93452
RO	-9.93469
▁race	-9.93473
ject	-9.93482
▁thread	-9.93491
▁carry	-9.93548
▁Ge	-9.93549
▁category	-9.93553
®	-9.93562
▁Time	-9.93567
▁removed	-9.93582
struc	-9.93587
▁update	-9.93645
▁birth	-9.93666
▁bottle	-9.93691
▁Em	-9.93793
▁degree	-9.93794
Po	-9.9383
▁register	-9.93847
▁institutions	-9.93896
▁Wrocław	-9.93938
▁returned	-9.93998
hal	-9.94008
▁detect	-9.94013
▁characters	-9.94035
▁cook	-9.94057
▁implement	-9.94092
▁election	-9.94145
▁forget	-9.94156
▁module	-9.94189
▁Che	-9.94202
▁Ł	-9.94261
amp	-9.9444
▁Poznań	-9.94446
▁represent	-9.94474
▁determined	-9.94489
▁dead	-9.94507
ute	-9.94531
▁USB	-9.94541
▁promote	-9.94561
▁hole	-9.94621
▁phase	-9.94635
▁feet	-9.94692
▁cheap	-9.94705
▁International	-9.94723
shi	-9.94765
ivity	-9.94798
lash	-9.94812
▁ran	-9.94851
▁teacher	-9.9486
▁changing	-9.94863
▁origin	-9.94873
ord	-9.94884
ura	-9.94895
USD	-9.94902
itch	-9.94967
wer	-9.94973
▁freedom	-9.94995
off	-9.95004
▁importance	-9.95041
▁Men	-9.95066
like	-9.95286
▁Very	-9.95314
ware	-9.95322
▁creation	-9.95399
cus	-9.95411
CE	-9.95526
▁format	-9.95534
▁sell	-9.95559
now	-9.95574
LA	-9.95651
▁Shi	-9.95733
UR	-9.95775
▁residents	-9.95785
▁counter	-9.95825
skie	-9.95881
▁attractive	-9.9594
▁minimum	-9.95945
▁rear	-9.95977
▁likely	-9.96021
ME	-9.96024
▁monitor	-9.96137
▁joy	-9.96139
▁surprise	-9.96144
▁Va	-9.96174
view	-9.96216
win	-9.96219
▁Paul	-9.96244
book	-9.96346
▁pet	-9.96358
▁judge	-9.96364
▁award	-9.96425
▁reported	-9.96427
▁Over	-9.96511
ush	-9.96525
aj	-9.96546
ude	-9.9657
med	-9.96603
▁ticket	-9.96613
▁consumption	-9.96668
▁upper	-9.96722
nish	-9.9674
▁Up	-9.96802
▁issued	-9.96811
ney	-9.96839
iti	-9.96849
▁iron	-9.96856
▁trees	-9.96873
ade	-9.96875
bit	-9.96914
?"	-9.96937
▁Sch	-9.96955
cin	-9.96986
▁discover	-9.9706
▁slow	-9.97063
▁HD	-9.97142
▁contribute	-9.97161
▁reached	-9.97269
lea	-9.97295
▁Part	-9.97311
comp	-9.97385
igh	-9.97392
▁recent	-9.97408
ama	-9.97423
▁root	-9.97424
▁Ż	-9.97438
▁cake	-9.97486
▁fashion	-9.975
▁supplement	-9.97543
▁Sometimes	-9.97582
▁guess	-9.97594
▁Mon	-9.97603
▁earth	-9.97615
▁episode	-9.97629
▁conference	-9.97648
▁regarding	-9.97655
grad	-9.97665
▁battle	-9.97744
▁Company	-9.97763
oli	-9.97807
▁wave	-9.97816
▁Trans	-9.97818
ators	-9.97906
▁labor	-9.97914
▁British	-9.97916
▁Super	-9.9793
▁constantly	-9.98026
▁cleaning	-9.98036
SS	-9.98126
hood	-9.98135
wel	-9.98135
▁tradition	-9.98146
▁Out	-9.98162
ong	-9.98176
▁workshop	-9.98213
▁disc	-9.98236
craft	-9.98263
▁older	-9.98349
▁prefer	-9.98377
▁finished	-9.9839
▁cultural	-9.98411
cept	-9.98484
roll	-9.98492
▁kit	-9.98524
tical	-9.98526
▁brain	-9.98526
cel	-9.98567
tom	-9.98598
q	-9.98638
▁ingredients	-9.98673
▁relax	-9.98678
▁screw	-9.98684
▁visual	-9.98724
▁football	-9.98736
▁cash	-9.98742
▁Chinese	-9.98761
▁mouth	-9.98761
▁Tru	-9.98769
▁mission	-9.98777
▁sources	-9.98836
nie	-9.98855
▁facilities	-9.98964
▁decoration	-9.99001
▁CO	-9.99064
▁served	-9.99131
made	-9.99221
▁Association	-9.99255
▁Select	-9.9931
▁vehicles	-9.99319
▁resulting	-9.99325
▁blog	-9.99348
▁fly	-9.9942
▁mi	-9.99448
ded	-9.99539
SP	-9.99609
▁measurement	-9.99611
▁describe	-9.99636
▁firm	-9.99749
▁Mac	-9.99757
▁debt	-9.99865
NA	-9.99906
▁qua	-9.99984
▁greatest	-9.99995
ego	-10.0006
▁happens	-10.0023
▁prison	-10.0023
▁schools	-10.0025
▁kept	-10.0026
rea	-10.0033
▁carefully	-10.0036
▁trend	-10.0038
nel	-10.0044
UN	-10.0045
▁mine	-10.0049
agon	-10.0052
▁Saturday	-10.006
owicz	-10.006
ough	-10.0062
—	-10.0063
pend	-10.0072
▁providing	-10.008
rist	-10.0081
▁purchased	-10.0084
▁hang	-10.0086
▁multiple	-10.0087
▁sit	-10.0088
ses	-10.0088
▁Get	-10.0092
▁photography	-10.0093
▁Pat	-10.0097
▁sample	-10.01
▁confirm	-10.0101
▁trouble	-10.0108
dro	-10.0111
ID	-10.012
mag	-10.012
▁advice	-10.0125
▁combined	-10.0126
▁quiet	-10.0127
▁economy	-10.0135
ature	-10.0138
log	-10.0141
▁lift	-10.0142
vil	-10.0147
▁push	-10.0148
▁strip	-10.0152
▁Second	-10.0157
dor	-10.0158
▁moving	-10.016
cks	-10.0163
▁pur	-10.0166
cher	-10.0167
▁secure	-10.0169
▁parameters	-10.0171
▁efficiency	-10.0173
til	-10.0174
hop	-10.0176
ock	-10.0178
▁die	-10.0179
▁flower	-10.0179
pol	-10.0186
wor	-10.0189
▁couldn	-10.0194
▁Thank	-10.0201
°	-10.0205
▁parking	-10.0207
▁medicine	-10.0216
▁mechanism	-10.022
▁honor	-10.0226
▁entry	-10.0228
lation	-10.024
▁passenger	-10.0241
▁manage	-10.0242
,”	-10.0243
▁Holy	-10.0245
▁Cha	-10.025
▁employment	-10.025
SE	-10.0251
▁flight	-10.0254
▁breakfast	-10.0257
duct	-10.0257
▁maintenance	-10.026
ili	-10.0267
ency	-10.0274
▁strange	-10.0282
cro	-10.0283
▁Sk	-10.0283
▁mixture	-10.0288
▁goals	-10.0289
ju	-10.029
▁families	-10.0293
aging	-10.0293
▁environmental	-10.0294
▁Press	-10.0296
▁recording	-10.0297
▁Product	-10.0298
PA	-10.0299
teen	-10.03
▁consumer	-10.0301
▁holiday	-10.0308
▁artist	-10.0311
mark	-10.032
ku	-10.0323
otic	-10.0326
late	-10.0327
ula	-10.0328
▁fix	-10.0332
▁assessment	-10.0332
▁replace	-10.0336
▁persons	-10.0338
▁RE	-10.034
▁advance	-10.034
▁scope	-10.0342
ari	-10.0349
▁pieces	-10.0353
lot	-10.0355
▁participation	-10.0363
▁Which	-10.0363
tric	-10.0364
▁Under	-10.0364
▁impression	-10.0366
].	-10.0368
fu	-10.0373
▁dozen	-10.0373
▁reduced	-10.0376
itation	-10.0377
▁sick	-10.0388
▁housing	-10.0389
▁powerful	-10.0396
▁Thus	-10.0397
▁ju	-10.0398
▁conversation	-10.0402
etic	-10.0406
▁Old	-10.0412
▁principle	-10.042
▁Google	-10.042
▁Plan	-10.0424
▁Kr	-10.0428
▁convert	-10.0434
▁mat	-10.0442
dri	-10.0445
ography	-10.0446
proof	-10.0448
▁previously	-10.0449
nc	-10.0468
▁bird	-10.0472
fici	-10.0472
▁email	-10.0473
▁objects	-10.0473
▁photograph	-10.0474
▁Facebook	-10.0483
▁Does	-10.0486
▁admit	-10.0487
▁faster	-10.0487
▁Take	-10.0493
ense	-10.0494
▁remind	-10.0501
▁Game	-10.0514
▁Adam	-10.0519
▁sad	-10.0533
▁concentration	-10.0537
dding	-10.0538
▁fair	-10.0539
ST	-10.0541
▁wasn	-10.0551
▁Museum	-10.0552
▁deliver	-10.0552
▁sister	-10.0559
▁relevant	-10.0562
▁Year	-10.0563
▁Like	-10.0567
▁establish	-10.057
▁passion	-10.0572
▁ice	-10.0576
▁victim	-10.0578
▁windows	-10.0579
▁medium	-10.0581
▁cycle	-10.0584
ility	-10.0586
▁SA	-10.0589
▁ban	-10.0593
▁Management	-10.0597
house	-10.0605
▁King	-10.0605
▁peace	-10.0614
▁analyze	-10.0616
▁producer	-10.0621
▁novel	-10.0625
▁dynamic	-10.0626
▁Andrzej	-10.0627
▁fill	-10.0632
▁expand	-10.0635
▁walking	-10.0636
▁tube	-10.0637
▁replaced	-10.0639
pon	-10.0647
▁aware	-10.0653
▁names	-10.066
▁approx	-10.0664
▁Cap	-10.0667
▁pot	-10.067
▁ended	-10.0674
▁coach	-10.0681
▁rank	-10.0682
▁apart	-10.0693
▁houses	-10.0698
▁schedule	-10.0709
ros	-10.0712
▁smell	-10.0712
CH	-10.0713
▁faith	-10.0717
▁Gdańsk	-10.0718
▁scientific	-10.072
▁defined	-10.0721
▁clients	-10.0729
▁disappear	-10.0733
▁Mat	-10.0735
▁spin	-10.0735
qua	-10.0736
▁compound	-10.0738
▁vitamin	-10.0739
▁gray	-10.0742
▁leaving	-10.0743
▁Moreover	-10.0751
ero	-10.0759
wear	-10.0762
wing	-10.0768
▁Pan	-10.0771
ogen	-10.0772
rant	-10.0774
▁formula	-10.0778
MI	-10.0778
▁twice	-10.0779
▁pour	-10.079
▁Reg	-10.0791
put	-10.0792
▁promise	-10.0797
▁recorded	-10.0797
▁acc	-10.0799
▁soil	-10.0811
▁input	-10.0812
▁female	-10.0813
!!!	-10.0814
▁Ph	-10.0817
▁decrease	-10.0822
pper	-10.0822
▁Read	-10.0823
▁dangerous	-10.0826
▁infection	-10.0826
▁supported	-10.083
▁south	-10.083
dis	-10.0831
ata	-10.0833
▁Code	-10.0833
▁sky	-10.0835
▁plug	-10.0845
▁operate	-10.0846
▁label	-10.0848
RI	-10.085
▁surrounding	-10.0855
▁chair	-10.0857
▁therapy	-10.0859
▁aim	-10.0863
▁increases	-10.0865
▁valid	-10.0867
▁comments	-10.0868
▁Op	-10.0869
▁Har	-10.087
lect	-10.0875
▁Gi	-10.0876
▁helps	-10.0878
its	-10.088
▁candidate	-10.0885
▁planning	-10.0888
▁Catholic	-10.0897
▁entitled	-10.0898
long	-10.0899
▁strengthen	-10.0901
▁confirmed	-10.0905
▁insert	-10.0905
▁Kar	-10.0908
▁Char	-10.091
▁facility	-10.0911
▁tablet	-10.0912
▁anymore	-10.0912
▁valve	-10.0916
ologist	-10.0923
▁defend	-10.0928
▁participate	-10.0931
▁Win	-10.0932
▁annual	-10.0947
ians	-10.0952
▁soul	-10.0952
▁brown	-10.0952
▁cast	-10.0954
▁remote	-10.0954
▁representatives	-10.0955
@	-10.0963
▁plus	-10.0963
▁foundation	-10.0968
czyk	-10.097
▁ourselves	-10.0971
▁operator	-10.0972
▁circumstances	-10.0976
▁department	-10.0982
▁pair	-10.0985
▁Institute	-10.0992
▁fixed	-10.0992
▁practical	-10.0992
pan	-10.0992
▁extract	-10.0993
▁fund	-10.0994
▁followed	-10.0998
▁discussion	-10.1001
some	-10.1001
▁constant	-10.1009
▁fr	-10.1011
▁images	-10.102
ect	-10.1021
▁alternative	-10.1032
▁angle	-10.1034
▁seal	-10.1037
gre	-10.104
▁views	-10.1042
rin	-10.1043
ert	-10.1058
▁educational	-10.1064
▁thin	-10.1067
▁shopping	-10.1067
▁bath	-10.1068
▁London	-10.107
▁transaction	-10.107
▁parish	-10.1072
hr	-10.1073
▁Ste	-10.1076
iness	-10.1081
▁obvious	-10.1091
▁catch	-10.1091
▁publish	-10.1092
▁civil	-10.1093
▁Min	-10.1094
▁developing	-10.1096
▁mountain	-10.1096
▁mental	-10.11
CA	-10.1103
▁reports	-10.1104
▁America	-10.1106
▁flash	-10.1112
▁north	-10.1113
▁loved	-10.1114
▁machines	-10.1115
▁industrial	-10.1116
ught	-10.112
path	-10.1122
bur	-10.1123
temp	-10.1129
▁lived	-10.113
▁wire	-10.113
▁journey	-10.1132
ej	-10.1135
terior	-10.1138
▁appreciate	-10.1139
▁Sho	-10.1144
▁Friday	-10.1151
▁crime	-10.1151
▁shade	-10.1157
▁voltage	-10.1158
▁welcome	-10.1159
▁experienced	-10.1161
▁Mal	-10.1171
▁audience	-10.1171
▁recipe	-10.1176
▁Sub	-10.1178
▁pleasant	-10.1179
▁Ministry	-10.1186
cki	-10.1191
▁submitted	-10.1192
▁sat	-10.1204
▁achieved	-10.1204
▁Bor	-10.1206
▁drugs	-10.1207
\	-10.1208
▁signed	-10.1211
▁gear	-10.1212
▁airport	-10.1212
▁circle	-10.1214
▁hurt	-10.1215
▁Hand	-10.1222
▁judgment	-10.1229
▁organ	-10.1229
▁conclusion	-10.1239
▁Uni	-10.124
▁Ver	-10.1245
lor	-10.1247
SI	-10.1248
▁magic	-10.1251
born	-10.1257
▁rent	-10.1258
▁Anna	-10.1267
yna	-10.1268
▁container	-10.1271
▁primary	-10.1273
▁provision	-10.1279
▁al	-10.128
▁knows	-10.1281
▁experiment	-10.1283
▁dinner	-10.1287
▁emphasize	-10.1288
▁sport	-10.129
▁context	-10.1292
yard	-10.1295
▁attitude	-10.1298
▁saying	-10.1303
itis	-10.1304
▁Children	-10.1307
PL	-10.1307
usz	-10.1308
▁Sport	-10.1315
del	-10.1316
▁audio	-10.1317
▁generally	-10.132
habit	-10.1322
▁distribution	-10.1322
▁calm	-10.1325
▁Any	-10.1335
▁Control	-10.1336
read	-10.1339
LO	-10.1339
▁collected	-10.1341
▁District	-10.1347
▁Oh	-10.1349
▁Open	-10.135
▁fer	-10.135
▁awarded	-10.1354
▁historical	-10.1355
even	-10.1359
cl	-10.1364
▁slowly	-10.1367
▁decisions	-10.1368
atic	-10.1372
▁expression	-10.1374
▁stopped	-10.1375
point	-10.1385
*	-10.1387
rac	-10.1387
down	-10.1388
ending	-10.1392
quality	-10.1395
▁bear	-10.1398
▁hat	-10.1404
▁mask	-10.1405
▁situations	-10.1414
▁legs	-10.1414
▁reader	-10.1418
▁Italy	-10.1419
▁pin	-10.1419
▁cosmetic	-10.1421
MA	-10.1422
▁Central	-10.1423
af	-10.1423
position	-10.1425
head	-10.1426
dra	-10.1426
DE	-10.1429
▁Hy	-10.1438
▁murder	-10.1439
▁expert	-10.1444
▁administration	-10.1456
▁factor	-10.1458
ewski	-10.1459
▁meetings	-10.1461
▁Mor	-10.1462
▁solve	-10.1463
▁Auto	-10.1468
vert	-10.1471
▁divided	-10.1473
▁shock	-10.1478
▁Design	-10.148
▁army	-10.1485
table	-10.1494
▁plane	-10.1496
▁lighting	-10.1497
nica	-10.15
▁sin	-10.1507
▁emotions	-10.1513
▁wild	-10.1515
▁Ol	-10.1516
▁brush	-10.1517
▁Paris	-10.1521
fect	-10.1525
▁survive	-10.1527
▁Did	-10.1528
▁billion	-10.1532
rack	-10.1536
▁cheese	-10.1543
▁Ac	-10.155
▁effort	-10.1568
▁pop	-10.1575
▁conflict	-10.1584
▁beyond	-10.159
▁spa	-10.16
It	-10.1605
arm	-10.1606
construct	-10.1606
▁saving	-10.1608
▁attached	-10.161
net	-10.161
▁advanced	-10.1615
wards	-10.1617
▁sitting	-10.1622
▁Despite	-10.1623
▁neighbor	-10.1624
▁Nor	-10.1626
▁reserve	-10.1627
▁weekend	-10.1635
pha	-10.1635
▁operations	-10.1637
▁aid	-10.1638
▁Bro	-10.1639
▁noticed	-10.1645
OW	-10.1646
load	-10.1647
▁silver	-10.1658
fully	-10.1665
▁songs	-10.1669
▁forces	-10.1674
▁tissue	-10.1675
▁displayed	-10.1676
oh	-10.1677
LI	-10.1678
▁detailed	-10.1689
▁Ser	-10.1689
▁surprised	-10.169
▁arrangement	-10.1699
▁deposit	-10.17
▁relatively	-10.1701
▁Among	-10.1701
▁stated	-10.1704
ola	-10.1706
▁Ob	-10.1706
▁Health	-10.1708
▁concrete	-10.1709
▁detail	-10.1714
▁noise	-10.1719
▁complaint	-10.1719
▁Data	-10.1721
▁prior	-10.1724
iel	-10.1724
▁broke	-10.1725
▁pull	-10.173
▁sides	-10.1732
▁adventure	-10.1732
▁everyday	-10.1734
▁Japanese	-10.1734
▁spoke	-10.1735
▁numbers	-10.1736
TE	-10.1736
▁standing	-10.1738
oma	-10.1738
▁filled	-10.1739
▁poly	-10.1741
▁nor	-10.1745
▁instructions	-10.1764
ora	-10.1766
▁teachers	-10.1769
tes	-10.1769
▁bread	-10.1781
▁advise	-10.1786
▁mg	-10.1786
▁valuable	-10.1788
▁Look	-10.179
▁Chi	-10.1792
▁unfortunately	-10.1793
acy	-10.1795
▁column	-10.1796
▁manner	-10.1803
▁engineer	-10.1805
cm	-10.181
▁quarter	-10.1816
▁spirit	-10.1816
▁York	-10.1816
TH	-10.1821
▁cloud	-10.1825
rain	-10.1829
▁rise	-10.1831
▁invest	-10.1835
▁dishes	-10.1835
▁matters	-10.1837
ibility	-10.1848
▁doll	-10.185
pen	-10.1853
▁Fire	-10.1855
▁convenient	-10.1857
uring	-10.1863
phy	-10.1864
▁monument	-10.1871
▁broad	-10.1877
▁powder	-10.1883
arch	-10.1887
▁learned	-10.1893
ich	-10.1897
▁MA	-10.1898
ese	-10.1898
▁actor	-10.1901
▁Father	-10.1904
▁outdoor	-10.1905
▁coat	-10.191
law	-10.1914
▁cutting	-10.1915
eng	-10.1916
▁begins	-10.1917
pel	-10.1922
▁combine	-10.1925
▁trial	-10.1925
▁ordered	-10.193
▁lie	-10.194
▁examination	-10.1943
▁owners	-10.1944
▁West	-10.1946
▁proposal	-10.1947
▁View	-10.1956
▁delay	-10.1966
▁tight	-10.1967
▁defeat	-10.1972
▁rose	-10.1976
ore	-10.198
▁understanding	-10.198
▁lu	-10.1983
▁Bre	-10.1987
AC	-10.1987
▁harm	-10.1988
onic	-10.1988
▁stores	-10.199
▁reduction	-10.1993
por	-10.2
based	-10.2004
ening	-10.2009
▁measure	-10.2014
fla	-10.2024
rupt	-10.2026
▁Everything	-10.2027
ulate	-10.2029
Re	-10.203
tribut	-10.2032
▁Committee	-10.2035
▁presentation	-10.2038
▁Party	-10.2048
▁consent	-10.2048
mination	-10.205
nate	-10.2055
ident	-10.2059
▁mono	-10.2061
▁concerned	-10.2062
▁Pra	-10.2063
osis	-10.2063
bri	-10.2068
iev	-10.207
▁extent	-10.2078
▁tab	-10.2078
▁teaching	-10.2083
▁nail	-10.2084
▁delicious	-10.2091
▁gene	-10.2095
▁pure	-10.2101
▁finding	-10.2105
EA	-10.2109
▁Tre	-10.2112
OP	-10.2113
▁herself	-10.2115
▁Ber	-10.2118
▁weak	-10.2125
▁publication	-10.2129
▁factory	-10.213
▁Mary	-10.2132
▁primarily	-10.2134
▁Love	-10.2144
You	-10.2146
▁named	-10.2147
▁characterized	-10.2147
▁truck	-10.2161
▁degrees	-10.2162
▁speech	-10.2169
ius	-10.2172
▁stories	-10.2187
kiewicz	-10.219
DA	-10.2191
▁import	-10.2193
▁consult	-10.2194
ender	-10.2196
ridge	-10.2198
▁closer	-10.2205
▁otherwise	-10.2212
▁bone	-10.2214
▁containing	-10.2219
▁improvement	-10.2222
logical	-10.2224
▁studio	-10.2225
▁pl	-10.2227
▁typical	-10.223
▁ride	-10.223
▁Maria	-10.2234
AP	-10.2235
▁broken	-10.2235
▁coll	-10.2236
zek	-10.224
▁fiber	-10.224
lines	-10.2245
▁pages	-10.2256
▁shower	-10.2257
▁adopted	-10.2258
▁arms	-10.2263
▁visited	-10.2266
▁User	-10.2268
with	-10.2269
▁permit	-10.2271
atory	-10.2272
Ch	-10.2279
▁leather	-10.228
▁sounds	-10.228
imate	-10.2284
▁festival	-10.2287
▁IT	-10.2291
▁graduate	-10.2292
▁Currently	-10.2293
▁neck	-10.2299
▁net	-10.23
▁Val	-10.2301
▁killed	-10.2313
pu	-10.2315
▁enterprise	-10.2317
▁Earth	-10.2317
cla	-10.2318
circ	-10.2321
▁absorb	-10.2323
▁vision	-10.2324
ał	-10.2336
▁belt	-10.2338
▁seconds	-10.234
▁formation	-10.2341
▁gone	-10.2341
▁dedicated	-10.2343
▁pocket	-10.2352
▁hide	-10.2353
▁raise	-10.2353
▁objective	-10.2353
▁strategy	-10.2355
NO	-10.2359
▁automatic	-10.2359
▁boot	-10.2363
lav	-10.2366
▁blow	-10.237
▁bridge	-10.2373
▁male	-10.238
▁diameter	-10.2381
cular	-10.2394
cri	-10.2399
▁teams	-10.2401
▁Bur	-10.2404
ook	-10.2406
▁extend	-10.2417
▁commission	-10.2422
▁Vector	-10.2427
▁instance	-10.2429
▁sim	-10.243
▁minute	-10.243
▁edit	-10.243
▁employer	-10.243
▁Cup	-10.243
GB	-10.2434
ńska	-10.2435
▁Information	-10.2436
▁Mer	-10.2451
▁react	-10.2456
suit	-10.246
▁carbon	-10.2461
▁religious	-10.2464
TER	-10.2465
▁stream	-10.2465
▁withdraw	-10.247
▁Euro	-10.2471
rc	-10.2472
▁minor	-10.2481
▁Ve	-10.2483
▁Cz	-10.2485
dent	-10.2487
▁sharp	-10.2491
▁ordinary	-10.2492
▁frequency	-10.2493
▁electro	-10.2498
pher	-10.2501
▁illustration	-10.2502
▁states	-10.2507
▁procedures	-10.2509
▁relation	-10.2511
▁defense	-10.2512
▁Connect	-10.2513
▁Ab	-10.2514
▁butter	-10.2518
EX	-10.2519
▁pr	-10.2526
▁Post	-10.2528
▁export	-10.2529
://	-10.2529
▁principles	-10.2531
▁sexual	-10.2533
▁Main	-10.2544
▁explained	-10.2552
▁tear	-10.2566
▁III	-10.2566
▁severe	-10.2568
eb	-10.2572
▁Vo	-10.2578
▁king	-10.2578
▁argument	-10.258
▁workers	-10.2584
pot	-10.2594
▁Social	-10.2597
ez	-10.2602
bil	-10.2603
▁nation	-10.261
▁elegant	-10.2612
▁pink	-10.2615
%)	-10.2616
=	-10.2621
▁introduce	-10.2624
▁claims	-10.2625
▁respond	-10.2625
▁adult	-10.2626
▁division	-10.2634
▁”	-10.2634
IL	-10.2641
▁formed	-10.2645
▁»	-10.2647
▁theater	-10.2649
active	-10.2649
▁desire	-10.265
▁pregnancy	-10.2651
flow	-10.2652
▁responsibility	-10.2652
▁recognized	-10.2656
▁Plus	-10.2657
▁bedroom	-10.2658
▁sufficient	-10.2661
▁circuit	-10.2666
▁initial	-10.267
TION	-10.2677
▁marketing	-10.2681
reg	-10.2682
▁landscape	-10.2683
▁virtual	-10.2684
▁organizations	-10.2686
ider	-10.2702
▁lay	-10.2705
▁Page	-10.2706
PR	-10.2706
▁continued	-10.2711
ulated	-10.2721
vy	-10.2725
▁registered	-10.2732
▁bodies	-10.2732
▁smartphone	-10.2733
▁swimming	-10.2733
cious	-10.2734
DI	-10.274
▁designer	-10.2742
hor	-10.2742
wise	-10.2744
▁marked	-10.275
▁creative	-10.2757
▁winner	-10.2758
▁charm	-10.2759
▁approximately	-10.2765
▁eliminate	-10.2773
▁technologies	-10.2775
▁Ry	-10.2777
rum	-10.2784
▁contained	-10.2784
▁joined	-10.2786
▁scan	-10.2792
▁‘	-10.2794
▁chosen	-10.2795
take	-10.2799
▁eating	-10.28
▁overall	-10.2803
▁worry	-10.2805
▁juice	-10.2808
▁marriage	-10.2811
▁starts	-10.282
▁youth	-10.2821
▁TO	-10.2821
berg	-10.2822
▁Director	-10.2825
▁engage	-10.2825
▁grade	-10.2832
▁raised	-10.2837
▁holding	-10.2838
▁Am	-10.284
▁smoke	-10.284
ken	-10.2844
▁substances	-10.2847
▁existence	-10.2853
▁empty	-10.2859
▁Right	-10.2859
▁About	-10.2861
▁beat	-10.2862
▁initiative	-10.2865
▁lens	-10.2868
▁premises	-10.2869
sign	-10.2869
▁effectively	-10.2869
▁breast	-10.287
▁definition	-10.2876
▁missing	-10.2882
vern	-10.2883
▁editor	-10.2894
▁Program	-10.2897
▁Port	-10.2897
▁depend	-10.2898
RS	-10.2901
▁expense	-10.2901
▁showing	-10.2909
▁Print	-10.291
minate	-10.2913
▁www	-10.2915
▁contribution	-10.2921
▁Green	-10.2928
arian	-10.2932
▁continuous	-10.2937
▁soldiers	-10.2941
▁database	-10.2941
▁exam	-10.2944
▁buying	-10.2945
▁Er	-10.2947
▁transform	-10.2948
▁settle	-10.2949
▁configuration	-10.2954
▁unusual	-10.2959
PO	-10.2959
▁stretch	-10.2964
▁indicator	-10.2964
▁honest	-10.2965
▁Pen	-10.2966
▁Dan	-10.2973
▁occurs	-10.298
▁regional	-10.2982
▁agreed	-10.2983
▁vegetables	-10.2986
▁uses	-10.2986
▁Israel	-10.299
▁helped	-10.2994
▁lesson	-10.3
▁aluminum	-10.3001
▁relations	-10.3003
▁asking	-10.3005
SA	-10.3007
▁CD	-10.3008
▁minister	-10.302
▁gun	-10.3025
▁default	-10.3028
▁define	-10.3029
ami	-10.3032
▁sort	-10.3035
▁Grand	-10.3038
▁climate	-10.3041
▁haven	-10.3042
▁Finally	-10.3042
▁Czech	-10.3045
▁rec	-10.3045
▁adults	-10.3045
▁liked	-10.3046
▁UK	-10.3047
▁Special	-10.3048
):	-10.3052
astic	-10.306
cie	-10.3062
▁characteristic	-10.3062
▁°	-10.3064
▁http	-10.3066
▁Order	-10.3067
▁applies	-10.3077
▁gate	-10.3079
▁Big	-10.3081
▁boys	-10.3082
mu	-10.3091
▁hunt	-10.3092
▁grant	-10.3102
▁accepted	-10.3103
▁colorful	-10.3104
PE	-10.3105
gent	-10.3105
▁representative	-10.3111
▁mirror	-10.3112
▁museum	-10.3112
dom	-10.3113
▁Everyone	-10.3114
▁Sur	-10.3117
▁remaining	-10.3119
met	-10.3124
▁Music	-10.3135
cut	-10.3141
▁crowd	-10.3145
▁Pod	-10.3146
▁follows	-10.3146
▁rev	-10.315
▁Head	-10.3154
▁leads	-10.3155
▁advertising	-10.3158
▁Back	-10.316
▁Young	-10.3163
▁Monday	-10.3164
IG	-10.3169
▁majority	-10.3175
▁married	-10.3175
▁Last	-10.3178
▁functional	-10.3179
▁settlement	-10.3191
ati	-10.3199
owice	-10.3202
▁ancient	-10.3206
▁emphasized	-10.3208
▁teeth	-10.3209
▁Gro	-10.3211
cip	-10.3213
▁hero	-10.3217
▁Education	-10.3222
▁rub	-10.3224
▁proposed	-10.3226
▁favor	-10.3227
▁boat	-10.3228
stan	-10.3229
▁Fu	-10.3231
rine	-10.3235
▁complain	-10.3242
▁Sun	-10.3243
▁hidden	-10.3245
▁Kon	-10.3245
Fig	-10.3246
▁functioning	-10.3253
water	-10.3253
▁imagine	-10.3253
▁sorry	-10.3254
key	-10.3256
▁stars	-10.3258
rous	-10.3261
▁applicable	-10.3262
IP	-10.3266
cover	-10.3267
▁Han	-10.3279
▁dust	-10.3285
avi	-10.3288
▁extensive	-10.329
▁streets	-10.3291
new	-10.3294
▁Ci	-10.3297
▁washing	-10.33
▁watching	-10.3312
app	-10.3314
▁Wall	-10.3319
VI	-10.3321
heat	-10.3322
▁syn	-10.3322
▁interface	-10.3325
illa	-10.3329
FI	-10.3331
▁Cla	-10.3332
▁interests	-10.3334
▁actual	-10.334
glo	-10.334
nov	-10.3342
▁absolutely	-10.3346
▁Life	-10.3349
▁climb	-10.3352
▁Show	-10.3352
▁glad	-10.336
▁Business	-10.3362
ographic	-10.3364
tech	-10.3365
▁institution	-10.3365
▁innovative	-10.3366
▁Beautiful	-10.3368
▁pleasure	-10.3368
▁calls	-10.3369
iz	-10.3377
▁AND	-10.3378
▁drivers	-10.3378
▁Start	-10.338
tics	-10.3385
▁organize	-10.3389
lex	-10.3391
▁gentle	-10.3394
▁Card	-10.3397
▁somewhere	-10.3402
range	-10.3403
▁damaged	-10.3403
▁Robert	-10.3404
▁alarm	-10.3408
▁arch	-10.341
▁god	-10.3415
▁applicant	-10.3416
▁Wil	-10.3417
▁journalist	-10.3422
▁breed	-10.3422
▁speaker	-10.3429
▁Soviet	-10.3429
▁nearby	-10.3432
▁lake	-10.3436
▁muscle	-10.3438
▁controller	-10.3439
▁nearly	-10.3443
▁pig	-10.3448
▁tournament	-10.345
▁Jewish	-10.3451
▁stuff	-10.3453
▁reveal	-10.3453
▁Academy	-10.3458
▁Click	-10.3467
▁understood	-10.3468
lt	-10.3468
▁Fund	-10.347
▁implemented	-10.3472
▁Top	-10.3474
ech	-10.3477
▁constitute	-10.3481
vid	-10.3481
▁compress	-10.3489
▁differ	-10.349
Ś	-10.3491
▁Michał	-10.3492
▁electrical	-10.3493
▁row	-10.3493
ji	-10.3498
▁Greek	-10.35
▁fuck	-10.3501
▁refuse	-10.3507
▁partners	-10.3508
▁flag	-10.3512
pass	-10.3512
▁choosing	-10.3515
▁exhaust	-10.3517
▁Perhaps	-10.3518
▁restore	-10.3519
sumption	-10.3521
▁gets	-10.3524
▁reliable	-10.3526
▁sight	-10.3528
▁cinema	-10.3528
▁discount	-10.3529
ump	-10.3529
▁anniversary	-10.353
▁bond	-10.3535
▁registration	-10.3536
▁abroad	-10.3536
▁transmission	-10.3537
▁monitoring	-10.3538
▁Sam	-10.3541
▁guard	-10.3542
onia	-10.3545
▁assembly	-10.3546
▁subsequent	-10.355
▁Blue	-10.3555
phone	-10.3557
▁sauce	-10.3559
▁Cy	-10.3563
▁Cal	-10.3564
▁talent	-10.3566
▁Multi	-10.3567
▁fields	-10.3568
▁testing	-10.3569
▁identify	-10.3573
▁stable	-10.3581
▁wouldn	-10.3582
▁narrow	-10.3586
▁Room	-10.3591
▁Stanisław	-10.3592
▁fighting	-10.3594
▁biggest	-10.3597
▁depth	-10.3602
▁Ukraine	-10.3611
▁East	-10.3612
▁explains	-10.3613
wan	-10.3615
▁gifts	-10.3615
▁packaging	-10.3621
▁invention	-10.3622
▁printer	-10.3623
▁crisis	-10.363
▁nut	-10.363
▁aimed	-10.3632
▁Łódź	-10.3632
vin	-10.3633
▁submit	-10.3636
▁Science	-10.3637
▁signs	-10.3637
▁mechanical	-10.3638
▁shoot	-10.3639
▁experiences	-10.364
TI	-10.3642
▁Audi	-10.3645
▁instrument	-10.3647
▁Cat	-10.3649
▁fault	-10.3649
▁listed	-10.3651
▁except	-10.3653
angel	-10.3654
▁Lublin	-10.3663
▁latter	-10.367
▁parent	-10.3676
▁mill	-10.3679
▁association	-10.3679
▁branch	-10.3681
rest	-10.3682
IA	-10.3684
ene	-10.3686
▁IP	-10.3687
▁investor	-10.3689
▁jacket	-10.369
▁guest	-10.3694
▁possibilities	-10.3699
▁destroy	-10.3701
▁magazine	-10.3702
▁birthday	-10.3707
▁desired	-10.3707
▁Tomasz	-10.371
▁artists	-10.3715
awa	-10.3719
▁Book	-10.3724
▁seek	-10.3725
ories	-10.3733
▁Tour	-10.3736
▁Real	-10.3742
&	-10.3746
▁launch	-10.3747
plo	-10.3749
▁adds	-10.375
Journal	-10.3751
▁informed	-10.3754
▁vessel	-10.3754
▁wh	-10.3757
▁password	-10.3764
▁Long	-10.3765
▁infrastructure	-10.3767
▁pad	-10.3768
▁Spanish	-10.3769
▁hung	-10.3769
omy	-10.3774
▁dimensions	-10.3776
▁forced	-10.3783
▁concluded	-10.3786
▁criminal	-10.3798
▁escape	-10.3799
▁repeat	-10.3807
▁mineral	-10.381
HO	-10.3812
▁fail	-10.3819
▁chocolate	-10.3821
▁dealing	-10.3824
▁consequences	-10.3825
▁Best	-10.3826
▁entrance	-10.3827
▁enhance	-10.3827
▁news	-10.3828
▁structures	-10.3834
ural	-10.3839
ode	-10.3841
▁covers	-10.3841
▁becoming	-10.3841
▁Army	-10.3842
▁bun	-10.3847
▁MP	-10.3847
▁seemed	-10.3848
▁spiritual	-10.3848
▁disturb	-10.385
▁Jews	-10.385
▁tested	-10.3855
▁§	-10.386
ban	-10.3861
▁expectations	-10.3867
▁Pla	-10.3867
▁Microsoft	-10.3867
ella	-10.3872
▁shared	-10.3876
▁Sal	-10.3877
▁extension	-10.3879
▁Police	-10.3879
▁preparing	-10.389
▁Put	-10.3892
eller	-10.3893
▁ST	-10.3898
▁opportunities	-10.39
▁relative	-10.3901
FA	-10.3913
MP	-10.3914
▁castle	-10.3914
▁tomorrow	-10.3916
▁perhaps	-10.3918
TS	-10.392
▁recognize	-10.3926
ena	-10.3929
▁administrative	-10.3929
▁accurate	-10.3931
▁translate	-10.3933
▁opposite	-10.3936
▁differences	-10.3937
▁lecture	-10.3942
▁capture	-10.3942
lim	-10.3949
▁River	-10.3956
▁Android	-10.3962
pine	-10.3964
▁entrepreneur	-10.3965
▁raw	-10.3965
▁Public	-10.3978
▁exclusive	-10.3981
▁suffering	-10.3981
▁rapid	-10.3984
▁uniform	-10.3986
▁fluid	-10.3989
dar	-10.3991
▁logo	-10.3995
xi	-10.3999
▁fold	-10.4001
▁delight	-10.4011
▁shut	-10.4013
ATION	-10.4018
▁bill	-10.4019
▁audit	-10.4019
▁Australia	-10.4021
▁witness	-10.4021
▁delivered	-10.4034
▁holidays	-10.4034
▁municipal	-10.4035
▁adopt	-10.4037
▁prayer	-10.4039
UT	-10.4039
▁defect	-10.4041
▁forum	-10.4041
▁afford	-10.4044
▁saved	-10.4044
verse	-10.4044
▁toys	-10.4048
▁Wal	-10.405
▁concerning	-10.4051
▁coast	-10.4056
▁yes	-10.4058
▁Table	-10.406
▁Western	-10.4061
▁entities	-10.4068
▁Mass	-10.4071
well	-10.4072
▁stored	-10.4073
bon	-10.4074
▁EN	-10.4077
▁dogs	-10.4078
get	-10.4089
▁blocks	-10.4097
▁organic	-10.4097
▁repeated	-10.4098
▁anyway	-10.4106
▁comprehensive	-10.4106
▁citizens	-10.4106
▁duty	-10.4108
▁bacteria	-10.411
▁printing	-10.4113
▁declaration	-10.4116
och	-10.4117
▁Tar	-10.412
▁Type	-10.4129
á	-10.4129
mount	-10.4134
▁ahead	-10.4135
▁celebration	-10.4135
▁artistic	-10.4145
▁chapter	-10.4147
▁organizer	-10.4158
▁Bel	-10.4164
don	-10.4165
izer	-10.4166
gor	-10.4171
▁replacement	-10.4172
cell	-10.4173
EM	-10.4178
▁fur	-10.4179
▁width	-10.4181
▁delete	-10.4188
▁thermal	-10.419
▁tender	-10.4194
▁domestic	-10.4198
▁flavor	-10.4198
▁university	-10.4199
▁adding	-10.4202
▁Find	-10.4209
rag	-10.421
color	-10.4215
▁attend	-10.4218
radi	-10.422
▁mal	-10.4222
▁universal	-10.4229
▁onto	-10.4234
▁Krzysztof	-10.4235
fra	-10.4237
▁Ana	-10.4237
▁perspective	-10.4238
▁Nu	-10.4242
▁assistance	-10.4244
czy	-10.4244
▁tower	-10.4245
▁wound	-10.425
▁scientist	-10.4251
▁railway	-10.426
▁EUR	-10.4265
▁intention	-10.4266
▁offering	-10.4266
▁integrated	-10.4272
No	-10.4272
▁improved	-10.4277
▁television	-10.4278
▁drain	-10.4278
stone	-10.428
▁Peter	-10.4283
▁era	-10.4287
under	-10.4287
▁stands	-10.4291
▁matches	-10.4292
cit	-10.4306
▁durable	-10.4311
▁extended	-10.4325
BA	-10.4329
▁tape	-10.433
▁prof	-10.433
▁chest	-10.4336
▁Using	-10.4337
▁Girl	-10.4339
▁euro	-10.4351
▁eggs	-10.4364
UL	-10.4366
including	-10.4367
▁characteristics	-10.4373
oper	-10.439
via	-10.439
▁USA	-10.4394
▁Club	-10.4394
▁hydro	-10.4401
poli	-10.4401
▁ceiling	-10.4402
▁fourth	-10.4409
CI	-10.441
ita	-10.4412
▁ml	-10.4414
▁Price	-10.4416
▁architecture	-10.4418
▁Fla	-10.4422
▁argue	-10.4423
NS	-10.4424
▁bake	-10.4424
▁supporting	-10.4428
▁Full	-10.4431
▁Three	-10.4438
itive	-10.4442
▁inspection	-10.4448
▁formal	-10.4453
▁Pass	-10.4458
▁rail	-10.446
ifying	-10.4463
▁activate	-10.4463
fusion	-10.4464
col	-10.4464
▁transferred	-10.4469
▁assets	-10.4471
▁hum	-10.4474
▁accompanied	-10.4479
▁mixed	-10.4481
▁recall	-10.4485
▁colleague	-10.4487
shirt	-10.449
AD	-10.4491
ecu	-10.4492
▁Those	-10.4493
▁surgery	-10.4493
▁techniques	-10.4494
▁electricity	-10.4495
▁semi	-10.4501
▁granted	-10.4503
▁regularly	-10.4512
▁distinct	-10.4515
▁sweat	-10.4516
▁unknown	-10.4517
Hz	-10.4518
▁mostly	-10.4524
chrom	-10.4524
szcz	-10.4533
rig	-10.4541
▁writer	-10.4545
▁Ur	-10.4548
▁secondary	-10.4549
▁flu	-10.4551
▁arise	-10.4554
▁smart	-10.4558
▁happening	-10.4558
▁liter	-10.4572
▁league	-10.4576
▁documentation	-10.4576
▁messages	-10.4576
OT	-10.4577
▁Ty	-10.4581
▁grass	-10.4584
direct	-10.4588
IM	-10.4592
NI	-10.46
▁virus	-10.4604
ital	-10.4604
▁hearing	-10.4606
▁graphics	-10.4607
▁telephone	-10.4609
▁literature	-10.4609
ball	-10.461
ifies	-10.4611
▁struggle	-10.4616
▁VI	-10.462
▁brake	-10.4621
▁realize	-10.4625
cate	-10.4636
known	-10.4637
▁manufacture	-10.4639
SD	-10.4639
▁correspond	-10.465
▁translation	-10.465
zar	-10.4655
▁Vol	-10.4659
▁string	-10.4664
▁invited	-10.4664
▁helpful	-10.4665
▁geo	-10.4667
Fi	-10.4679
▁Spain	-10.4685
▁accommodation	-10.4688
▁interpretation	-10.4688
▁Wo	-10.4689
▁bicycle	-10.469
▁brick	-10.4693
▁shift	-10.4693
ule	-10.4698
rad	-10.4702
▁expressed	-10.4702
▁meant	-10.4703
▁variable	-10.4705
▁Remember	-10.4715
weight	-10.4718
▁strict	-10.4718
▁AC	-10.4722
mentioned	-10.4722
oxid	-10.4723
▁phenomenon	-10.4726
▁Gar	-10.4728
▁arrest	-10.4734
▁Bri	-10.4741
look	-10.4742
ific	-10.4744
▁ratio	-10.4745
▁loud	-10.4755
▁Next	-10.4757
▁boil	-10.4758
▁musical	-10.4759
ków	-10.4765
▁technique	-10.4769
▁fate	-10.477
▁rubber	-10.4775
▁suddenly	-10.4781
▁Anti	-10.4784
▁Chan	-10.4789
▁AliExpress	-10.479
▁legend	-10.4791
aste	-10.4791
gh	-10.4791
▁trace	-10.4797
▁toilet	-10.4807
▁clock	-10.4812
bert	-10.4814
▁clothing	-10.4815
▁Parliament	-10.4818
ü	-10.4823
▁planet	-10.4824
▁concern	-10.4825
urge	-10.4827
▁Japan	-10.483
▁prize	-10.483
▁chose	-10.4832
▁introduction	-10.4834
▁carrier	-10.4839
leg	-10.4844
▁experts	-10.4846
▁protected	-10.4847
▁controlled	-10.4847
▁letters	-10.4848
▁religion	-10.485
print	-10.4853
▁CH	-10.4853
▁core	-10.4854
vision	-10.486
▁Key	-10.4863
▁efforts	-10.4864
▁opponent	-10.4864
▁NOT	-10.4865
vit	-10.4866
▁remained	-10.4867
PU	-10.4872
cker	-10.4876
▁exception	-10.4876
▁teach	-10.4877
▁score	-10.488
▁reject	-10.4881
▁mountains	-10.4882
holder	-10.4885
▁Until	-10.4886
▁suffer	-10.4893
ewicz	-10.4893
▁Stra	-10.4896
▁rare	-10.4898
▁Bal	-10.4898
▁quote	-10.4905
▁correctly	-10.4905
▁muscles	-10.4907
▁discussed	-10.491
▁regulation	-10.4911
▁watched	-10.4913
▁Test	-10.4915
▁careful	-10.4921
▁Tom	-10.4922
▁blind	-10.4923
▁library	-10.4925
▁Foundation	-10.4925
GO	-10.4929
▁portal	-10.4934
▁orange	-10.4942
▁(...)	-10.4948
▁vector	-10.4949
▁profession	-10.4956
▁lunch	-10.4961
▁consistent	-10.4962
▁observed	-10.4963
▁Africa	-10.4967
▁shoulder	-10.4971
▁Austria	-10.4973
▁Ben	-10.4974
▁component	-10.4979
▁Jack	-10.4983
▁criteria	-10.4984
▁mod	-10.4989
▁shirt	-10.4995
▁Hall	-10.5001
ancy	-10.5003
▁supplier	-10.5007
▁delicate	-10.5013
▁Francis	-10.5013
▁gained	-10.5014
▁List	-10.5024
pie	-10.5027
▁ceremony	-10.5034
▁territory	-10.5041
posed	-10.505
▁emotional	-10.5051
▁autumn	-10.5054
▁notes	-10.5055
▁decade	-10.5055
▁allowing	-10.506
He	-10.5061
▁fragment	-10.5062
▁regardless	-10.507
BC	-10.5074
▁bowl	-10.5074
▁browser	-10.508
yo	-10.508
▁unless	-10.5082
▁Research	-10.5083
▁suspect	-10.5083
▁adjustment	-10.5087
▁flour	-10.5087
▁knee	-10.5089
▁moral	-10.509
▁dish	-10.5091
cka	-10.5096
▁checked	-10.5098
▁Bru	-10.5102
▁deserve	-10.5116
▁Supreme	-10.5117
▁oven	-10.512
▁terrace	-10.5122
▁VAT	-10.5128
cia	-10.5139
▁proportion	-10.514
▁predict	-10.5145
▁discuss	-10.5146
▁officers	-10.5147
▁stood	-10.5148
bell	-10.5151
kar	-10.5151
▁motion	-10.5153
CK	-10.5157
▁Angel	-10.5158
▁aesthetic	-10.516
bie	-10.5162
▁Technology	-10.5168
▁revolution	-10.5171
▁evil	-10.5173
▁elect	-10.5178
duction	-10.5183
oz	-10.5188
▁Ven	-10.5189
▁chamber	-10.5192
▁nose	-10.5194
▁instruments	-10.5196
▁vertical	-10.5197
▁vacation	-10.5197
▁cry	-10.5197
▁wrap	-10.5198
cap	-10.5204
▁Market	-10.5205
CO	-10.5206
toxic	-10.5208
▁Prince	-10.5209
▁usual	-10.521
▁poviat	-10.521
▁Maj	-10.5211
word	-10.5213
DS	-10.5214
▁wearing	-10.5215
▁Support	-10.522
ancing	-10.5221
▁mayor	-10.5225
▁Land	-10.5227
tron	-10.5227
loc	-10.5229
▁Picture	-10.5232
ential	-10.5234
▁decorated	-10.5238
▁Marcin	-10.5242
but	-10.5244
▁^	-10.5244
ener	-10.5246
▁prop	-10.5246
ida	-10.5248
▁Indian	-10.5254
ona	-10.5265
▁segment	-10.5265
▁exceptional	-10.5268
▁caught	-10.5272
▁Cri	-10.5273
HA	-10.5274
▁Place	-10.5279
ault	-10.5279
▁apple	-10.5283
▁believed	-10.5284
▁bull	-10.5285
char	-10.5286
▁realized	-10.5287
▁brief	-10.529
▁laptop	-10.5293
▁Paweł	-10.5295
▁Hor	-10.5305
▁identity	-10.5307
bre	-10.5308
▁discovered	-10.5309
▁fri	-10.5312
mus	-10.5314
TR	-10.5314
▁satisfied	-10.5315
▁assess	-10.532
▁Meanwhile	-10.5321
▁drawn	-10.5326
▁anywhere	-10.5328
▁Community	-10.533
▁debut	-10.534
▁consist	-10.534
▁removal	-10.5355
rite	-10.5355
▁Józef	-10.5356
▁entering	-10.5364
pin	-10.5365
▁mood	-10.5366
▁pepper	-10.5368
oł	-10.5368
berry	-10.5369
▁broadcast	-10.5373
**	-10.5374
▁entity	-10.538
▁selling	-10.5381
CT	-10.5386
▁Cross	-10.5387
▁Pal	-10.5392
▁Mil	-10.5392
▁frequently	-10.5399
OD	-10.5404
▁contemporary	-10.5405
▁folder	-10.5408
▁massage	-10.5413
turn	-10.5413
▁League	-10.5413
▁facilitate	-10.5415
▁Development	-10.5415
PP	-10.5416
▁Customer	-10.5418
encies	-10.5419
rian	-10.5419
▁renovation	-10.5422
▁Festival	-10.5425
▁scratch	-10.5427
▁Dia	-10.5436
▁Directive	-10.5441
▁defendant	-10.5442
▁pregnant	-10.5443
▁England	-10.545
▁council	-10.5451
▁terminal	-10.5452
▁unable	-10.5452
SC	-10.5459
▁gym	-10.546
▁adapt	-10.5462
▁contrast	-10.5462
▁isolated	-10.5464
▁revealed	-10.5464
▁receiving	-10.5465
▁sensitive	-10.5465
KS	-10.547
rio	-10.5474
▁shipping	-10.5475
▁golden	-10.5475
▁FOR	-10.5482
▁highlight	-10.5484
▁carrying	-10.5488
eries	-10.5491
▁compensation	-10.5494
▁paragraph	-10.5511
▁Apple	-10.5522
▁Arab	-10.5523
KA	-10.5528
stimul	-10.5533
▁egg	-10.5539
▁graphic	-10.554
▁Mini	-10.5541
▁Step	-10.5542
kowska	-10.5547
star	-10.5549
▁aspects	-10.5556
PI	-10.5556
▁arrived	-10.5559
▁tend	-10.5564
▁Saint	-10.5564
field	-10.5573
EP	-10.5575
▁disappoint	-10.5577
▁cord	-10.5578
▁investigation	-10.5586
▁Pack	-10.5587
▁weapons	-10.5588
▁funny	-10.5592
▁Decor	-10.5597
▁loose	-10.5599
▁keyboard	-10.5606
dependent	-10.5611
▁Świ	-10.5612
▁concerns	-10.5613
▁cancel	-10.5621
▁keeping	-10.5633
ano	-10.5634
▁temple	-10.564
west	-10.5641
▁successfully	-10.5645
▁founded	-10.5651
▁Protection	-10.5663
▁Edit	-10.5666
▁enemy	-10.5668
▁extreme	-10.5675
▁connector	-10.5677
")	-10.5679
▁Rome	-10.5685
▁Max	-10.5687
▁Kra	-10.5689
▁decorative	-10.5692
▁observation	-10.5692
▁combat	-10.571
▁survey	-10.5722
▁Para	-10.5725
▁hill	-10.5725
▁remembered	-10.5725
▁India	-10.5726
▁affected	-10.5726
▁dispute	-10.5731
▁hyper	-10.5732
emia	-10.5733
▁creator	-10.5733
▁Korea	-10.5734
▁trail	-10.5736
▁seeds	-10.5736
een	-10.5737
▁paying	-10.574
▁comparison	-10.5741
▁grain	-10.5742
▁honey	-10.5746
▁Mother	-10.5747
▁observe	-10.5748
▁leaf	-10.575
name	-10.5753
▁household	-10.5753
▁younger	-10.5757
▁cooling	-10.576
▁wireless	-10.5767
▁gel	-10.5767
▁costume	-10.5768
▁proud	-10.5769
▁visiting	-10.5774
dress	-10.5774
▁recover	-10.5776
BO	-10.5776
▁gonna	-10.5783
▁Web	-10.5788
case	-10.579
▁kilometers	-10.579
▁Additionally	-10.5791
▁sail	-10.5793
▁resistant	-10.5794
▁Master	-10.5799
gie	-10.5809
▁guitar	-10.5809
▁Perfect	-10.581
▁Cut	-10.5812
▁commitment	-10.5818
▁spray	-10.5818
▁focused	-10.5819
▁Tur	-10.5831
▁Mc	-10.5835
▁epi	-10.5835
▁surprising	-10.5837
▁skill	-10.584
▁artificial	-10.584
▁Lub	-10.5845
▁MO	-10.5846
▁alter	-10.5852
▁agricultural	-10.5853
▁reducing	-10.5858
▁incl	-10.5865
▁launched	-10.5869
list	-10.587
▁neuro	-10.5872
▁acting	-10.5875
ii	-10.5878
▁Sex	-10.5884
▁Marek	-10.5888
▁Motor	-10.589
▁disorders	-10.5891
▁colon	-10.5892
▁AD	-10.5896
▁Gal	-10.59
▁admitted	-10.59
▁yesterday	-10.5902
▁optimal	-10.5904
▁assume	-10.5905
▁cooking	-10.5907
ecki	-10.5918
▁Ukrainian	-10.5919
▁somehow	-10.5921
▁centuries	-10.5921
▁Zi	-10.5928
▁effectiveness	-10.5932
▁Figure	-10.5934
type	-10.594
▁possess	-10.5941
IV	-10.5941
▁categories	-10.5942
empt	-10.5944
▁tips	-10.5944
unk	-10.5946
▁spec	-10.5949
▁bearing	-10.595
▁slide	-10.596
utter	-10.5961
ament	-10.5967
▁Watch	-10.597
▁obliged	-10.5973
▁worst	-10.5978
▁iPhone	-10.5981
▁crack	-10.5982
▁expansion	-10.5983
IR	-10.5984
▁calculation	-10.5987
▁hell	-10.5991
▁extraordinary	-10.5997
bul	-10.6009
ewska	-10.6018
TM	-10.602
script	-10.6025
▁Tro	-10.6026
rank	-10.6027
▁Wol	-10.6034
▁Download	-10.6037
▁stayed	-10.604
▁harmful	-10.6041
▁directed	-10.6042
▁painted	-10.6043
▁addict	-10.6044
▁foam	-10.6046
▁assumed	-10.6046
▁pray	-10.6054
▁chicken	-10.606
▁Gen	-10.6067
▁manifest	-10.6067
hand	-10.6069
▁portion	-10.607
▁involve	-10.6072
ram	-10.6074
▁exposure	-10.608
▁Personal	-10.6081
▁entirely	-10.6084
▁crazy	-10.6085
▁examine	-10.6085
▁grave	-10.6086
▁medal	-10.6089
▁terrible	-10.609
▁weigh	-10.6091
ulator	-10.6104
▁Team	-10.6123
▁turning	-10.6127
▁Mountain	-10.613
cial	-10.6133
▁independence	-10.6134
▁script	-10.6137
▁Cra	-10.614
post	-10.6145
▁nervous	-10.6148
cade	-10.6152
▁singer	-10.6154
market	-10.6157
▁sole	-10.6157
▁tap	-10.6164
▁Count	-10.6165
▁slip	-10.6169
BI	-10.6171
▁applying	-10.6173
lder	-10.6176
▁substance	-10.6178
!"	-10.618
▁consisting	-10.6181
lection	-10.6181
▁draft	-10.6197
▁texture	-10.6202
▁execution	-10.6202
▁opt	-10.6204
ź	-10.621
▁revenue	-10.6211
▁flood	-10.6212
▁Follow	-10.6217
lum	-10.6218
▁attended	-10.6218
▁Food	-10.6222
▁recovery	-10.6224
chem	-10.6229
▁Later	-10.623
▁familiar	-10.6233
metric	-10.6233
▁failed	-10.6235
▁Wy	-10.6241
▁memories	-10.6242
▁coating	-10.6244
▁Security	-10.6244
zen	-10.6249
▁emergency	-10.6253
▁stupid	-10.6253
▁preserve	-10.6253
▁integration	-10.6254
▁Arch	-10.6256
rog	-10.6257
▁emission	-10.6257
round	-10.6259
▁attractions	-10.626
▁Student	-10.6261
▁Author	-10.6266
▁wallpaper	-10.6272
▁coal	-10.6273
NC	-10.6276
▁incident	-10.6277
CC	-10.6286
rov	-10.6288
▁crystal	-10.6291
▁Kraków	-10.6292
▁template	-10.6301
▁happiness	-10.6303
▁stomach	-10.631
▁committee	-10.6319
▁sequence	-10.6323
▁complement	-10.6325
▁Mark	-10.633
▁nine	-10.6334
▁desk	-10.6336
▁index	-10.6338
mate	-10.634
▁fairy	-10.6341
▁duties	-10.6342
▁appointed	-10.6345
link	-10.6346
▁participated	-10.635
▁protective	-10.6354
▁Pie	-10.6355
▁neither	-10.6356
▁falling	-10.6358
▁mold	-10.636
SH	-10.636
▁plenty	-10.6362
ache	-10.6367
band	-10.6368
▁flexible	-10.6369
▁chip	-10.6374
▁none	-10.6375
▁Zo	-10.6375
▁Island	-10.6376
▁Besides	-10.6382
▁finance	-10.6384
▁supervision	-10.6387
▁thickness	-10.6395
▁critical	-10.6395
▁drinking	-10.6399
€	-10.6399
TO	-10.64
tail	-10.6409
▁zlotys	-10.641
▁notification	-10.6411
wood	-10.6414
▁Katowice	-10.6417
▁Egypt	-10.6421
fall	-10.6423
▁danger	-10.6424
▁holder	-10.6427
▁suspension	-10.643
▁Install	-10.643
▁Run	-10.6431
▁clip	-10.6434
ulating	-10.6435
mobil	-10.6435
▁competent	-10.6437
▁lips	-10.6437
solv	-10.6439
▁Spa	-10.644
▁Prime	-10.6444
▁tail	-10.6448
▁Hot	-10.6449
▁HP	-10.6449
▁insulation	-10.6453
▁prince	-10.6455
▁tele	-10.6456
▁Video	-10.6458
▁resort	-10.6466
ró	-10.6467
▁outstanding	-10.6468
▁strongly	-10.6468
▁glasses	-10.6473
▁encounter	-10.6475
▁shadow	-10.6475
▁intense	-10.6476
▁Modern	-10.6477
▁filling	-10.6479
▁prosecutor	-10.6482
quir	-10.6486
▁dough	-10.6491
▁Miss	-10.6492
▁emerge	-10.6494
▁PRO	-10.6495
▁protest	-10.6511
▁critic	-10.6512
▁fishing	-10.6527
▁clinical	-10.6531
▁domain	-10.6535
▁def	-10.6536
▁lady	-10.6537
▁competitive	-10.6541
▁officer	-10.6542
▁Par	-10.6542
▁chart	-10.6542
▁Szczecin	-10.6546
▁Wood	-10.6548
Mo	-10.6548
▁adapted	-10.655
quest	-10.655
fit	-10.6553
▁senior	-10.6554
▁estimated	-10.6567
▁Society	-10.6569
gno	-10.658
▁barrier	-10.658
▁meta	-10.6585
▁Cur	-10.6585
▁Wojciech	-10.6586
lau	-10.6586
▁Without	-10.6586
▁Ya	-10.659
▁Berlin	-10.6603
▁compact	-10.6603
▁Wit	-10.6608
▁losing	-10.661
▁premiere	-10.661
▁kiss	-10.6613
▁residence	-10.6614
▁Gold	-10.662
▁Try	-10.6628
▁temporary	-10.6629
▁pension	-10.6632
▁Especially	-10.6633
▁laser	-10.6634
▁assigned	-10.6637
zzle	-10.664
▁silence	-10.6641
ethyl	-10.6642
▁exposed	-10.6656
▁rarely	-10.6661
▁reward	-10.6663
▁Tele	-10.6668
▁baking	-10.6669
▁urban	-10.6669
▁abandon	-10.6671
▁Small	-10.6679
▁cheaper	-10.6686
▁innovation	-10.6687
▁Lake	-10.6688
▁newspaper	-10.6688
▁Standard	-10.669
▁diagnosis	-10.67
▁tomato	-10.6702
Co	-10.6704
▁aircraft	-10.6706
▁seriously	-10.6706
gna	-10.6712
▁David	-10.6718
▁reflection	-10.672
▁steam	-10.6721
ised	-10.6722
crypt	-10.6724
▁visitors	-10.6725
▁considering	-10.6726
▁pat	-10.6732
▁shooting	-10.6737
▁Sign	-10.674
▁destination	-10.6744
▁hip	-10.6745
▁reform	-10.6751
isation	-10.6754
▁disk	-10.6756
▁invoice	-10.6757
▁difficulties	-10.6758
▁tired	-10.6758
▁satisfaction	-10.6769
▁distribute	-10.677
▁destroyed	-10.6771
▁poll	-10.6777
▁diploma	-10.6786
▁cotton	-10.6788
▁demonstrate	-10.679
▁tension	-10.6791
liber	-10.6793
maker	-10.6799
▁excessive	-10.68
▁contractor	-10.6807
▁Turn	-10.6809
road	-10.6816
bid	-10.6818
▁recipient	-10.6821
▁devoted	-10.6822
▁liability	-10.6823
eau	-10.6823
▁Word	-10.6834
phil	-10.6836
▁batteries	-10.6842
▁equivalent	-10.6844
elec	-10.6849
▁serving	-10.6854
▁blade	-10.6856
▁Thursday	-10.6857
▁tale	-10.6858
▁Clean	-10.6858
▁nurse	-10.6859
▁drill	-10.686
▁regulate	-10.686
▁politician	-10.6861
▁restrict	-10.6863
▁distinguish	-10.6867
▁Square	-10.6869
▁fantastic	-10.6871
▁commander	-10.6873
▁calendar	-10.6875
▁greet	-10.6877
▁dried	-10.6879
gri	-10.6906
▁professor	-10.6908
▁sew	-10.6909
▁crash	-10.6919
power	-10.6927
▁Spirit	-10.6928
▁recognition	-10.6931
from	-10.6935
▁identified	-10.6937
▁everywhere	-10.6938
czyński	-10.694
▁shell	-10.694
▁moisture	-10.6943
▁variant	-10.6943
▁vice	-10.695
last	-10.6958
run	-10.6961
▁councilor	-10.6961
▁percentage	-10.6963
▁belief	-10.6965
▁stability	-10.6966
▁truly	-10.6966
▁convinced	-10.6975
▁improving	-10.6976
▁Radio	-10.6982
▁rating	-10.6983
▁provider	-10.6983
kow	-10.6985
class	-10.6986
▁approved	-10.6986
▁hypo	-10.6987
▁complicated	-10.6988
▁losses	-10.699
▁mom	-10.6991
▁cookies	-10.6995
angle	-10.6996
▁Jerzy	-10.7001
lumin	-10.7005
To	-10.7009
▁union	-10.7011
▁Nothing	-10.7011
▁committed	-10.7021
▁buyer	-10.7022
▁crown	-10.7023
▁Similar	-10.7024
▁apparent	-10.7024
pcs	-10.7028
▁max	-10.7028
▁thermo	-10.703
▁Keep	-10.703
▁vary	-10.7039
▁precisely	-10.7041
▁immediate	-10.7045
▁generate	-10.7045
lam	-10.7051
ister	-10.7053
fr	-10.7055
▁bomb	-10.7059
RM	-10.7059
▁concentrate	-10.7059
▁warning	-10.7066
titude	-10.707
▁walked	-10.7082
mir	-10.7087
EE	-10.7088
▁Name	-10.7089
▁victory	-10.7089
▁slight	-10.709
Con	-10.709
▁sec	-10.7091
▁practically	-10.7092
face	-10.7093
▁attribute	-10.7095
▁Kingdom	-10.7102
▁regret	-10.7105
berries	-10.7113
ö	-10.7119
▁inspiration	-10.7119
▁widely	-10.7123
▁soup	-10.7127
▁Middle	-10.7133
▁Model	-10.7133
▁Eve	-10.7138
▁Award	-10.7138
urb	-10.7141
state	-10.7144
™	-10.7145
▁connecting	-10.7155
▁blend	-10.7155
▁liver	-10.7162
▁Road	-10.7162
udge	-10.7162
▁kindergarten	-10.7163
▁measured	-10.7164
▁prohibit	-10.7173
▁lying	-10.7174
▁winning	-10.7175
clusion	-10.718
▁proven	-10.7181
▁leak	-10.7186
cli	-10.7188
▁accused	-10.7189
iak	-10.719
riv	-10.7191
▁injection	-10.7191
which	-10.7196
▁Change	-10.7198
▁limitation	-10.7198
▁strap	-10.7202
▁peak	-10.7205
▁excess	-10.7213
ifier	-10.7214
friend	-10.7216
▁specify	-10.7217
▁evaluation	-10.7219
life	-10.7223
▁Luc	-10.7223
Go	-10.7227
▁afternoon	-10.7229
▁kick	-10.7235
▁Ear	-10.7235
▁Tool	-10.7237
▁functionality	-10.724
▁Temp	-10.7246
▁consideration	-10.7247
how	-10.725
▁oxygen	-10.7251
▁performing	-10.7256
▁Contact	-10.7257
▁Family	-10.7257
▁entertainment	-10.7259
▁charged	-10.7262
▁warehouse	-10.7267
▁hate	-10.7271
icki	-10.7272
▁Tea	-10.7275
▁digest	-10.7277
▁split	-10.7277
▁Kor	-10.7281
mission	-10.7283
▁Mont	-10.7283
▁tasty	-10.7288
▁mounted	-10.7289
▁inhibit	-10.7296
▁vicinity	-10.7298
~	-10.7299
card	-10.7303
▁reception	-10.731
▁Engine	-10.7314
▁console	-10.7316
▁boiler	-10.7317
▁boxes	-10.7318
▁solar	-10.7319
▁laid	-10.7323
▁inspired	-10.7324
ART	-10.7327
▁sleeve	-10.7328
▁Asia	-10.7338
Ł	-10.7344
FO	-10.7345
▁duration	-10.7348
▁crew	-10.7348
▁Wednesday	-10.7354
KO	-10.736
▁programme	-10.7363
▁Commune	-10.7363
amine	-10.7368
▁grew	-10.7369
▁competitor	-10.7375
▁closely	-10.7375
▁maintaining	-10.7379
▁pleased	-10.7381
▁nutrition	-10.7383
▁contrary	-10.7385
▁Night	-10.7386
▁ensuring	-10.7387
▁Henry	-10.7387
▁chronic	-10.7389
▁trigger	-10.7391
▁trick	-10.7392
▁talked	-10.7393
▁explore	-10.7397
▁generated	-10.7399
▁childhood	-10.74
▁commonly	-10.7405
▁situated	-10.7406
TP	-10.7408
▁reaching	-10.7411
▁tooth	-10.7414
▁Application	-10.7414
▁Personalization	-10.7416
posing	-10.7419
▁acquired	-10.7423
▁motorcycle	-10.7426
▁luck	-10.7427
▁rescue	-10.7433
▁Off	-10.7434
▁Bla	-10.7438
▁Fortunately	-10.7438
▁sending	-10.7439
▁stronger	-10.7442
▁pilot	-10.7443
RP	-10.745
gress	-10.745
▁fundamental	-10.7451
▁random	-10.7456
▁awareness	-10.746
▁causing	-10.7461
▁terror	-10.7465
▁Flor	-10.7468
▁Should	-10.7469
▁Polska	-10.747
▁Karol	-10.7473
uous	-10.7476
person	-10.7476
▁tall	-10.7479
Do	-10.7479
▁whatever	-10.7484
▁undertake	-10.7487
▁actress	-10.7488
▁psycho	-10.7489
▁cute	-10.749
▁Theater	-10.7498
▁disabled	-10.7503
▁Invest	-10.7507
▁injury	-10.7509
▁Nice	-10.7511
▁Economic	-10.7515
lov	-10.7516
OM	-10.7517
▁underground	-10.7518
▁Sim	-10.7521
▁Four	-10.7526
▁ease	-10.7528
▁Buy	-10.7529
ENT	-10.7532
▁frequent	-10.7534
▁replied	-10.7536
where	-10.7539
▁aroma	-10.754
▁tag	-10.7548
▁Project	-10.7553
▁alive	-10.7553
▁heroes	-10.7559
▁Championship	-10.7561
▁bow	-10.7562
▁establishment	-10.7566
▁compete	-10.7566
▁Mari	-10.7569
corn	-10.757
▁normally	-10.757
▁Short	-10.7573
▁occurred	-10.7573
icle	-10.7574
▁Labor	-10.7577
vor	-10.7579
▁thoroughly	-10.7581
break	-10.7582
▁surrounded	-10.7583
▁impressive	-10.7583
VE	-10.7588
▁updated	-10.759
▁authorized	-10.7594
▁Arm	-10.7594
▁currency	-10.7598
▁Town	-10.7599
▁rod	-10.7602
▁adequate	-10.7604
▁Civil	-10.7605
▁Hard	-10.7618
▁measuring	-10.7631
▁wealth	-10.7635
MENT	-10.7636
▁additionally	-10.7638
▁exclude	-10.764
▁blank	-10.7644
For	-10.7648
▁twenty	-10.7655
▁calculated	-10.7655
▁retail	-10.7659
▁composed	-10.7666
▁minimal	-10.7667
mper	-10.7667
shaped	-10.7668
▁Baby	-10.7669
force	-10.767
▁hook	-10.7675
▁listening	-10.768
▁Gre	-10.768
▁salad	-10.768
owo	-10.7681
▁exact	-10.7684
ckle	-10.7685
▁Nevertheless	-10.7686
▁decor	-10.7687
owiec	-10.769
▁scheme	-10.7691
organ	-10.7693
▁refresh	-10.7705
▁Gor	-10.7706
▁faithful	-10.7706
▁gap	-10.7706
▁horizontal	-10.7708
▁authentic	-10.7709
▁outfit	-10.7711
Pro	-10.7712
shot	-10.7715
▁folk	-10.7716
▁Agreement	-10.772
▁praise	-10.7721
zewski	-10.7721
▁qualification	-10.7722
▁Sie	-10.7722
▁Travel	-10.7723
▁ultimate	-10.7724
GE	-10.7725
▁agency	-10.7727
▁poem	-10.7733
▁popularity	-10.774
▁Force	-10.774
▁Electric	-10.7741
▁Log	-10.7747
MO	-10.7755
▁Pope	-10.7755
▁royal	-10.7756
▁heaven	-10.7756
PC	-10.7765
most	-10.7765
RC	-10.7767
▁storm	-10.7788
▁distinguished	-10.7792
WA	-10.7796
▁Smart	-10.7801
▁false	-10.7803
▁exit	-10.7806
▁preferably	-10.7817
▁miles	-10.7817
▁mushroom	-10.7826
▁unlike	-10.7829
▁Prof	-10.784
mann	-10.7841
cast	-10.7842
▁DC	-10.7843
▁gradually	-10.7848
▁branches	-10.7851
▁absence	-10.7852
▁Cover	-10.7856
▁Class	-10.7857
▁Gri	-10.7858
▁explanation	-10.786
Option	-10.7865
GA	-10.7865
▁Moscow	-10.7867
plan	-10.7872
▁assure	-10.7874
▁consume	-10.7888
▁musician	-10.7889
▁Material	-10.7895
MB	-10.7895
[	-10.7895
▁arranged	-10.7897
▁stainless	-10.7897
PN	-10.7899
▁represented	-10.7903
▁studied	-10.7906
▁makeup	-10.7909
czak	-10.791
aria	-10.7913
▁seller	-10.7913
▁historic	-10.7914
oxy	-10.7915
▁Instead	-10.7916
▁printed	-10.7918
▁admire	-10.7919
therapy	-10.792
▁announcement	-10.7921
▁Tuesday	-10.7921
▁Access	-10.7921
▁framework	-10.7932
▁technological	-10.7934
▁Jacek	-10.7938
▁undergo	-10.7942
▁Store	-10.7943
equen	-10.7945
▁lifestyle	-10.7946
▁Call	-10.7946
▁Lady	-10.795
▁Help	-10.795
pra	-10.795
ux	-10.7952
▁imagination	-10.7953
▁putting	-10.7954
▁rental	-10.7955
fil	-10.7957
▁slope	-10.7957
TC	-10.7962
▁Dress	-10.797
▁personally	-10.7972
▁Szcz	-10.7982
▁bench	-10.7988
▁communicate	-10.7994
▁Would	-10.8003
▁resolve	-10.8006
▁loop	-10.8028
▁Human	-10.8029
▁warranty	-10.8029
lik	-10.803
gard	-10.8031
▁neutral	-10.8033
▁compliance	-10.8033
▁ladies	-10.8038
▁instant	-10.8039
▁robot	-10.8039
▁specialized	-10.8042
▁Line	-10.8045
▁Made	-10.8055
▁puzzle	-10.806
▁Him	-10.8062
▁deputy	-10.8064
▁twist	-10.8068
▁analog	-10.8075
▁disposal	-10.8075
▁Opera	-10.8075
▁prime	-10.8081
▁organizational	-10.8082
▁roller	-10.8086
▁strike	-10.8086
▁candle	-10.809
DR	-10.8091
chlor	-10.8092
▁cooperate	-10.8101
COM	-10.8106
www	-10.8106
ór	-10.8107
▁compare	-10.8109
▁Canada	-10.811
▁precise	-10.8121
▁initiate	-10.8126
▁personality	-10.8128
▁mutual	-10.8128
▁transparent	-10.813
▁bigger	-10.8135
▁hardware	-10.8139
ości	-10.8139
▁Through	-10.8141
▁Silesia	-10.8141
▁fence	-10.8142
▁zero	-10.8143
▁retain	-10.8143
▁estimate	-10.8144
▁gather	-10.8146
▁processor	-10.8147
▁clinic	-10.8148
▁stain	-10.8149
▁Fashion	-10.815
▁contest	-10.815
▁corresponding	-10.8151
▁silent	-10.8152
CP	-10.8155
activ	-10.8157
▁penalty	-10.8159
▁suffered	-10.816
▁harvest	-10.8161
▁trading	-10.8161
▁Give	-10.8164
▁cabinet	-10.8165
bot	-10.8166
▁PiS	-10.8169
▁knife	-10.8174
▁confident	-10.8185
▁appointment	-10.8187
▁Latin	-10.8201
▁glue	-10.8201
▁behalf	-10.8205
Friend	-10.8206
related	-10.8206
▁transition	-10.8208
confidence	-10.821
after	-10.8212
▁tip	-10.8214
▁violence	-10.8216
you	-10.8217
▁portrait	-10.8218
▁intend	-10.822
What	-10.8222
▁stimulate	-10.8226
▁Manager	-10.823
EO	-10.8237
▁gathered	-10.8254
▁Apart	-10.8258
▁Remove	-10.8263
▁Brazil	-10.8263
▁Natural	-10.8263
▁poet	-10.8263
▁Command	-10.8263
▁Britain	-10.8264
▁interpret	-10.8267
Th	-10.8268
▁capable	-10.827
▁competence	-10.827
▁removing	-10.8272
▁Michael	-10.8274
ologi	-10.8274
▁monthly	-10.8278
▁transformation	-10.8285
▁Report	-10.8286
ański	-10.8287
bud	-10.8289
▁Gór	-10.8291
▁spare	-10.8292
▁CON	-10.8293
glyc	-10.8293
▁reasonable	-10.8296
▁tries	-10.8305
▁joke	-10.831
▁Guide	-10.8314
▁abuse	-10.8314
▁charging	-10.8319
▁assist	-10.8335
▁Hello	-10.8335
▁grill	-10.834
▁adapter	-10.8344
▁employed	-10.8346
▁genetic	-10.8347
▁Tax	-10.8349
▁polish	-10.8349
▁obstacle	-10.835
▁administrator	-10.8355
▁grace	-10.8359
▁mouse	-10.8362
▁arrival	-10.8366
▁availability	-10.8366
▁medication	-10.8369
▁Góra	-10.8369
pier	-10.8369
▁coin	-10.8372
▁Film	-10.8374
immer	-10.8374
▁regime	-10.8381
▁garage	-10.8382
▁basket	-10.8386
media	-10.8389
▁Olympic	-10.8389
▁Hol	-10.8389
pack	-10.8393
▁pace	-10.8396
▁sticker	-10.8398
▁consultation	-10.8402
▁ceramic	-10.8402
screen	-10.8403
▁Pet	-10.8405
▁troops	-10.841
▁oldest	-10.841
▁slice	-10.841
▁borrow	-10.8411
▁decline	-10.8414
▁recommendations	-10.8414
▁eventually	-10.8418
▁native	-10.8419
▁ruin	-10.842
▁unnecessary	-10.8427
▁configure	-10.8427
▁approval	-10.8432
VER	-10.8434
▁Hel	-10.8435
▁creature	-10.8439
▁priority	-10.8439
▁Rock	-10.8443
▁YOU	-10.8448
▁operational	-10.8453
imp	-10.8454
▁Hence	-10.8456
▁grand	-10.8477
▁steering	-10.8482
▁Little	-10.8482
▁perceive	-10.8486
▁melt	-10.8492
▁handling	-10.8495
▁Dam	-10.8498
▁scenario	-10.8498
▁knock	-10.8498
▁Server	-10.8512
▁binding	-10.8512
▁cylinder	-10.8514
▁Could	-10.8516
▁tough	-10.8527
UM	-10.8528
▁Medical	-10.853
▁debate	-10.8539
▁Maciej	-10.8539
olic	-10.8543
▁curve	-10.8547
function	-10.855
▁relief	-10.8551
▁bonus	-10.8554
anda	-10.8555
▁Provid	-10.8556
LL	-10.8561
▁partnership	-10.8565
▁fairly	-10.8571
▁spell	-10.8571
▁gently	-10.8572
▁socket	-10.8578
hou	-10.8585
▁lemon	-10.8591
▁balcony	-10.8592
▁confess	-10.8592
▁southern	-10.8592
▁arrange	-10.8592
▁vacuum	-10.8594
▁Learn	-10.8602
▁parameter	-10.8604
▁volunteer	-10.8606
▁patch	-10.8607
▁Ham	-10.8608
▁province	-10.8613
▁specifically	-10.8613
▁cloth	-10.8613
▁phrase	-10.8617
▁academic	-10.862
▁Asian	-10.862
▁Custom	-10.8624
▁divide	-10.8633
▁crop	-10.8634
▁Eastern	-10.8636
assemble	-10.8638
▁Harry	-10.8639
▁taught	-10.8642
▁burden	-10.8643
▁arrive	-10.8645
▁Live	-10.8647
▁rush	-10.8652
▁Dzi	-10.8654
▁grab	-10.8656
▁scored	-10.8666
CR	-10.8667
▁bound	-10.8667
▁assessed	-10.8671
▁necessarily	-10.868
▁intervention	-10.8682
EU	-10.8686
▁pitch	-10.8686
▁Come	-10.8693
▁diver	-10.8697
▁Number	-10.8704
▁Forest	-10.8704
static	-10.8704
lute	-10.871
▁Pop	-10.8712
ounce	-10.8712
▁Municipal	-10.8717
▁cheer	-10.872
▁tiny	-10.8722
▁decent	-10.8723
▁pulled	-10.8729
▁dad	-10.8732
▁catalog	-10.8734
ception	-10.8734
▁spacious	-10.8741
▁Cam	-10.8744
▁illegal	-10.8745
▁Enter	-10.8747
▁lawyer	-10.8752
▁romantic	-10.8752
blo	-10.8753
▁Culture	-10.8757
▁Recently	-10.8757
▁Easy	-10.876
▁gallery	-10.8762
▁specification	-10.8763
vari	-10.8766
itu	-10.8776
▁erect	-10.8777
▁Bon	-10.8777
▁Sand	-10.878
▁discharge	-10.8786
▁fitness	-10.8786
▁plaintiff	-10.879
▁lovers	-10.8794
This	-10.8795
▁slot	-10.8804
£	-10.8807
▁Ten	-10.8815
▁Description	-10.8816
▁scream	-10.8821
▁olive	-10.8821
▁Low	-10.8822
▁conversion	-10.8823
▁sensation	-10.8828
rich	-10.8828
ć	-10.883
▁Syn	-10.8835
▁palace	-10.8835
▁operated	-10.8837
▁Nie	-10.884
▁parallel	-10.884
▁Studio	-10.8842
▁County	-10.8846
▁illness	-10.8847
▁Probably	-10.8849
▁occupation	-10.8854
▁tram	-10.8858
............	-10.8859
▁rice	-10.8863
VA	-10.8865
▁Choose	-10.8866
▁Government	-10.8866
▁Mill	-10.8872
▁indication	-10.8874
scribe	-10.8878
▁wake	-10.8879
▁rough	-10.8881
phosph	-10.8882
▁straw	-10.8885
▁busy	-10.8886
▁Garden	-10.8886
▁Close	-10.8893
▁satellite	-10.8894
charge	-10.8901
▁mounting	-10.8903
▁northern	-10.8904
▁incorrect	-10.8911
▁pants	-10.8913
▁tray	-10.8921
▁collapse	-10.8923
▁deadline	-10.8932
SU	-10.8939
▁Administrative	-10.8942
▁copper	-10.8946
▁supplied	-10.8949
▁Machine	-10.8951
mov	-10.8952
▁attach	-10.8954
▁grown	-10.8959
▁Metal	-10.8959
▁singing	-10.896
▁violation	-10.8963
▁Example	-10.8975
▁permission	-10.8985
▁shelter	-10.8985
▁eco	-10.8986
LC	-10.8989
▁psychological	-10.8993
lub	-10.8994
TT	-10.8995
claim	-10.8995
▁nerve	-10.8996
▁elastic	-10.9
umble	-10.9
▁Queen	-10.9
▁chairman	-10.9008
▁durability	-10.9009
▁trailer	-10.9014
▁Station	-10.9014
▁Summer	-10.9016
▁Case	-10.9017
▁circulation	-10.9019
▁Chro	-10.9021
▁stairs	-10.9022
code	-10.9027
SK	-10.9028
▁injured	-10.9028
▁tattoo	-10.9031
▁Royal	-10.9033
▁guilt	-10.9033
▁sharing	-10.9036
▁stuck	-10.9036
▁layout	-10.9038
▁separately	-10.9045
▁Search	-10.9047
▁auction	-10.9048
▁Share	-10.9052
UP	-10.9054
▁Voivodeship	-10.9055
▁disadvantage	-10.9057
▁parliament	-10.9062
▁Netherlands	-10.9064
▁Online	-10.9067
▁dialogue	-10.9067
łu	-10.9071
▁Ski	-10.9078
▁fasten	-10.9078
▁opposition	-10.9079
▁possibly	-10.9084
HER	-10.9085
plat	-10.9089
▁Large	-10.9091
ińska	-10.9093
▁Ref	-10.9097
▁Bluetooth	-10.9098
▁phenomena	-10.9098
flo	-10.9099
▁exhibit	-10.9099
onym	-10.9102
▁proceed	-10.9104
▁equally	-10.9104
▁champion	-10.9109
▁Organ	-10.913
▁initially	-10.9132
▁enforcement	-10.9135
▁hormone	-10.9135
▁intelligence	-10.9135
▁remuneration	-10.9137
▁absolute	-10.9142
▁Hair	-10.9143
▁grind	-10.9148
▁Mode	-10.9149
▁interrupt	-10.915
just	-10.9151
▁James	-10.9153
▁modification	-10.9153
▁Size	-10.9154
▁curtain	-10.9156
▁enormous	-10.9159
▁stylish	-10.9162
▁poison	-10.9162
▁Annex	-10.9162
▁ignore	-10.9162
▁Network	-10.9167
▁mature	-10.9173
▁jewelry	-10.9174
▁fought	-10.9184
peri	-10.9198
▁okay	-10.9198
generation	-10.9206
▁lowest	-10.921
▁pursuan	-10.9211
▁advertisement	-10.9217
▁spark	-10.9217
▁peel	-10.9225
▁Silesian	-10.923
▁manufacturing	-10.923
▁correction	-10.9232
▁Display	-10.9235
▁politics	-10.9238
▁ventilation	-10.9247
▁outlet	-10.9248
▁dimension	-10.9249
integr	-10.9261
▁African	-10.927
▁shaft	-10.9272
▁persist	-10.9277
stick	-10.9282
▁worn	-10.9286
▁preferred	-10.9292
▁diagnostic	-10.9294
▁essence	-10.9297
▁vast	-10.9297
▁DVD	-10.9299
FC	-10.9302
▁passage	-10.9303
LU	-10.9309
▁Anyone	-10.931
▁declared	-10.9313
▁fry	-10.9316
▁reverse	-10.9316
▁bulb	-10.9317
▁Record	-10.9322
posit	-10.9322
▁Beach	-10.9327
▁trim	-10.9331
▁cuisine	-10.9332
▁grip	-10.9332
▁rival	-10.9332
▁Gru	-10.9333
▁radiation	-10.9337
▁Ewa	-10.9338
▁Spring	-10.9343
▁enemies	-10.9346
▁William	-10.9347
▁Action	-10.9347
▁Secret	-10.9349
▁History	-10.9352
MC	-10.9355
łow	-10.9359
▁amendment	-10.9361
▁championship	-10.9362
worth	-10.9367
▁radical	-10.9371
▁depression	-10.9375
▁upgrade	-10.9377
▁strategic	-10.9379
ierz	-10.9381
▁headquarters	-10.9384
cam	-10.9385
Com	-10.9393
▁relating	-10.9399
▁copies	-10.9399
▁Sale	-10.9401
▁qualified	-10.9404
▁dresses	-10.9407
▁Heart	-10.9418
▁margin	-10.9422
▁Faculty	-10.9424
troph	-10.9424
▁reconstruction	-10.9431
▁pole	-10.9432
▁intellectual	-10.9434
▁determining	-10.9436
▁Photography	-10.9436
▁supplies	-10.9439
▁Environment	-10.9444
▁regulator	-10.9447
▁drum	-10.9448
▁Provincial	-10.9449
▁appliance	-10.9449
style	-10.9453
▁Samsung	-10.9457
▁</	-10.9461
▁wardrobe	-10.9462
WI	-10.9464
▁typically	-10.9466
count	-10.9467
▁Media	-10.947
▁boss	-10.9473
▁evaluate	-10.9474
▁indoor	-10.9476
▁injuries	-10.9477
yński	-10.9486
logy	-10.9496
▁Anyway	-10.95
▁Below	-10.9512
▁Body	-10.9515
▁accompany	-10.9517
▁administer	-10.9522
▁Fun	-10.9525
▁promoting	-10.9527
▁moon	-10.9532
▁Kazimierz	-10.9532
▁Join	-10.9533
▁Agnieszka	-10.9535
▁enthusiast	-10.9537
▁weapon	-10.9541
▁celebrate	-10.9544
▁Usually	-10.9545
▁Philip	-10.9545
▁sponsor	-10.9545
▁intensity	-10.9548
▁Guard	-10.9549
▁financing	-10.955
▁celebrated	-10.9551
niec	-10.9557
▁announce	-10.9562
▁wage	-10.9563
▁patent	-10.9572
▁accuracy	-10.9578
▁wishes	-10.958
▁drag	-10.9582
▁unpleasant	-10.9588
▁Micro	-10.9593
phen	-10.9599
vig	-10.9602
▁remark	-10.9606
▁healing	-10.962
rick	-10.9624
▁Katarzyna	-10.9624
▁Basic	-10.9624
<	-10.9626
▁weakness	-10.9629
▁biological	-10.9629
TRA	-10.9631
▁eastern	-10.9637
▁Still	-10.9641
▁skirt	-10.9644
plication	-10.9644
▁laboratory	-10.9645
bble	-10.9651
▁Agency	-10.9652
ALL	-10.9653
▁irre	-10.9657
pharma	-10.9658
cub	-10.9666
▁resist	-10.9667
▁norm	-10.9668
▁enrich	-10.9677
▁fitting	-10.9678
▁Sky	-10.9681
▁Brand	-10.9687
▁protocol	-10.9688
▁fifth	-10.9691
▁fashionable	-10.9692
▁arrow	-10.9692
▁Castle	-10.9696
▁Sweden	-10.9698
▁interaction	-10.9701
▁discipline	-10.9704
▁Depending	-10.9706
▁ultra	-10.9711
▁superior	-10.9711
▁membrane	-10.9716
▁nobody	-10.9718
store	-10.9718
▁communities	-10.9719
▁jam	-10.972
▁Antoni	-10.9721
▁Series	-10.9726
RY	-10.9728
▁Operation	-10.9732
▁Quick	-10.9732
▁bishop	-10.9732
▁literally	-10.9732
▁organizing	-10.9734
▁teenager	-10.9735
▁receiver	-10.9736
▁Grzegorz	-10.974
▁Woj	-10.9745
▁statue	-10.9747
▁curious	-10.9747
LY	-10.975
▁crush	-10.9753
▁programming	-10.9757
▁Together	-10.9773
titut	-10.9778
▁citizen	-10.9781
▁Digital	-10.9781
▁identification	-10.9781
▁Greece	-10.9784
▁receipt	-10.9786
▁particles	-10.9787
▁await	-10.9788
▁Professional	-10.9799
▁quantity	-10.9799
▁signature	-10.9805
▁Easter	-10.9806
▁placing	-10.9807
▁Bydgoszcz	-10.981
▁satisfy	-10.9815
▁modified	-10.9819
ół	-10.982
▁premium	-10.982
▁undoubtedly	-10.9823
▁pillow	-10.9823
▁Create	-10.9825
▁Santa	-10.9829
▁Local	-10.9829
▁Camp	-10.9833
▁brilliant	-10.9833
▁Original	-10.9839
▁Justice	-10.9841
▁invitation	-10.9842
▁patron	-10.9849
▁philosophy	-10.9849
▁Islam	-10.9851
▁foil	-10.9853
▁lease	-10.9853
▁Dutch	-10.9857
▁luxury	-10.9865
▁prompt	-10.9868
▁shine	-10.9868
▁residential	-10.9874
bla	-10.9876
▁stroke	-10.9878
zki	-10.988
▁intelligent	-10.988
▁Double	-10.988
agger	-10.9882
▁Nobody	-10.9882
▁taxpayer	-10.9894
▁slim	-10.9894
▁diagnose	-10.9896
▁George	-10.9899
III	-10.9907
▁optical	-10.9913
migrant	-10.9915
▁Chamber	-10.9916
▁mild	-10.9918
▁corporate	-10.992
▁;)	-10.9924
▁gran	-10.9933
▁ocean	-10.9933
PER	-10.9934
▁policies	-10.9938
▁File	-10.9939
▁participating	-10.9941
▁partition	-10.9942
▁recreation	-10.9946
▁inflammation	-10.9952
▁Hold	-10.9954
▁bug	-10.9955
ATE	-10.9965
▁youngest	-10.9967
▁reaches	-10.9968
í	-10.997
▁statistics	-10.9973
▁Guest	-10.9975
▁collective	-10.9979
▁zoo	-10.9981
▁associate	-10.9992
▁Box	-10.9994
▁stem	-10.9996
▁immune	-10.9997
▁tumor	-10.9997
!!!!	-10.9997
▁abilities	-11.0005
▁humor	-11.0005
▁favorable	-11.0012
▁Quality	-11.0015
▁swim	-11.0016
▁strain	-11.0017
▁vegetable	-11.002
▁Ball	-11.002
▁Account	-11.0024
▁justified	-11.0031
▁Gene	-11.0035
about	-11.004
▁Palace	-11.0042
▁classified	-11.0042
▁Often	-11.0044
▁Link	-11.0048
▁partially	-11.005
▁resemble	-11.0055
▁researchers	-11.0059
▁respectively	-11.0061
▁dirt	-11.0061
▁facing	-11.0064
▁Gift	-11.007
▁requirement	-11.0085
▁insect	-11.0086
▁organism	-11.009
AND	-11.0094
▁sphere	-11.0098
▁dirty	-11.0104
▁Common	-11.0106
▁Tadeusz	-11.0109
▁intensive	-11.0109
▁bored	-11.011
lux	-11.011
▁Winter	-11.0111
▁optional	-11.0113
▁Constitution	-11.0113
▁syndrome	-11.0114
▁float	-11.0116
▁magnetic	-11.0118
▁sacrifice	-11.0119
▁ongoing	-11.0128
▁adjustable	-11.0132
▁feedback	-11.0137
vocation	-11.0142
▁departure	-11.0149
▁stadium	-11.0152
▁drama	-11.0153
▁cemetery	-11.0157
stein	-11.0164
▁Regional	-11.0165
▁Fish	-11.0166
▁lucky	-11.0168
▁forgotten	-11.0169
▁Mak	-11.0173
▁accessible	-11.0174
▁activist	-11.0177
▁Several	-11.0179
kov	-11.0182
▁refrigerator	-11.0184
▁forecast	-11.0184
▁Turkey	-11.0185
▁neo	-11.0186
▁Primary	-11.0187
▁Bible	-11.0189
▁closing	-11.019
▁armor	-11.0195
▁college	-11.0198
▁Paint	-11.02
cou	-11.0205
▁sym	-11.0205
▁Jakub	-11.0206
▁dining	-11.0207
▁comprise	-11.0211
▁accelerate	-11.0211
▁beneficial	-11.0219
▁reply	-11.0221
▁cope	-11.0221
lateral	-11.0223
fill	-11.0231
▁Dark	-11.0235
▁cow	-11.0235
▁Front	-11.0242
▁universities	-11.0244
▁elderly	-11.0247
▁Happy	-11.0249
▁Rose	-11.0254
▁athlete	-11.0263
▁Building	-11.0266
▁stereo	-11.0268
▁legislation	-11.0271
▁Glass	-11.0271
▁snack	-11.0271
▁completion	-11.0277
school	-11.0278
▁rhythm	-11.0279
▁dropped	-11.028
▁Mix	-11.0282
▁sanct	-11.0283
▁cafe	-11.0283
mechanic	-11.0287
▁overcome	-11.0289
▁Energy	-11.0293
▁Łukasz	-11.0296
▁worldwide	-11.0296
stitution	-11.0299
▁suggestions	-11.0302
wick	-11.0309
▁banner	-11.0309
▁hazard	-11.0315
▁macro	-11.0319
▁acquisition	-11.0326
▁yield	-11.0326
#	-11.0329
▁infant	-11.0335
▁Flower	-11.0337
▁attachment	-11.0347
▁destruction	-11.0348
▁polymer	-11.0351
▁Self	-11.0353
formation	-11.0353
▁Slovak	-11.0356
▁resign	-11.0357
▁introducing	-11.0373
▁theoretical	-11.0373
▁lung	-11.0374
▁succeed	-11.0378
▁painful	-11.0382
▁lean	-11.0382
▁Frame	-11.0383
▁gender	-11.0386
▁stamp	-11.039
▁aggressive	-11.0392
▁fragrance	-11.0395
▁tourism	-11.0396
▁Golden	-11.0397
▁Third	-11.0398
▁drunk	-11.0398
odor	-11.0402
▁potatoes	-11.041
▁sprinkle	-11.0411
▁architect	-11.0423
▁guidelines	-11.0435
▁vocal	-11.0439
▁Jarosław	-11.0442
▁Policy	-11.0442
▁adaptation	-11.0448
▁Something	-11.0453
▁nuclear	-11.0458
▁Steel	-11.0463
▁relate	-11.0463
▁producing	-11.0467
ulf	-11.0474
▁considerable	-11.0477
▁restrictions	-11.0483
▁beloved	-11.0484
▁sensitivity	-11.0486
▁axis	-11.05
phon	-11.0503
▁Sound	-11.0504
▁mysterious	-11.0514
▁Classic	-11.0516
▁classification	-11.052
qual	-11.0523
self	-11.0524
▁spoil	-11.0528
▁convince	-11.0534
▁ornament	-11.0544
▁attorney	-11.0553
{	-11.0556
▁Martin	-11.0564
▁rope	-11.0566
▁unexpected	-11.057
▁Hope	-11.0579
▁abstract	-11.0593
▁massive	-11.0594
▁Competition	-11.0596
▁sink	-11.0604
▁wipe	-11.0605
▁verify	-11.0608
hara	-11.0613
▁Point	-11.0615
▁Though	-11.0615
▁assistant	-11.0616
▁compartment	-11.0618
▁diabetes	-11.0618
▁confirmation	-11.0619
▁desert	-11.0619
▁stiff	-11.0624
▁dramatic	-11.0625
▁colour	-11.0632
▁Meeting	-11.0633
▁smoking	-11.0635
▁Lower	-11.0639
ension	-11.0642
▁Battle	-11.0644
▁boast	-11.0644
▁bolt	-11.0646
▁miracle	-11.0646
▁Prze	-11.0649
▁western	-11.0652
▁Technical	-11.0652
▁cease	-11.0654
śni	-11.0655
▁Mur	-11.0667
system	-11.0668
contin	-11.067
morph	-11.0672
▁forgive	-11.0672
▁lever	-11.0674
pression	-11.0676
▁anxiety	-11.0678
▁determination	-11.0681
▁Think	-11.069
▁Eye	-11.0692
▁Muslim	-11.0692
▁Mount	-11.0702
???	-11.0702
▁Ireland	-11.0707
glass	-11.0707
▁identical	-11.0712
▁journal	-11.0716
▁referring	-11.0721
▁noble	-11.0723
▁negotiation	-11.0729
▁Contract	-11.073
▁Construction	-11.0732
▁indeed	-11.0748
▁privacy	-11.0749
▁density	-11.0749
▁neighborhood	-11.075
▁valley	-11.0752
▁resource	-11.0754
▁suck	-11.0759
▁dissolve	-11.0766
▁rural	-11.0766
▁managing	-11.0769
▁twin	-11.0769
▁courage	-11.0772
▁amended	-11.0772
▁uncle	-11.0777
▁Tech	-11.0778
▁shout	-11.0781
▁Someone	-11.0782
▁Again	-11.0784
ECT	-11.0784
▁moderate	-11.0792
▁varieties	-11.0798
▁sodium	-11.0804
▁Having	-11.081
flex	-11.0811
▁LCD	-11.0812
▁shoe	-11.0813
▁Direct	-11.0814
▁garlic	-11.0815
▁racing	-11.0816
▁ownership	-11.0817
trans	-11.0818
▁Virgin	-11.0818
▁Fair	-11.0819
▁comic	-11.0823
▁simultaneously	-11.0825
▁frost	-11.0826
▁hybrid	-11.0827
▁DNA	-11.0829
▁Toruń	-11.0833
▁employ	-11.0834
▁rehabilitation	-11.0835
▁UV	-11.0841
▁Magn	-11.0849
HT	-11.085
▁Cook	-11.0852
level	-11.0859
▁aforementioned	-11.087
×	-11.0873
▁vibration	-11.0879
▁Gdynia	-11.0882
▁gross	-11.0886
▁asleep	-11.0888
▁entries	-11.0888
▁convict	-11.0898
▁Furthermore	-11.0899
▁Text	-11.0899
▁monster	-11.0899
phan	-11.0907
▁purchasing	-11.0908
▁reservation	-11.0908
install	-11.091
▁Source	-11.0911
▁kilo	-11.0912
condition	-11.0918
▁participant	-11.0921
▁hydraulic	-11.0925
▁Sticker	-11.0928
▁boost	-11.0929
▁wings	-11.093
▁personnel	-11.0933
«	-11.0934
numer	-11.0945
▁Ła	-11.0948
And	-11.0948
niak	-11.0955
▁giant	-11.0964
▁Janusz	-11.0971
▁descend	-11.0972
▁Julia	-11.0973
▁purple	-11.0977
▁Joanna	-11.0981
▁motivation	-11.0984
▁plea	-11.0987
▁pizza	-11.0989
▁Organization	-11.0992
centr	-11.0996
▁Mobile	-11.0998
▁scrap	-11.1
▁wholesale	-11.1003
▁Małgorzata	-11.1016
▁calculate	-11.1021
▁punish	-11.1023
▁plaster	-11.1025
▁Stefan	-11.1025
▁salon	-11.104
▁Walk	-11.1041
▁pose	-11.1042
▁California	-11.1048
▁junior	-11.1048
▁conventional	-11.105
▁Woman	-11.105
▁eager	-11.1052
▁propose	-11.1052
IVE	-11.1061
▁conscious	-11.1064
LAN	-11.1064
▁upload	-11.1065
PK	-11.1065
product	-11.107
▁Fran	-11.107
▁brave	-11.1083
▁Kids	-11.1084
▁universe	-11.1087
▁Spec	-11.1093
▁interval	-11.1093
motiv	-11.1093
▁rational	-11.1098
▁policemen	-11.1099
▁Rzeszów	-11.1104
▁slogan	-11.1105
▁smiling	-11.1107
▁salary	-11.1111
▁sculpture	-11.1113
▁creativity	-11.1116
▁Daniel	-11.1117
▁kidney	-11.1134
}	-11.114
▁spouse	-11.1141
▁hire	-11.1142
▁consequence	-11.1153
▁constitution	-11.1161
▁alleged	-11.1171
▁threshold	-11.1173
▁Szym	-11.1175
▁Phone	-11.1181
▁relaxation	-11.1187
▁navigation	-11.1188
control	-11.119
▁Draw	-11.119
▁diesel	-11.1192
▁minimize	-11.1203
▁blame	-11.1204
▁regain	-11.1206
▁rotation	-11.1207
▁carpet	-11.1209
▁Library	-11.1212
▁amateur	-11.1212
▁spectacular	-11.123
▁treasure	-11.1239
▁fitted	-11.1239
▁execute	-11.1242
▁Belarus	-11.1245
▁flexibility	-11.1245
▁Chapter	-11.1245
▁Single	-11.1248
▁overwhelm	-11.1248
▁Airport	-11.1248
gregat	-11.1256
▁sewage	-11.126
️	-11.126
▁desktop	-11.1261
▁refuge	-11.1269
▁shelf	-11.1277
▁Defense	-11.1278
▁literary	-11.1285
▁Silver	-11.129
▁convey	-11.129
minute	-11.1295
▁illustrate	-11.1296
$	-11.1298
▁optimize	-11.1299
▁friendship	-11.1302
▁bush	-11.1313
▁Transport	-11.1317
▁cult	-11.1319
▁sword	-11.1319
▁Sorry	-11.1327
▁consciousness	-11.133
▁supervisor	-11.1336
▁Yo	-11.134
strong	-11.1346
▁swing	-11.1348
▁cartoon	-11.1354
▁backpack	-11.1356
▁representation	-11.1362
▁Kielce	-11.1363
▁diagram	-11.1363
▁diamond	-11.1366
▁Never	-11.137
▁evolution	-11.1372
▁tighten	-11.1375
▁Croatia	-11.1378
spire	-11.1381
▁varnish	-11.1384
▁depict	-11.1386
▁exciting	-11.1387
ä	-11.1393
course	-11.1394
▁Zbigniew	-11.1396
▁Fast	-11.1398
▁sustainable	-11.1404
▁pursue	-11.1406
▁tunnel	-11.1409
▁angry	-11.141
▁divorce	-11.1412
▁YouTube	-11.1415
▁Frank	-11.1418
▁Military	-11.1418
▁Switch	-11.1418
▁refund	-11.142
▁glance	-11.1424
▁cabin	-11.1427
▁chill	-11.1428
found	-11.1428
▁preferences	-11.1439
oń	-11.1444
▁Villa	-11.1445
inflammatory	-11.1448
▁detection	-11.1453
▁installment	-11.1453
▁Paper	-11.1458
▁calcium	-11.1458
▁precision	-11.1461
EST	-11.1462
▁tongue	-11.1465
▁substitute	-11.1467
▁palm	-11.1471
▁tractor	-11.1474
▁bold	-11.1487
▁reliability	-11.1488
▁Congress	-11.1497
▁Doctor	-11.1501
`	-11.1507
▁Training	-11.1514
▁genre	-11.152
bank	-11.1525
▁freeze	-11.1525
▁enlarge	-11.1529
▁spatial	-11.1538
▁Adjust	-11.1539
▁Additional	-11.1539
▁somewhat	-11.1541
stream	-11.1547
▁Marshal	-11.1548
▁Romania	-11.1559
▁entrust	-11.156
▁shield	-11.1566
▁cigarette	-11.1572
▁Hungary	-11.1572
▁Total	-11.1574
▁Empire	-11.1591
▁commit	-11.1596
▁flame	-11.161
▁buried	-11.1613
▁throat	-11.1616
▁physio	-11.1616
▁glow	-11.1616
▁substrate	-11.1619
digit	-11.1622
▁BMW	-11.1622
▁brew	-11.1624
▁structural	-11.1634
▁hose	-11.1637
▁Illustration	-11.1637
▁Computer	-11.1641
▁slave	-11.1646
▁hydr	-11.1648
▁centre	-11.165
ROM	-11.1651
▁Opole	-11.1655
firm	-11.1667
▁behave	-11.1669
ANT	-11.167
▁helmet	-11.1678
▁continent	-11.1678
▁acquire	-11.1683
▁variation	-11.1688
dicate	-11.1689
▁Rub	-11.1695
▁Convention	-11.1703
▁awesome	-11.1703
rrh	-11.1704
▁bubble	-11.1707
▁Space	-11.1714
▁Accessories	-11.1745
▁shame	-11.1746
szyn	-11.175
ground	-11.1761
▁boring	-11.1762
▁basically	-11.1762
▁Bishop	-11.1764
▁wool	-11.1764
▁weaken	-11.1778
▁coordinate	-11.1786
▁certified	-11.1792
▁worried	-11.1798
▁damp	-11.18
▁Visit	-11.1804
government	-11.1809
▁GDP	-11.1813
▁Lithuania	-11.1815
keeper	-11.1817
▁portfolio	-11.1824
▁Turkish	-11.183
▁Speed	-11.1845
▁Complex	-11.1854
▁Foreign	-11.1859
▁guardian	-11.1862
▁waterproof	-11.1863
▁relieve	-11.1879
▁archive	-11.1884
▁Website	-11.1888
▁waist	-11.1889
▁stove	-11.1889
▁subscription	-11.1891
▁cube	-11.1901
▁Baltic	-11.1905
▁tennis	-11.1908
▁Swedish	-11.1913
▁disaster	-11.1917
▁Background	-11.1917
guard	-11.192
▁porn	-11.1926
▁fool	-11.1931
▁sudden	-11.1932
ICE	-11.1933
▁dye	-11.1933
▁unlock	-11.1939
▁recruitment	-11.194
▁enzyme	-11.1942
▁trunk	-11.1952
▁companion	-11.1952
▁occurrence	-11.1955
▁Mateusz	-11.1965
▁pretend	-11.197
▁Białystok	-11.1971
stock	-11.1972
▁Nazi	-11.1984
▁principal	-11.1988
▁Hospital	-11.1991
▁Safety	-11.1994
▁College	-11.1997
▁derived	-11.2001
▁ecological	-11.2001
▁pupil	-11.2004
▁algorithm	-11.2007
▁fireplace	-11.2009
▁conclude	-11.201
▁Switzerland	-11.201
▁pharmaceutical	-11.201
▁Always	-11.2011
scape	-11.2011
▁mystery	-11.2017
▁Charles	-11.2023
▁peaceful	-11.2025
▁industries	-11.2027
▁inscription	-11.2027
▁civilization	-11.2035
▁capabilities	-11.2036
▁shore	-11.2037
▁hiding	-11.204
▁Apartment	-11.2041
▁Animal	-11.2043
▁enabling	-11.2046
text	-11.2047
▁render	-11.2047
▁distant	-11.2056
▁plain	-11.2057
▁Welcome	-11.2059
▁villa	-11.206
▁Trade	-11.206
▁substantial	-11.2066
▁solvent	-11.2069
▁babies	-11.2069
▁dense	-11.207
▁emphasis	-11.2072
▁undertaking	-11.2072
blast	-11.2077
▁rip	-11.2078
▁acceptance	-11.208
▁alloy	-11.2101
connect	-11.2101
▁humidity	-11.2102
▁bump	-11.2102
▁flaw	-11.2104
▁Taking	-11.211
▁grandmother	-11.2112
▁vital	-11.2115
▁expenditure	-11.2115
▁dessert	-11.2115
▁separation	-11.2118
▁Consider	-11.2119
▁cartridge	-11.2121
▁Style	-11.2124
▁antenna	-11.2141
QU	-11.2143
▁rust	-11.2144
▁occupied	-11.2144
▁Instagram	-11.2151
▁consistency	-11.2152
▁deploy	-11.2154
▁Mexico	-11.2158
▁Norway	-11.2161
▁Whether	-11.2164
▁fridge	-11.2177
AGE	-11.2182
title	-11.2185
▁Protect	-11.2188
▁Express	-11.219
▁gesture	-11.2197
▁gloves	-11.2214
▁playground	-11.2216
ień	-11.2225
Activ	-11.2227
▁oppose	-11.2238
▁gland	-11.224
▁modify	-11.2242
▁agencies	-11.2244
▁fiction	-11.2245
▁Louis	-11.2251
▁corridor	-11.2254
▁accomplish	-11.2267
▁herbs	-11.2267
▁Władysław	-11.227
▁Effect	-11.2274
▁Overall	-11.2284
▁uncertain	-11.229
▁styling	-11.2294
SKI	-11.2298
efficient	-11.23
▁Bulgaria	-11.2304
▁Champion	-11.2309
▁involvement	-11.2312
▁disconnect	-11.2313
▁microphone	-11.2325
▁completing	-11.2331
▁tune	-11.2332
▁accent	-11.2333
▁annoy	-11.2335
▁cheat	-11.2336
▁Division	-11.2339
eptic	-11.2346
▁notebook	-11.2349
▁Professor	-11.2354
▁declare	-11.2355
▁headphones	-11.2358
▁educate	-11.2358
▁molecule	-11.2364
▁disorder	-11.2368
standing	-11.237
▁plum	-11.2374
▁Otherwise	-11.2382
▁instruction	-11.2385
sensiti	-11.2388
▁gall	-11.2393
▁blonde	-11.2398
▁merge	-11.2403
▁shake	-11.2407
space	-11.2408
▁Financial	-11.2418
▁boyfriend	-11.2419
▁Simple	-11.2423
▁steal	-11.2426
▁exploit	-11.2428
▁synthetic	-11.2432
▁worship	-11.2432
▁casual	-11.2435
▁sunny	-11.2441
▁necessity	-11.2445
Script	-11.2452
▁ruling	-11.2453
▁ritual	-11.2462
▁Vistula	-11.2472
▁Apparently	-11.2476
▁wander	-11.2476
▁Kowal	-11.2477
▁Further	-11.2496
▁communist	-11.2503
▁hairstyle	-11.2505
▁poetry	-11.2506
▁tactic	-11.2511
▁embodiment	-11.2517
quot	-11.2518
▁incorporate	-11.2527
TOR	-11.2535
▁clamp	-11.2541
▁naked	-11.2541
▁animation	-11.2541
▁instructor	-11.2551
▁dancing	-11.2552
discrimina	-11.2555
▁excited	-11.2561
▁Radom	-11.2566
▁resident	-11.2567
▁poverty	-11.2571
▁welding	-11.2572
▁outcome	-11.2574
▁frozen	-11.2578
▁dragon	-11.2586
▁Partner	-11.2592
▁absorption	-11.2595
▁capsule	-11.2599
▁Complete	-11.26
▁Almost	-11.2605
▁accumulate	-11.2606
▁verification	-11.2609
▁cheek	-11.2623
▁Register	-11.2631
▁advisor	-11.264
▁Syria	-11.2647
▁goodbye	-11.2647
▁privilege	-11.2654
▁adhesive	-11.2661
▁Translation	-11.2663
▁shelves	-11.2678
▁eternal	-11.2679
▁serial	-11.2679
▁routine	-11.2689
▁hydrogen	-11.2695
▁Important	-11.2703
▁mortgage	-11.2706
carbon	-11.2711
▁architectural	-11.2728
▁antibiotic	-11.2731
▁hug	-11.2734
▁silicone	-11.2738
▁loyal	-11.2741
▁grateful	-11.2752
▁pilgrim	-11.2755
▁tablespoon	-11.2759
▁alert	-11.2771
▁perception	-11.2772
▁leadership	-11.2774
▁Cultural	-11.278
▁offense	-11.278
synchro	-11.278
▁toddler	-11.2783
▁Already	-11.2787
▁respondents	-11.279
▁upcoming	-11.2798
▁adverse	-11.2799
▁spokesman	-11.2801
▁disclose	-11.2801
▁Sejm	-11.2811
▁pond	-11.2812
▁snap	-11.2828
▁perpetrator	-11.2832
▁Automatic	-11.2834
▁replacing	-11.2839
▁weird	-11.2841
▁decorate	-11.285
▁diverse	-11.2854
▁cluster	-11.2857
▁adjacent	-11.2864
▁Ultra	-11.2864
▁summary	-11.2871
▁DIY	-11.2871
▁strategies	-11.2875
▁peasant	-11.2875
fluor	-11.2875
▁silk	-11.2875
▁qualify	-11.2876
▁chapel	-11.2881
▁Rafał	-11.2885
▁Screen	-11.2889
▁Manual	-11.2889
▁complications	-11.2892
▁PVC	-11.29
▁distort	-11.2903
▁tragic	-11.2912
▁incredibly	-11.2914
▁historian	-11.2914
▁Section	-11.2928
▁agriculture	-11.2946
▁Communication	-11.2949
▁irregular	-11.296
▁bloom	-11.2964
▁Camera	-11.2965
▁investigate	-11.2967
▁soldier	-11.2974
▁barrel	-11.2989
▁sustain	-11.3005
▁involving	-11.3007
▁Edward	-11.301
▁suicide	-11.3017
▁generator	-11.3039
▁dinosaur	-11.3043
“	-11.3045
front	-11.3055
SQL	-11.3056
▁implant	-11.3057
▁retirement	-11.3061
▁horror	-11.3068
▁funeral	-11.3068
▁expedition	-11.3071
▁coincide	-11.3075
▁Finance	-11.3082
▁mobility	-11.3082
▁submitting	-11.3086
▁Device	-11.3093
▁sketch	-11.3093
▁metabolism	-11.3108
▁Condition	-11.3115
ometer	-11.3116
▁allocated	-11.3118
▁Update	-11.3125
▁statutory	-11.3129
▁Lviv	-11.3129
▁illuminate	-11.3129
▁saint	-11.313
▁Dąb	-11.3135
▁Kamil	-11.314
▁scandal	-11.3144
walk	-11.3145
▁burst	-11.3159
▁infected	-11.3164
▁Galaxy	-11.3166
▁Mediterranean	-11.3166
▁Junior	-11.3166
▁punishment	-11.3168
▁crucial	-11.3173
▁fatigue	-11.3173
▁Thomas	-11.3173
▁amplifier	-11.3184
▁issuing	-11.3188
plicit	-11.3197
▁compromise	-11.3199
▁cruise	-11.3199
▁pencil	-11.3199
▁piano	-11.3199
▁torque	-11.3205
▁statistical	-11.321
▁heavily	-11.3221
▁utility	-11.3224
▁Electronic	-11.3239
▁explosion	-11.3239
▁ribbon	-11.3239
▁monastery	-11.3246
▁Administration	-11.3261
▁Joseph	-11.3265
▁Child	-11.3268
▁combining	-11.3268
▁Battery	-11.3272
▁contradict	-11.3276
▁voivodeship	-11.3276
▁altar	-11.3277
puls	-11.3279
▁arouse	-11.329
©	-11.3298
▁Software	-11.3298
Recommend	-11.3316
▁automotive	-11.3324
click	-11.3326
▁Province	-11.3335
▁Barcelona	-11.3339
▁residue	-11.3346
▁vintage	-11.3346
source	-11.3361
▁facade	-11.337
▁font	-11.3378
▁WiFi	-11.3383
▁Restaurant	-11.3387
▁breach	-11.3387
▁Deputy	-11.3394
▁Monitor	-11.3398
▁Clear	-11.3401
▁nutrients	-11.3402
stress	-11.3404
▁Location	-11.3413
▁acute	-11.3419
▁headache	-11.3419
▁reservoir	-11.342
▁Blood	-11.342
▁termination	-11.3424
▁cooperative	-11.3427
▁Hungarian	-11.3428
▁squad	-11.3443
▁bride	-11.3444
▁Barbara	-11.3447
▁pride	-11.3452
▁bronze	-11.3454
▁Vienna	-11.3458
▁respiratory	-11.3462
▁tragedy	-11.3462
о	-11.3465
▁Belgium	-11.348
▁stabilize	-11.348
▁medieval	-11.3484
▁Brother	-11.3484
▁spoon	-11.3492
▁fraction	-11.3496
▁motivate	-11.3498
▁collaboration	-11.3503
▁Process	-11.3512
▁Function	-11.3516
resistant	-11.3521
„	-11.3526
▁Mercedes	-11.3526
▁convenience	-11.3533
▁Enjoy	-11.3533
▁jealous	-11.3537
▁combustion	-11.3548
»	-11.3552
▁criticism	-11.3553
▁Available	-11.3556
▁Indeed	-11.3566
▁Okay	-11.3568
▁confused	-11.3571
▁subscribe	-11.3581
IST	-11.3584
▁Procedure	-11.3594
▁Azure	-11.3605
▁Mariusz	-11.3606
▁Conference	-11.3609
▁incredible	-11.3621
▁physician	-11.3621
▁lymph	-11.3621
▁survival	-11.3632
▁knit	-11.3632
▁Valley	-11.3634
▁perfume	-11.3636
▁fraud	-11.3636
▁hygiene	-11.3663
▁drove	-11.367
operative	-11.3671
▁vaccine	-11.3682
▁Plastic	-11.3682
▁Client	-11.3697
▁gadget	-11.3705
▁swallow	-11.3705
▁Initially	-11.3728
▁Include	-11.3732
▁sauna	-11.3732
▁forbidden	-11.3736
▁Prussia	-11.3736
▁detach	-11.3736
▁varied	-11.3738
▁reputation	-11.3743
▁Affairs	-11.3747
▁achieving	-11.3747
▁Platform	-11.3759
▁luggage	-11.3767
▁confront	-11.3769
▁shampoo	-11.377
▁logistics	-11.3771
▁intersection	-11.3774
wheel	-11.3784
▁barely	-11.3787
effective	-11.3791
▁cottage	-11.3794
▁Swiss	-11.3798
clusive	-11.3803
▁Washington	-11.3805
▁seminar	-11.3812
▁Olsztyn	-11.3817
▁Ultimate	-11.3817
▁forgot	-11.3818
▁psychologist	-11.3837
▁girlfriend	-11.3839
▁submission	-11.3839
▁terminate	-11.3843
▁Global	-11.3844
▁thumb	-11.3852
▁Brown	-11.3855
▁prevail	-11.3856
▁magnet	-11.3859
▁acoustic	-11.386
▁typ	-11.3864
▁raising	-11.3864
▁Death	-11.3864
▁gala	-11.3866
scale	-11.3867
▁renovated	-11.3876
▁grape	-11.3881
▁Document	-11.3883
▁Treatment	-11.3887
▁alien	-11.3891
▁horn	-11.3898
▁Magic	-11.3899
▁decisive	-11.3907
▁helicopter	-11.3907
▁twelve	-11.3915
▁Interestingly	-11.3919
▁neglect	-11.3923
▁Capital	-11.3924
▁convention	-11.3924
▁Holiday	-11.3927
▁composer	-11.3927
▁bleeding	-11.3931
▁magnesium	-11.3934
▁heritage	-11.397
▁conquer	-11.3974
▁coconut	-11.3978
▁glory	-11.3979
▁bracket	-11.3986
▁calories	-11.3994
▁recruit	-11.3997
▁Georgia	-11.3998
▁prestigious	-11.4002
▁admission	-11.4003
▁squeeze	-11.4006
▁kingdom	-11.4023
▁bracelet	-11.4029
▁allergic	-11.4033
Cause	-11.404
▁expire	-11.4042
→	-11.4053
▁violate	-11.407
▁socio	-11.4073
▁rinse	-11.4079
▁opera	-11.408
▁advertise	-11.4083
▁Language	-11.4085
▁indicating	-11.4097
Pomeranian	-11.4106
▁democracy	-11.4113
▁ingredient	-11.4114
▁Scott	-11.4133
▁intimate	-11.4135
▁testimony	-11.4141
▁Dream	-11.4142
▁demonstration	-11.4149
▁Official	-11.4161
▁Yellow	-11.4165
▁Alexander	-11.4177
▁surname	-11.419
▁ministry	-11.4194
▁tolerance	-11.4194
▁facial	-11.4208
▁pollution	-11.4214
▁elite	-11.4216
▁dominant	-11.4218
▁matrix	-11.4222
▁Previous	-11.4234
▁Universal	-11.4234
▁Magdalena	-11.4242
▁harmony	-11.4254
▁brutal	-11.4258
▁Denmark	-11.4267
▁diversity	-11.4271
▁inventory	-11.4275
▁elsewhere	-11.4281
▁servant	-11.4281
▁pulse	-11.4284
▁Method	-11.4291
▁whisper	-11.4307
▁Features	-11.432
▁meadow	-11.434
▁genuine	-11.4352
▁Twitter	-11.4361
▁balloon	-11.4381
▁unemployment	-11.4385
▁Canadian	-11.4394
▁executive	-11.4398
▁activation	-11.4398
▁orientation	-11.4402
▁Fresh	-11.4402
▁triangle	-11.4407
▁wisdom	-11.441
▁Exchange	-11.441
▁reinforced	-11.4414
▁Wheel	-11.4414
▁ortho	-11.4418
▁PDF	-11.4419
▁dare	-11.4428
▁Gallery	-11.4435
▁corrosion	-11.4451
▁fantasy	-11.4451
▁dialog	-11.4454
▁Studies	-11.4464
▁gaze	-11.4467
▁curiosity	-11.4472
▁easiest	-11.4476
▁migration	-11.448
▁Federation	-11.4485
▁Regardless	-11.4489
▁nourish	-11.4493
▁physics	-11.4497
▁multimedia	-11.4499
▁Question	-11.4501
▁glucose	-11.4514
▁Compare	-11.4518
▁Monika	-11.4522
▁gloss	-11.4527
▁pharmacy	-11.4531
▁necklace	-11.4535
▁collision	-11.4539
▁strive	-11.4549
▁Norwegian	-11.4551
▁pedestrian	-11.4551
▁prescribed	-11.4551
▁Private	-11.4564
▁distributor	-11.4564
·	-11.4572
▁tendency	-11.4573
▁voting	-11.4582
▁accommodate	-11.4585
▁pale	-11.4588
▁apparatus	-11.4589
▁thirty	-11.4598
▁Specific	-11.46
▁precede	-11.4601
financed	-11.4601
▁patience	-11.461
▁threw	-11.4614
▁WITH	-11.4615
dimensional	-11.4639
▁Ranked	-11.4648
▁petrol	-11.465
▁deceased	-11.4652
▁Yeah	-11.4652
▁pixel	-11.4652
▁dentist	-11.4662
▁surgical	-11.4665
▁dominated	-11.4678
▁pedal	-11.4681
▁condemn	-11.4682
▁sandwich	-11.4682
▁subordinate	-11.4691
▁trauma	-11.4695
▁silhouette	-11.4699
▁Portugal	-11.4703
▁punch	-11.4708
▁scholarship	-11.4712
▁surf	-11.4727
▁rumor	-11.4732
▁shiny	-11.4734
▁Certainly	-11.4737
▁Traditional	-11.4742
scopic	-11.4743
▁reimburse	-11.475
▁corporation	-11.4754
▁rib	-11.4756
▁temper	-11.4765
ferenc	-11.4767
▁Explore	-11.4776
▁ethnic	-11.478
consuming	-11.4787
▁irritation	-11.4802
▁Assembly	-11.481
▁terrain	-11.481
▁Character	-11.4814
▁deprive	-11.4814
while	-11.4819
▁Measure	-11.4823
ość	-11.4828
▁unlimited	-11.4832
▁Richard	-11.4832
▁Amazon	-11.4836
▁qualities	-11.484
▁Mikołaj	-11.4849
▁suppress	-11.485
▁significance	-11.487
▁vapor	-11.4875
▁Different	-11.4879
▁incurred	-11.4879
▁blur	-11.4884
▁[…]	-11.4905
▁flesh	-11.4906
▁Madrid	-11.4914
▁casino	-11.4918
▁Present	-11.4923
▁Clinic	-11.494
▁pearl	-11.4945
▁boundaries	-11.4949
▁derivative	-11.4962
▁Victoria	-11.4966
▁lounge	-11.4968
▁preliminary	-11.497
public	-11.4973
▁Honor	-11.4975
▁analyzing	-11.4983
▁volleyball	-11.4983
▁clutch	-11.4988
▁allegation	-11.4988
▁counsel	-11.4997
▁Experience	-11.5005
▁mattress	-11.5005
▁Portuguese	-11.5014
▁Suddenly	-11.5014
▁certification	-11.5018
▁democratic	-11.5018
▁dismissed	-11.5018
▁irritate	-11.5019
▁bulk	-11.502
▁envelope	-11.5027
▁cushion	-11.5027
▁Remote	-11.5027
▁Cloud	-11.5036
▁Football	-11.5045
▁coordination	-11.5045
▁Wireless	-11.5054
▁Adapt	-11.5059
▁divine	-11.5067
▁antioxidant	-11.5071
▁retreat	-11.5072
▁Yesterday	-11.5076
▁dignity	-11.5085
▁Kitchen	-11.5085
▁Linux	-11.5085
▁Leave	-11.509
▁Orthodox	-11.5098
current	-11.5104
▁shaping	-11.5107
▁:-)	-11.5112
▁hammer	-11.5125
▁seamless	-11.5129
▁queue	-11.5129
natural	-11.5146
▁Treaty	-11.5147
▁basketball	-11.5147
▁Suitable	-11.5151
▁abnormal	-11.5155
▁Ocean	-11.5156
▁cruel	-11.5164
▁Vietnam	-11.5178
▁Between	-11.5196
▁apologize	-11.52
▁sophisticated	-11.52
PORT	-11.5203
building	-11.5205
▁interfere	-11.5208
century	-11.5209
▁symptom	-11.5222
▁deliberate	-11.5222
▁insulin	-11.5227
▁liabilities	-11.5231
▁Inspector	-11.5231
▁floral	-11.524
▁gaming	-11.5241
▁provincial	-11.5249
▁receptor	-11.5249
▁stunning	-11.5254
length	-11.5264
▁controversial	-11.5276
▁struggling	-11.5276
▁interference	-11.529
▁Częstochowa	-11.5294
▁persuade	-11.5294
▁Wonder	-11.5299
▁adhere	-11.5299
▁inspector	-11.5301
Lithuanian	-11.5302
▁cholesterol	-11.5308
▁disagree	-11.5308
▁urgent	-11.5313
▁Parents	-11.5317
▁Solid	-11.532
family	-11.5324
▁hierarch	-11.5335
▁Leather	-11.5339
▁chimney	-11.5349
▁closure	-11.5349
▁cathedral	-11.5353
▁Irish	-11.5355
▁sausage	-11.5358
▁feather	-11.5362
▁eligible	-11.5367
▁temporarily	-11.5367
▁arbitra	-11.5367
▁NATO	-11.5371
▁horizon	-11.5374
▁jeans	-11.5376
▁Architect	-11.538
▁nitrogen	-11.5389
▁invisible	-11.5389
▁maneuver	-11.5394
▁Problem	-11.5403
▁array	-11.541
▁fertilizer	-11.5412
▁potassium	-11.5417
▁thrill	-11.5421
dispers	-11.5432
▁penetrate	-11.5435
▁cabbage	-11.544
▁liberal	-11.546
▁Advanced	-11.5467
▁medicinal	-11.5467
▁ambitious	-11.5472
▁sneak	-11.5472
▁motif	-11.549
▁cultivation	-11.5499
▁radiator	-11.5509
punctu	-11.5513
▁Strong	-11.5523
▁Dariusz	-11.5532
▁Jerusalem	-11.5532
▁Hitler	-11.5541
▁transplant	-11.555
▁plasma	-11.5551
▁disinfect	-11.5555
▁rifle	-11.5559
▁damn	-11.556
privat	-11.5564
▁polite	-11.5564
▁guidance	-11.5573
▁microwave	-11.5578
▁mercy	-11.5578
▁grandfather	-11.5582
▁Driver	-11.5588
▁Iraq	-11.5605
▁thorough	-11.5612
oriented	-11.5612
▁spontaneous	-11.5624
▁Details	-11.5625
▁beverage	-11.5634
▁Breakfast	-11.5648
Biała	-11.5649
▁requiring	-11.5657
▁synthesis	-11.5662
▁assignment	-11.5662
▁Vilnius	-11.5666
▁Ryszard	-11.5671
▁torture	-11.5675
▁carriage	-11.5676
▁Storage	-11.5676
▁disgust	-11.5685
▁deficiency	-11.569
▁disabilities	-11.5699
▁moisturize	-11.5699
▁swelling	-11.5699
▁furnace	-11.5704
▁wrinkles	-11.5718
▁rotate	-11.5728
▁Content	-11.5728
escence	-11.5746
▁Amendment	-11.5765
▁carbohydrate	-11.577
▁cocktail	-11.577
▁clause	-11.577
▁Scandinavia	-11.5784
▁zipper	-11.5784
▁sponge	-11.5784
▁Brussels	-11.5789
▁substantive	-11.5794
▁Prize	-11.5794
^	-11.7015
Ż	-11.7152
|	-12.1117
‘	-12.71
§	-12.8658
•	-13.9197
