<unk>	0
<s>	0
</s>	0
<0x00>	0
<0x01>	0
<0x02>	0
<0x03>	0
<0x04>	0
<0x05>	0
<0x06>	0
<0x07>	0
<0x08>	0
<0x09>	0
<0x0A>	0
<0x0B>	0
<0x0C>	0
<0x0D>	0
<0x0E>	0
<0x0F>	0
<0x10>	0
<0x11>	0
<0x12>	0
<0x13>	0
<0x14>	0
<0x15>	0
<0x16>	0
<0x17>	0
<0x18>	0
<0x19>	0
<0x1A>	0
<0x1B>	0
<0x1C>	0
<0x1D>	0
<0x1E>	0
<0x1F>	0
<0x20>	0
<0x21>	0
<0x22>	0
<0x23>	0
<0x24>	0
<0x25>	0
<0x26>	0
<0x27>	0
<0x28>	0
<0x29>	0
<0x2A>	0
<0x2B>	0
<0x2C>	0
<0x2D>	0
<0x2E>	0
<0x2F>	0
<0x30>	0
<0x31>	0
<0x32>	0
<0x33>	0
<0x34>	0
<0x35>	0
<0x36>	0
<0x37>	0
<0x38>	0
<0x39>	0
<0x3A>	0
<0x3B>	0
<0x3C>	0
<0x3D>	0
<0x3E>	0
<0x3F>	0
<0x40>	0
<0x41>	0
<0x42>	0
<0x43>	0
<0x44>	0
<0x45>	0
<0x46>	0
<0x47>	0
<0x48>	0
<0x49>	0
<0x4A>	0
<0x4B>	0
<0x4C>	0
<0x4D>	0
<0x4E>	0
<0x4F>	0
<0x50>	0
<0x51>	0
<0x52>	0
<0x53>	0
<0x54>	0
<0x55>	0
<0x56>	0
<0x57>	0
<0x58>	0
<0x59>	0
<0x5A>	0
<0x5B>	0
<0x5C>	0
<0x5D>	0
<0x5E>	0
<0x5F>	0
<0x60>	0
<0x61>	0
<0x62>	0
<0x63>	0
<0x64>	0
<0x65>	0
<0x66>	0
<0x67>	0
<0x68>	0
<0x69>	0
<0x6A>	0
<0x6B>	0
<0x6C>	0
<0x6D>	0
<0x6E>	0
<0x6F>	0
<0x70>	0
<0x71>	0
<0x72>	0
<0x73>	0
<0x74>	0
<0x75>	0
<0x76>	0
<0x77>	0
<0x78>	0
<0x79>	0
<0x7A>	0
<0x7B>	0
<0x7C>	0
<0x7D>	0
<0x7E>	0
<0x7F>	0
<0x80>	0
<0x81>	0
<0x82>	0
<0x83>	0
<0x84>	0
<0x85>	0
<0x86>	0
<0x87>	0
<0x88>	0
<0x89>	0
<0x8A>	0
<0x8B>	0
<0x8C>	0
<0x8D>	0
<0x8E>	0
<0x8F>	0
<0x90>	0
<0x91>	0
<0x92>	0
<0x93>	0
<0x94>	0
<0x95>	0
<0x96>	0
<0x97>	0
<0x98>	0
<0x99>	0
<0x9A>	0
<0x9B>	0
<0x9C>	0
<0x9D>	0
<0x9E>	0
<0x9F>	0
<0xA0>	0
<0xA1>	0
<0xA2>	0
<0xA3>	0
<0xA4>	0
<0xA5>	0
<0xA6>	0
<0xA7>	0
<0xA8>	0
<0xA9>	0
<0xAA>	0
<0xAB>	0
<0xAC>	0
<0xAD>	0
<0xAE>	0
<0xAF>	0
<0xB0>	0
<0xB1>	0
<0xB2>	0
<0xB3>	0
<0xB4>	0
<0xB5>	0
<0xB6>	0
<0xB7>	0
<0xB8>	0
<0xB9>	0
<0xBA>	0
<0xBB>	0
<0xBC>	0
<0xBD>	0
<0xBE>	0
<0xBF>	0
<0xC0>	0
<0xC1>	0
<0xC2>	0
<0xC3>	0
<0xC4>	0
<0xC5>	0
<0xC6>	0
<0xC7>	0
<0xC8>	0
<0xC9>	0
<0xCA>	0
<0xCB>	0
<0xCC>	0
<0xCD>	0
<0xCE>	0
<0xCF>	0
<0xD0>	0
<0xD1>	0
<0xD2>	0
<0xD3>	0
<0xD4>	0
<0xD5>	0
<0xD6>	0
<0xD7>	0
<0xD8>	0
<0xD9>	0
<0xDA>	0
<0xDB>	0
<0xDC>	0
<0xDD>	0
<0xDE>	0
<0xDF>	0
<0xE0>	0
<0xE1>	0
<0xE2>	0
<0xE3>	0
<0xE4>	0
<0xE5>	0
<0xE6>	0
<0xE7>	0
<0xE8>	0
<0xE9>	0
<0xEA>	0
<0xEB>	0
<0xEC>	0
<0xED>	0
<0xEE>	0
<0xEF>	0
<0xF0>	0
<0xF1>	0
<0xF2>	0
<0xF3>	0
<0xF4>	0
<0xF5>	0
<0xF6>	0
<0xF7>	0
<0xF8>	0
<0xF9>	0
<0xFA>	0
<0xFB>	0
<0xFC>	0
<0xFD>	0
<0xFE>	0
<0xFF>	0
.	-3.18927
▁the	-3.21933
s	-3.3586
,	-3.46998
▁	-3.90779
▁of	-3.97373
▁to	-3.99235
▁and	-3.99682
▁a	-4.05946
▁in	-4.29033
▁is	-4.72056
▁for	-4.91518
0	-4.91939
-	-4.9776
1	-4.99373
▁i	-5.00265
▁it	-5.00397
▁that	-5.07405
▁you	-5.19285
▁with	-5.20464
2	-5.29316
▁on	-5.29644
ing	-5.29652
ed	-5.29902
t	-5.30195
▁be	-5.36018
'	-5.37355
d	-5.43944
▁this	-5.47812
▁are	-5.48835
’	-5.51156
▁was	-5.56228
▁as	-5.64382
▁(	-5.7086
▁or	-5.8145
▁not	-5.81865
▁have	-5.83065
▁at	-5.83766
▁from	-5.85044
▁by	-5.86468
3	-5.875
5	-5.89522
▁we	-5.90316
▁he	-5.91561
▁can	-5.91611
▁an	-5.9632
:	-5.97241
)	-6.0434
4	-6.06037
9	-6.07318
▁your	-6.07958
▁will	-6.08686
▁but	-6.09967
ly	-6.11851
?	-6.13521
er	-6.13614
m	-6.16946
▁they	-6.22667
▁all	-6.23084
6	-6.26507
8	-6.28154
y	-6.29155
▁has	-6.29676
a	-6.32149
▁one	-6.32775
e	-6.36428
7	-6.38276
▁if	-6.40481
▁so	-6.40565
▁his	-6.40845
i	-6.40891
▁there	-6.42777
▁my	-6.46481
▁do	-6.46831
▁which	-6.50637
▁more	-6.52009
re	-6.52067
▁their	-6.53766
▁“	-6.53821
▁also	-6.54932
▁what	-6.55747
n	-6.58951
▁were	-6.59268
r	-6.59406
▁time	-6.60173
▁about	-6.60836
▁when	-6.60982
al	-6.61336
▁out	-6.62852
▁up	-6.63957
▁no	-6.68654
▁"	-6.71062
▁she	-6.72489
c	-6.72493
▁had	-6.73282
▁me	-6.74052
▁her	-6.75275
▁our	-6.7815
▁who	-6.8075
▁like	-6.80796
▁been	-6.81019
▁new	-6.81237
b	-6.83347
▁other	-6.83423
/	-6.83453
es	-6.84158
!	-6.86917
in	-6.89422
;	-6.91473
o	-6.919
▁would	-6.92417
▁just	-6.93551
▁some	-6.93676
▁how	-6.94351
▁re	-6.95879
g	-6.96686
or	-6.97499
▁these	-6.98537
p	-7.00186
▁only	-7.00296
▁into	-7.02327
▁may	-7.03991
▁over	-7.04046
▁them	-7.05237
▁first	-7.06053
▁people	-7.06427
▁after	-7.07291
▁than	-7.07589
▁-	-7.09338
th	-7.10017
▁any	-7.10456
▁very	-7.10827
▁get	-7.11504
▁two	-7.11593
▁use	-7.13022
l	-7.13547
f	-7.14492
▁well	-7.16933
▁said	-7.18693
▁work	-7.19256
▁most	-7.20379
k	-7.21023
ve	-7.22443
▁good	-7.22452
▁don	-7.24123
▁make	-7.24382
▁now	-7.28504
▁then	-7.29231
ll	-7.2953
).	-7.30648
▁should	-7.31055
▁its	-7.31104
▁us	-7.31799
h	-7.31872
 	-7.33508
▁know	-7.33815
▁many	-7.34194
”	-7.36598
▁see	-7.37224
▁such	-7.37241
▁him	-7.37616
▁back	-7.3929
▁de	-7.393
▁go	-7.39662
"	-7.40021
▁way	-7.40145
▁even	-7.40301
▁used	-7.4053
▁could	-7.40773
ation	-7.41982
ic	-7.42727
▁where	-7.4386
▁p	-7.43933
▁–	-7.4453
▁because	-7.44682
on	-7.44988
▁years	-7.45156
▁need	-7.46131
▁e	-7.46958
▁c	-7.48191
▁day	-7.48378
ers	-7.48701
x	-7.50109
▁want	-7.50797
it	-7.51613
▁year	-7.51976
▁un	-7.52135
an	-7.52164
v	-7.52232
▁take	-7.52479
▁through	-7.54046
▁here	-7.54083
▁made	-7.54821
▁much	-7.54913
le	-7.55696
▁each	-7.56038
▁life	-7.58226
▁great	-7.5898
▁before	-7.59114
able	-7.60179
ion	-7.60488
▁high	-7.60493
...	-7.61267
w	-7.61949
▁world	-7.62545
▁right	-7.64335
▁different	-7.64695
en	-7.65234
to	-7.6596
▁between	-7.66335
▁system	-7.66353
▁while	-7.66502
▁place	-7.66541
▁long	-7.66928
▁same	-7.66943
▁think	-7.67087
▁b	-7.67765
▁home	-7.67825
▁car	-7.67944
▁under	-7.68056
▁those	-7.68562
the	-7.69491
▁did	-7.70209
▁m	-7.7023
▁water	-7.70345
▁am	-7.7078
▁being	-7.71126
▁both	-7.71197
▁during	-7.71509
us	-7.72944
▁end	-7.73582
▁down	-7.73661
ity	-7.73868
▁part	-7.73909
▁best	-7.74123
▁off	-7.74703
ive	-7.74897
▁help	-7.76103
▁d	-7.76363
el	-7.76607
▁still	-7.76716
▁does	-7.77296
▁set	-7.77368
▁however	-7.77455
▁love	-7.78365
▁t	-7.79393
▁find	-7.80429
▁co	-7.80457
▁last	-7.80864
na	-7.80889
▁must	-7.81535
▁free	-7.82123
▁information	-7.82237
▁r	-7.83838
▁man	-7.84075
%	-7.84347
▁data	-7.8462
u	-7.84848
▁three	-7.85181
▁really	-7.85188
▁too	-7.8644
▁own	-7.87548
▁g	-7.87788
▁number	-7.87937
▁every	-7.8848
ment	-7.88626
▁using	-7.88742
▁going	-7.89949
ne	-7.90713
▁n	-7.90742
▁around	-7.91552
ra	-7.9242
ma	-7.92522
▁power	-7.92792
▁f	-7.92899
▁look	-7.92997
▁[	-7.93049
),	-7.93482
li	-7.94241
▁another	-7.94878
man	-7.94938
co	-7.95365
▁per	-7.95688
il	-7.95773
▁without	-7.96048
▁few	-7.9733
▁come	-7.98519
▁something	-7.99351
ry	-7.99469
de	-7.99777
▁order	-8.00134
,”	-8.0021
▁con	-8.00548
z	-8.01062
▁little	-8.01381
▁always	-8.01675
ch	-8.03291
is	-8.03819
▁important	-8.03845
]	-8.03852
▁never	-8.04086
ate	-8.04521
▁case	-8.0484
ia	-8.05031
▁available	-8.05083
▁company	-8.05273
ta	-8.05515
▁w	-8.05874
age	-8.05877
▁service	-8.05949
▁next	-8.0603
▁l	-8.06069
▁lot	-8.06466
ine	-8.06617
▁head	-8.0667
▁found	-8.06789
▁since	-8.06905
ness	-8.07357
▁v	-8.07708
▁business	-8.07739
▁small	-8.07858
▁better	-8.08117
▁hand	-8.08178
▁group	-8.09135
▁state	-8.09507
▁control	-8.10565
▁school	-8.10803
▁game	-8.11104
▁point	-8.11109
▁support	-8.11215
▁say	-8.11368
▁why	-8.11368
▁o	-8.11467
ol	-8.12134
at	-8.12196
▁family	-8.12439
up	-8.12812
▁light	-8.12846
▁children	-8.13024
▁change	-8.14426
▁let	-8.14566
▁design	-8.14934
▁got	-8.15126
▁u	-8.15243
est	-8.15681
▁pro	-8.15715
▁room	-8.15889
▁things	-8.15981
▁st	-8.16139
▁second	-8.16221
▁area	-8.16778
▁h	-8.16821
▁city	-8.17014
ro	-8.17297
te	-8.17322
▁food	-8.17483
ter	-8.17782
ent	-8.18046
▁open	-8.18324
▁process	-8.18952
▁again	-8.19306
▁&	-8.19355
▁show	-8.19576
▁play	-8.20686
j	-8.21012
ar	-8.21041
▁name	-8.21449
▁$	-8.21507
be	-8.21607
▁start	-8.21608
ke	-8.21637
id	-8.2189
."	-8.21924
▁give	-8.22198
ated	-8.22616
la	-8.23258
▁body	-8.23515
▁keep	-8.2353
▁team	-8.23795
▁pre	-8.23905
▁might	-8.2397
▁j	-8.24067
▁di	-8.2424
as	-8.24261
▁x	-8.24274
▁put	-8.2472
ur	-8.25205
▁within	-8.25784
st	-8.25806
▁view	-8.26638
▁air	-8.2673
▁book	-8.26738
▁following	-8.27626
▁bar	-8.27661
ist	-8.27997
un	-8.28462
▁house	-8.2853
▁post	-8.28566
▁old	-8.28654
ary	-8.28802
▁full	-8.29032
▁today	-8.29071
▁k	-8.29909
▁side	-8.29993
se	-8.30224
▁against	-8.30383
▁market	-8.30558
▁feel	-8.30676
▁top	-8.31283
go	-8.31371
ant	-8.31439
▁god	-8.31451
we	-8.31764
ul	-8.32042
ha	-8.32101
▁possible	-8.32173
▁sure	-8.32574
▁level	-8.3283
▁able	-8.32894
▁experience	-8.32914
ies	-8.33104
ca	-8.33129
▁women	-8.33197
▁hard	-8.33301
▁course	-8.33494
▁didn	-8.33539
▁large	-8.33658
▁once	-8.33681
and	-8.33802
rs	-8.33928
ian	-8.33951
▁person	-8.34084
▁often	-8.34338
▁‘	-8.34434
▁line	-8.34596
▁days	-8.34807
▁—	-8.3511
▁check	-8.35331
▁away	-8.35337
▁al	-8.35733
ty	-8.362
▁left	-8.3634
▁quality	-8.36872
▁form	-8.36961
▁real	-8.37087
tic	-8.37128
▁white	-8.37397
me	-8.3744
▁please	-8.37504
▁type	-8.37592
com	-8.37622
▁product	-8.37637
▁until	-8.37835
▁dis	-8.38166
▁including	-8.38694
▁center	-8.39041
▁black	-8.39424
▁thing	-8.3946
mo	-8.39533
▁public	-8.39671
▁problem	-8.39783
▁short	-8.39978
▁project	-8.40413
▁color	-8.40572
▁special	-8.40748
▁working	-8.40871
ie	-8.40874
▁example	-8.41049
ton	-8.41103
▁according	-8.41149
▁kind	-8.41164
▁local	-8.41273
▁several	-8.41381
▁development	-8.41481
▁night	-8.41985
▁care	-8.42024
▁la	-8.42368
ti	-8.4237
am	-8.42611
▁war	-8.42694
▁big	-8.43038
▁less	-8.43441
▁far	-8.43621
im	-8.43782
ce	-8.43891
▁face	-8.44082
▁health	-8.44098
et	-8.44403
ted	-8.44526
▁access	-8.44627
▁provide	-8.44754
▁en	-8.4515
▁human	-8.45632
▁four	-8.45714
he	-8.45762
▁products	-8.46033
ance	-8.4624
▁read	-8.46248
▁already	-8.46292
▁main	-8.46498
▁program	-8.46531
ous	-8.46552
▁value	-8.46743
▁mo	-8.4689
…	-8.47032
less	-8.47204
do	-8.47352
▁add	-8.47398
▁ma	-8.47502
▁fact	-8.47505
▁men	-8.48097
▁live	-8.48125
▁non	-8.48183
▁services	-8.4826
ba	-8.484
▁having	-8.48458
ting	-8.48498
▁together	-8.48684
▁easy	-8.49038
▁past	-8.4916
no	-8.49395
um	-8.4965
▁later	-8.4988
▁looking	-8.50304
ling	-8.50398
▁though	-8.50724
▁sa	-8.50859
▁social	-8.51003
▁na	-8.51016
▁size	-8.51181
ism	-8.51183
▁based	-8.51345
▁try	-8.51707
ating	-8.52018
ized	-8.52034
▁study	-8.52484
▁money	-8.52511
▁space	-8.5253
▁due	-8.52551
▁vi	-8.52717
▁present	-8.5274
▁become	-8.52793
▁low	-8.52913
▁came	-8.53032
▁list	-8.53226
.”	-8.53323
▁create	-8.53423
▁ever	-8.53429
▁research	-8.53583
—	-8.53931
▁model	-8.5415
▁price	-8.54251
▁country	-8.54274
,"	-8.54444
▁key	-8.54675
▁called	-8.55437
▁times	-8.55464
ac	-8.55486
▁ro	-8.55497
ge	-8.55602
ri	-8.55627
▁making	-8.55703
(	-8.55764
▁says	-8.55795
vi	-8.56043
▁means	-8.56051
▁period	-8.56168
▁given	-8.56189
▁range	-8.56215
▁done	-8.56418
▁sub	-8.56605
▁close	-8.56693
▁young	-8.56952
va	-8.57076
▁doesn	-8.57159
▁hotel	-8.57235
▁art	-8.57332
▁national	-8.57347
▁students	-8.57726
▁law	-8.57741
son	-8.57891
▁position	-8.57902
con	-8.57927
▁everything	-8.57967
▁bit	-8.58044
▁heart	-8.58234
▁run	-8.583
▁contact	-8.58437
ga	-8.58439
▁red	-8.58488
lo	-8.58583
▁beautiful	-8.58714
▁sp	-8.58741
land	-8.58957
▁took	-8.59212
▁week	-8.59295
ad	-8.59893
ci	-8.60608
da	-8.60954
ck	-8.61054
▁le	-8.61094
▁thought	-8.61211
▁test	-8.6126
▁yet	-8.61285
▁results	-8.61457
line	-8.61498
▁enough	-8.61667
▁music	-8.61879
▁shall	-8.61923
▁government	-8.61944
▁call	-8.6195
ir	-8.62066
pa	-8.62288
▁general	-8.62325
▁court	-8.62454
▁above	-8.62591
ite	-8.62765
▁turn	-8.62803
▁season	-8.62833
▁single	-8.63044
▁account	-8.63127
▁result	-8.63477
ial	-8.63752
▁pay	-8.6405
os	-8.64113
▁table	-8.6414
▁least	-8.64332
▁include	-8.64443
▁age	-8.64873
▁mind	-8.6524
min	-8.65484
▁went	-8.65926
▁front	-8.66247
per	-8.66481
ful	-8.6658
▁question	-8.66655
▁office	-8.66658
▁'	-8.66801
▁nice	-8.66838
▁hope	-8.67223
▁page	-8.6724
▁building	-8.6727
▁child	-8.6771
▁energy	-8.6787
▁treatment	-8.67972
▁risk	-8.68017
▁cost	-8.6814
▁amount	-8.68292
▁someone	-8.68296
▁hair	-8.68449
▁film	-8.68641
▁offer	-8.68822
▁performance	-8.68951
▁whole	-8.6909
▁future	-8.69115
▁stock	-8.69257
▁known	-8.69358
▁bo	-8.69457
▁current	-8.6983
bo	-8.70023
▁fire	-8.70219
▁won	-8.70275
▁li	-8.70427
▁skin	-8.70461
ex	-8.70461
▁personal	-8.71116
▁further	-8.71511
▁nothing	-8.71615
ish	-8.71768
▁believe	-8.71874
▁story	-8.71875
ut	-8.71904
▁clear	-8.71959
▁mr	-8.7215
▁perfect	-8.72371
▁doing	-8.72387
▁ra	-8.72474
▁management	-8.72631
▁network	-8.72831
pe	-8.72845
▁among	-8.73019
▁along	-8.73061
▁ex	-8.73095
▁anything	-8.73344
▁early	-8.73356
▁oil	-8.7337
▁whether	-8.73502
▁bad	-8.73564
▁tell	-8.73761
▁phone	-8.73826
▁clean	-8.73971
▁hours	-8.73976
ization	-8.74306
▁video	-8.74332
▁started	-8.74596
▁million	-8.74934
▁role	-8.74994
▁seen	-8.75012
▁return	-8.75172
sh	-8.75205
ally	-8.75361
▁makes	-8.7544
▁anti	-8.75446
▁states	-8.75486
▁application	-8.75692
bi	-8.75846
▁getting	-8.75854
▁land	-8.75908
▁job	-8.76045
▁se	-8.76439
▁answer	-8.76566
di	-8.76658
▁months	-8.76699
▁select	-8.76738
▁specific	-8.77037
▁move	-8.77235
▁board	-8.7737
one	-8.77446
▁online	-8.77628
▁date	-8.77906
▁common	-8.7793
ny	-8.77956
ka	-8.78117
▁road	-8.78172
▁plan	-8.78239
▁site	-8.78249
mi	-8.78456
▁photo	-8.78603
▁mar	-8.78635
▁either	-8.78704
▁event	-8.78774
▁others	-8.78951
▁minutes	-8.78952
▁report	-8.78957
▁self	-8.79164
▁material	-8.79186
▁file	-8.79232
▁five	-8.79282
time	-8.79302
▁history	-8.79394
▁series	-8.79401
▁cannot	-8.79406
▁everyone	-8.79546
▁screen	-8.799
▁needs	-8.80016
▁fun	-8.80181
▁taken	-8.80292
▁below	-8.80309
▁similar	-8.80317
▁share	-8.80335
▁community	-8.80342
▁app	-8.80422
▁understand	-8.80439
que	-8.80519
▁ad	-8.8053
▁effect	-8.80623
▁ba	-8.8076
▁/	-8.80864
po	-8.80933
▁mean	-8.8117
▁international	-8.81179
▁quite	-8.8144
▁content	-8.81457
▁media	-8.81673
ster	-8.81674
▁section	-8.81836
▁simple	-8.81843
▁lo	-8.8195
▁production	-8.81991
–	-8.82002
▁conditions	-8.82127
▁comes	-8.82173
▁field	-8.8231
▁idea	-8.8261
▁green	-8.82624
▁function	-8.82638
▁image	-8.8274
▁computer	-8.82876
▁half	-8.82959
▁friends	-8.83006
▁stop	-8.83012
▁enjoy	-8.83033
▁stay	-8.83119
▁subject	-8.83377
▁version	-8.83531
▁actually	-8.83664
▁learn	-8.83839
▁various	-8.83885
▁inter	-8.84247
▁natural	-8.84313
▁therefore	-8.84346
▁almost	-8.84458
▁step	-8.84493
▁sea	-8.84524
▁press	-8.84671
▁website	-8.84839
▁required	-8.84887
▁temperature	-8.85034
▁soon	-8.85046
▁individual	-8.8505
▁class	-8.85062
out	-8.85117
▁ka	-8.85137
▁across	-8.85236
▁paper	-8.85285
▁:	-8.8534
▁sound	-8.85416
ak	-8.8551
▁addition	-8.85974
▁visit	-8.8602
▁death	-8.86107
▁told	-8.86224
▁park	-8.86245
▁features	-8.86425
op	-8.86446
▁woman	-8.86579
mm	-8.86795
▁remember	-8.86839
▁pa	-8.86859
▁note	-8.86993
der	-8.8713
▁increase	-8.87393
tra	-8.87409
▁town	-8.87498
▁technology	-8.87593
▁training	-8.87644
▁especially	-8.87653
▁reason	-8.87818
▁ask	-8.87853
▁mother	-8.87879
▁dr	-8.87991
▁drive	-8.88052
ot	-8.88139
>	-8.88174
▁total	-8.88257
▁member	-8.88492
▁taking	-8.88533
▁church	-8.88571
▁near	-8.8881
way	-8.89078
▁professional	-8.89145
▁style	-8.89168
mp	-8.89235
by	-8.8931
▁issue	-8.89339
▁card	-8.89403
▁lower	-8.89534
▁standard	-8.89604
oc	-8.89626
_	-8.89648
▁action	-8.89669
▁mode	-8.89695
▁cross	-8.89707
▁anyone	-8.89722
▁click	-8.9019
▁star	-8.9024
▁rest	-8.90342
▁device	-8.90428
▁user	-8.90519
▁third	-8.90548
▁six	-8.90701
▁american	-8.90905
▁method	-8.9099
▁choose	-8.91141
▁figure	-8.91255
▁su	-8.91304
▁cause	-8.91321
▁display	-8.9134
▁rate	-8.91347
▁university	-8.91412
▁changes	-8.91499
wa	-8.91607
od	-8.91654
ap	-8.9184
▁south	-8.91852
▁although	-8.91923
▁du	-8.91926
▁cut	-8.91976
ni	-8.91998
▁strong	-8.92017
▁higher	-8.92086
▁living	-8.9239
▁ha	-8.92395
▁patients	-8.92462
▁complete	-8.9253
▁blood	-8.92865
▁super	-8.93181
▁members	-8.93375
ize	-8.93514
▁article	-8.93686
▁word	-8.93719
▁happy	-8.93771
▁search	-8.93787
▁speed	-8.94004
▁matter	-8.94144
mb	-8.94147
▁street	-8.94201
▁brand	-8.94241
▁probably	-8.94251
▁rather	-8.94303
▁wanted	-8.94366
dy	-8.94423
q	-8.94479
ber	-8.94595
▁major	-8.94866
▁•	-8.94963
▁surface	-8.95231
▁true	-8.9537
▁modern	-8.95496
▁bank	-8.95532
▁po	-8.9554
▁meet	-8.95588
▁son	-8.9573
▁bi	-8.95743
ence	-8.958
side	-8.95914
▁north	-8.96015
▁buy	-8.96251
▁code	-8.96337
▁police	-8.96455
▁necessary	-8.96605
lin	-8.96646
▁sha	-8.96651
▁ground	-8.96664
▁european	-8.9681
▁problems	-8.97103
▁z	-8.97124
▁provided	-8.97199
▁...	-8.97353
▁final	-8.974
au	-8.97411
▁ensure	-8.9752
▁wall	-8.97635
▁party	-8.97641
ig	-8.97692
ide	-8.97706
▁talk	-8.97843
▁certain	-8.97972
▁act	-8.98177
ard	-8.98319
ah	-8.98374
nd	-8.98482
▁maybe	-8.9884
▁industry	-8.98863
▁multi	-8.98969
▁blue	-8.99147
▁weight	-8.99338
▁heat	-8.99588
▁asked	-8.99627
▁works	-8.99632
▁sometimes	-8.99738
▁upon	-8.99888
em	-8.99912
ities	-8.99923
▁box	-9.00033
▁inside	-9.00038
▁safe	-9.00134
▁usually	-9.00167
▁lu	-9.00622
▁base	-9.00669
ee	-9.00795
▁leave	-9.01044
▁allow	-9.0107
▁staff	-9.01125
▁unit	-9.01179
▁deal	-9.01202
▁gu	-9.01278
▁financial	-9.01345
▁stage	-9.01443
▁thus	-9.01459
▁president	-9.01571
▁watch	-9.01586
▁pressure	-9.01626
▁environment	-9.01627
▁moment	-9.01677
fa	-9.01679
tor	-9.01702
▁outside	-9.01761
ho	-9.01931
▁location	-9.01982
for	-9.02278
▁walk	-9.0229
▁track	-9.02445
▁father	-9.02522
▁follow	-9.02663
▁lead	-9.02717
▁longer	-9.02753
▁couple	-9.02773
▁words	-9.02778
▁hot	-9.02795
▁located	-9.02805
▁original	-9.02833
▁plant	-9.02873
▁added	-9.02878
▁systems	-9.02887
▁companies	-9.02916
ring	-9.02948
▁break	-9.02953
▁ho	-9.03127
let	-9.03171
▁cover	-9.03259
▁choice	-9.03434
▁knowledge	-9.03522
▁text	-9.03596
▁condition	-9.03891
▁late	-9.0402
▁ago	-9.04235
▁security	-9.04467
ph	-9.04503
▁ne	-9.04604
▁particular	-9.0474
br	-9.05045
▁fall	-9.0513
▁thank	-9.05151
▁led	-9.05253
▁floor	-9.05305
nt	-9.05322
▁sense	-9.05399
▁additional	-9.05441
io	-9.05575
▁store	-9.056
▁pretty	-9.05947
ec	-9.06077
▁button	-9.06091
▁tv	-9.06104
▁ni	-9.06288
▁fe	-9.06355
▁sign	-9.06411
▁education	-9.06463
▁machine	-9.06534
▁thanks	-9.06612
▁approach	-9.06622
ki	-9.06636
▁sun	-9.06665
▁areas	-9.06746
tion	-9.06776
▁picture	-9.06942
▁fa	-9.06953
▁month	-9.06982
▁nature	-9.07066
▁fast	-9.07167
▁fi	-9.07209
▁worth	-9.07249
▁win	-9.07294
▁english	-9.07421
▁difficult	-9.07444
▁countries	-9.07499
▁yourself	-9.07535
▁bring	-9.0755
▁gas	-9.0758
▁door	-9.07749
▁else	-9.08136
▁eyes	-9.08147
▁travel	-9.08209
▁focus	-9.08269
bb	-9.08329
▁interest	-9.08369
led	-9.08532
▁needed	-9.08567
ft	-9.08613
▁property	-9.08632
▁coming	-9.08656
▁hit	-9.08715
▁trying	-9.08804
les	-9.08846
▁equipment	-9.08951
▁saw	-9.08952
▁imp	-9.08989
▁activities	-9.09038
▁review	-9.09148
ative	-9.0925
vo	-9.09554
▁included	-9.09629
▁private	-9.09648
▁fine	-9.09712
ley	-9.09713
of	-9.09842
hi	-9.09999
▁designed	-9.09999
▁develop	-9.10179
ow	-9.10188
▁girl	-9.1024
▁united	-9.10399
▁instead	-9.10399
▁questions	-9.10497
fi	-9.10534
▁host	-9.10598
▁impact	-9.10766
▁touch	-9.10786
▁decision	-9.10794
▁offers	-9.10974
lic	-9.1103
▁situation	-9.11049
om	-9.1111
▁attack	-9.11164
▁solution	-9.11185
ug	-9.1123
king	-9.11252
▁economic	-9.11254
▁simply	-9.1142
▁address	-9.11442
▁request	-9.11482
▁limit	-9.11616
▁became	-9.11628
▁held	-9.11728
▁terms	-9.11739
▁internet	-9.11858
▁forward	-9.1214
▁games	-9.12156
▁fit	-9.12204
gu	-9.12254
▁switch	-9.12315
▁summer	-9.1234
ub	-9.12537
▁success	-9.1255
▁da	-9.1263
▁build	-9.12811
▁seems	-9.12848
ag	-9.12874
▁received	-9.12991
▁block	-9.13006
ron	-9.13034
▁eye	-9.13043
▁safety	-9.1305
▁=	-9.13057
ology	-9.13347
▁contract	-9.13367
▁john	-9.13452
▁source	-9.1361
pi	-9.13746
▁language	-9.1377
▁web	-9.13829
▁active	-9.13864
▁station	-9.13902
▁kids	-9.13929
▁unique	-9.1396
▁shows	-9.14012
▁built	-9.1411
▁behind	-9.14187
▁analysis	-9.14209
tu	-9.14248
▁growth	-9.14265
▁wide	-9.14301
▁provides	-9.14318
▁etc	-9.14365
▁software	-9.14445
▁created	-9.14453
▁practice	-9.14482
old	-9.14521
ler	-9.14532
▁engine	-9.14568
if	-9.14592
▁character	-9.14644
▁prevent	-9.14673
▁pan	-9.14757
▁parts	-9.14814
▁response	-9.14961
ip	-9.15173
▁cap	-9.15183
▁running	-9.15213
▁tax	-9.15219
▁cases	-9.15256
▁itself	-9.15296
ning	-9.1538
ja	-9.15427
▁protection	-9.15455
▁write	-9.15512
mon	-9.15538
}	-9.15628
▁issues	-9.15675
▁finally	-9.15689
▁allows	-9.15757
▁background	-9.15841
▁em	-9.16011
ab	-9.161
▁potential	-9.16129
so	-9.16136
ped	-9.16425
▁likely	-9.16452
ner	-9.16545
men	-9.16647
▁chance	-9.16803
▁studies	-9.16857
▁avoid	-9.17078
▁points	-9.17351
▁ja	-9.17481
▁pain	-9.17527
▁continue	-9.17646
▁entire	-9.17649
▁customers	-9.17716
▁mark	-9.17739
ble	-9.17972
▁activity	-9.18317
year	-9.18483
red	-9.18491
mer	-9.1856
▁option	-9.18585
▁related	-9.18586
▁effects	-9.18639
▁wood	-9.18756
▁wait	-9.18774
▁via	-9.18847
▁significant	-9.18932
▁customer	-9.1899
ang	-9.1921
iv	-9.19351
▁structure	-9.19415
▁ju	-9.19495
▁baby	-9.19535
▁central	-9.19587
▁considered	-9.19617
▁looks	-9.19675
▁medical	-9.19729
▁commission	-9.19841
▁metal	-9.19847
▁target	-9.19906
pl	-9.20072
▁lost	-9.20146
▁recommend	-9.20323
▁parents	-9.20329
ical	-9.20359
▁isn	-9.20512
▁physical	-9.20558
▁bed	-9.20611
▁events	-9.20727
ator	-9.20883
▁mi	-9.20894
kin	-9.20998
▁quickly	-9.21028
▁popular	-9.21118
▁windows	-9.21183
▁eu	-9.21218
tro	-9.21321
▁culture	-9.21326
▁includes	-9.21339
▁shown	-9.21374
▁types	-9.21451
▁interesting	-9.21522
▁policy	-9.21533
▁began	-9.21646
▁flow	-9.2169
▁stand	-9.21747
▁felt	-9.2175
▁ta	-9.21762
av	-9.21846
▁dry	-9.22032
▁attention	-9.22045
▁easily	-9.2213
▁beach	-9.2224
▁construction	-9.2225
ified	-9.2226
▁camera	-9.22345
▁force	-9.22564
ey	-9.2261
▁relationship	-9.22621
▁pick	-9.22671
▁meeting	-9.23021
our	-9.23065
▁currently	-9.23177
▁cell	-9.23236
▁himself	-9.23278
▁band	-9.23392
▁department	-9.23497
▁friend	-9.23579
▁disease	-9.23651
▁ball	-9.23665
▁san	-9.23681
▁record	-9.23956
▁eat	-9.23957
▁fresh	-9.23959
ship	-9.2402
▁wi	-9.24054
ations	-9.24086
▁normal	-9.24089
ice	-9.24118
▁warm	-9.24177
▁favorite	-9.24211
▁receive	-9.24282
▁doctor	-9.24323
▁morning	-9.24407
▁ready	-9.2442
ze	-9.24444
▁mis	-9.24476
▁hi	-9.24522
▁takes	-9.2456
▁wrong	-9.24646
fe	-9.24668
▁positive	-9.24874
▁club	-9.24879
▁im	-9.24915
▁levels	-9.24946
▁match	-9.24958
▁director	-9.24961
ium	-9.24993
▁operation	-9.24995
▁hands	-9.25009
▁ten	-9.25201
▁cur	-9.25235
ure	-9.25241
▁pe	-9.25258
▁send	-9.25341
▁dark	-9.25353
▁round	-9.25358
▁users	-9.25368
▁garden	-9.25375
▁save	-9.25388
▁author	-9.25521
▁trade	-9.25611
▁concept	-9.25634
▁global	-9.25843
▁enter	-9.25876
▁et	-9.25876
off	-9.25906
ud	-9.25948
ward	-9.26077
▁bra	-9.26104
▁collection	-9.26112
▁hospital	-9.26122
▁wish	-9.26171
▁extra	-9.26325
you	-9.26357
▁micro	-9.26557
▁el	-9.26659
▁protect	-9.26665
▁themselves	-9.26777
▁+	-9.2692
▁legal	-9.26976
▁rock	-9.27073
▁cat	-9.27097
▁materials	-9.27106
▁cells	-9.27247
my	-9.27347
▁average	-9.27352
▁completely	-9.27356
▁shop	-9.274
▁consider	-9.2754
▁#	-9.27542
▁shape	-9.27581
▁details	-9.27629
ions	-9.27839
▁improve	-9.2791
▁damage	-9.27962
▁polish	-9.28178
▁excellent	-9.28225
▁term	-9.28266
▁options	-9.28364
▁throughout	-9.28398
▁q	-9.28457
▁west	-9.28553
▁wasn	-9.28595
▁cool	-9.28602
▁hold	-9.28617
▁;	-9.28657
▁increased	-9.28757
▁guide	-9.28952
ping	-9.28977
ible	-9.28988
▁soft	-9.29022
wi	-9.29038
▁learning	-9.29059
▁expect	-9.29185
▁bag	-9.29192
▁connection	-9.29333
▁groups	-9.29385
▁map	-9.29389
▁double	-9.29426
▁hu	-9.2949
▁loss	-9.29504
▁length	-9.29522
her	-9.29547
▁download	-9.29557
▁king	-9.29593
▁remove	-9.29595
▁middle	-9.29698
▁photos	-9.29707
▁yes	-9.29728
ving	-9.2975
ps	-9.29844
▁reading	-9.29896
▁mm	-9.29926
▁difference	-9.29938
▁political	-9.30107
▁europe	-9.30109
▁reduce	-9.30162
▁port	-9.30226
▁master	-9.30317
tal	-9.30456
▁turned	-9.30486
▁ti	-9.30592
ko	-9.30714
▁va	-9.30725
▁respect	-9.30731
▁demand	-9.30863
▁title	-9.30934
end	-9.30946
▁min	-9.3101
▁trip	-9.31022
▁affect	-9.31135
▁communication	-9.31149
▁myself	-9.31151
▁spot	-9.31266
▁release	-9.31306
▁effective	-9.31392
che	-9.31393
^	-9.31821
▁region	-9.31946
tri	-9.3196
set	-9.31983
▁seat	-9.31987
▁pi	-9.32101
▁weeks	-9.32109
▁manager	-9.32123
▁voice	-9.32283
▁supply	-9.32312
▁wa	-9.32326
▁gave	-9.32418
lu	-9.32483
▁motor	-9.325
▁sta	-9.32657
▁ability	-9.32709
▁east	-9.32737
▁lack	-9.3279
▁capital	-9.32878
ious	-9.32984
▁sales	-9.33028
▁message	-9.33096
▁ph	-9.33189
▁*	-9.33234
▁island	-9.33285
▁server	-9.33291
▁apply	-9.33361
▁dress	-9.3337
▁investment	-9.33385
▁writing	-9.33426
▁ca	-9.33428
▁percent	-9.3351
▁firm	-9.33593
▁decided	-9.33755
+	-9.33759
▁glass	-9.33766
▁gift	-9.33788
▁link	-9.33908
▁expected	-9.3397
▁river	-9.33983
▁movie	-9.34006
▁reported	-9.34222
gi	-9.34263
▁google	-9.3435
▁spring	-9.3445
▁drop	-9.34498
▁involved	-9.34604
▁credit	-9.34712
▁foot	-9.34866
▁trust	-9.34908
▁kitchen	-9.34911
▁science	-9.34918
▁ci	-9.34953
▁direction	-9.34989
yl	-9.35044
▁recently	-9.35225
▁costs	-9.35265
dic	-9.35296
▁payment	-9.35336
▁sent	-9.35404
▁daily	-9.35404
▁mobile	-9.35485
ns	-9.35498
▁tool	-9.35537
work	-9.35603
▁load	-9.35642
▁earth	-9.35666
▁playing	-9.35677
▁gold	-9.35705
▁recent	-9.35716
▁looked	-9.35743
▁directly	-9.35781
▁evidence	-9.35787
▁path	-9.35866
▁ko	-9.35939
▁college	-9.36057
▁movement	-9.36118
▁previous	-9.36184
*	-9.36199
▁hear	-9.36248
▁basic	-9.36268
gra	-9.36303
▁opportunity	-9.36323
▁complex	-9.36406
▁cha	-9.36469
▁email	-9.36486
ea	-9.36542
▁bio	-9.36556
▁goes	-9.36579
▁ri	-9.36592
ok	-9.36625
▁bus	-9.36651
ose	-9.36736
▁beginning	-9.36757
▁heard	-9.36775
▁influence	-9.36983
▁fully	-9.37027
▁signal	-9.37027
▁train	-9.37036
▁basis	-9.37041
................	-9.37083
▁agreement	-9.37156
▁behavior	-9.37213
▁setting	-9.37292
▁quick	-9.37292
▁deep	-9.373
▁organization	-9.37412
▁apartment	-9.37634
▁cold	-9.37674
ier	-9.37685
▁march	-9.37698
▁steel	-9.37753
▁panel	-9.37842
▁former	-9.37869
▁knew	-9.37887
▁cable	-9.38122
▁seven	-9.38129
▁items	-9.38283
▁highly	-9.38357
▁limited	-9.38413
▁purchase	-9.38466
▁direct	-9.38582
ile	-9.38621
ding	-9.38676
▁worked	-9.38686
▁player	-9.38771
lan	-9.38839
▁changed	-9.38946
▁bill	-9.38992
▁multiple	-9.39001
▁players	-9.39026
rn	-9.39129
▁wife	-9.3914
▁statement	-9.39148
za	-9.39297
▁arm	-9.39348
▁acid	-9.39365
▁rule	-9.39399
▁patient	-9.39495
▁rules	-9.3972
▁society	-9.39824
▁count	-9.39838
▁ways	-9.3987
ability	-9.39936
▁feature	-9.39945
▁ship	-9.39968
°	-9.40004
tin	-9.4005
▁scene	-9.40055
▁student	-9.40084
▁digital	-9.40266
▁attempt	-9.40277
▁frame	-9.4036
▁advantage	-9.40479
▁mid	-9.40698
▁dog	-9.40882
board	-9.40924
▁developed	-9.40932
den	-9.41062
▁menu	-9.4121
press	-9.41271
pro	-9.41294
▁tried	-9.41362
▁vehicle	-9.41384
▁population	-9.41399
▁career	-9.41444
▁associated	-9.41521
▁goal	-9.41549
ual	-9.41575
mar	-9.41588
▁pictures	-9.41592
▁pass	-9.41599
▁lock	-9.417
▁purpose	-9.41701
▁si	-9.41715
▁variety	-9.41716
day	-9.41803
nic	-9.41837
▁tri	-9.42022
back	-9.42025
▁connect	-9.42031
▁towards	-9.42038
ana	-9.42057
▁serve	-9.42104
izing	-9.42113
▁written	-9.4214
ep	-9.42154
▁stress	-9.42209
use	-9.42288
▁reach	-9.4236
▁met	-9.42386
▁amazing	-9.42413
▁transport	-9.42452
▁auto	-9.42648
▁traditional	-9.42684
▁brother	-9.42697
▁appear	-9.42703
▁race	-9.42837
▁window	-9.43008
▁lives	-9.43053
▁restaurant	-9.43054
▁appropriate	-9.43163
▁explain	-9.43301
▁york	-9.43485
rk	-9.43517
▁correct	-9.43575
▁treat	-9.43656
▁fight	-9.43662
ger	-9.43678
ned	-9.43827
▁:)	-9.43847
nch	-9.43868
▁shot	-9.43868
▁install	-9.43884
▁sc	-9.43998
▁transfer	-9.4417
▁gives	-9.44217
ru	-9.44291
▁mass	-9.44309
▁wear	-9.44338
eg	-9.44375
▁handle	-9.44377
act	-9.44548
▁cup	-9.44729
based	-9.44771
▁council	-9.4478
▁huge	-9.4485
▁happen	-9.44868
ham	-9.44944
▁perhaps	-9.44946
▁immediately	-9.45011
gg	-9.45043
▁wind	-9.45125
▁trans	-9.4519
▁).	-9.45192
▁century	-9.4534
▁overall	-9.4539
▁images	-9.4545
▁seem	-9.45469
▁requirements	-9.45553
▁grow	-9.45743
▁sleep	-9.45786
▁thinking	-9.46098
ct	-9.46131
bu	-9.46155
é	-9.46204
▁distance	-9.4627
ev	-9.46346
▁nor	-9.46549
▁exercise	-9.46552
▁skills	-9.46717
▁finish	-9.46857
▁union	-9.46946
▁plate	-9.47002
▁played	-9.4702
▁camp	-9.47084
▁opinion	-9.47144
▁command	-9.47202
▁born	-9.47287
▁produce	-9.4733
ng	-9.47395
▁pool	-9.47439
▁jo	-9.47508
oid	-9.47511
▁poland	-9.47527
▁volume	-9.47682
ther	-9.47804
▁elements	-9.47867
▁document	-9.47877
▁starting	-9.47886
▁feeling	-9.47908
▁hour	-9.47942
▁cra	-9.47963
▁prior	-9.47964
▁ga	-9.47984
▁exist	-9.48002
▁fear	-9.48013
▁log	-9.4809
▁comfortable	-9.48218
▁june	-9.48275
▁y	-9.48311
▁charge	-9.48319
▁mal	-9.48327
▁values	-9.48334
▁plus	-9.48416
▁installation	-9.48426
▁poor	-9.4844
▁battery	-9.48473
▁german	-9.48474
ably	-9.4857
car	-9.48603
su	-9.48687
▁perform	-9.48712
▁tools	-9.48728
▁dead	-9.48745
▁winter	-9.48757
str	-9.48785
▁devices	-9.48818
▁technical	-9.48971
▁flat	-9.48977
▁fair	-9.48987
▁fruit	-9.49003
▁alone	-9.49032
ren	-9.49399
▁settings	-9.49458
▁print	-9.49469
▁balance	-9.49501
▁china	-9.4954
▁described	-9.49558
▁join	-9.49768
▁pen	-9.49778
ction	-9.49974
▁update	-9.50067
▁daughter	-9.50113
▁operating	-9.50305
▁memory	-9.50519
▁draw	-9.50524
▁selected	-9.50527
▁brought	-9.50676
▁strength	-9.50759
gen	-9.50792
ach	-9.50855
▁pc	-9.50881
▁happened	-9.51137
ver	-9.51204
▁coffee	-9.51292
▁definitely	-9.51348
all	-9.51349
▁ru	-9.51443
sion	-9.51685
▁piece	-9.51792
ash	-9.51794
▁har	-9.51898
▁mix	-9.51915
▁custom	-9.51931
▁object	-9.51941
cc	-9.51966
=	-9.52179
fo	-9.5224
ect	-9.52286
▁cancer	-9.52298
▁ideal	-9.52369
▁layer	-9.5239
▁sort	-9.52403
▁fan	-9.52406
▁particularly	-9.52407
▁despite	-9.52435
▁greater	-9.52484
▁books	-9.52489
can	-9.52676
▁boy	-9.52713
▁refer	-9.52747
▁filter	-9.52749
▁>	-9.52754
▁chi	-9.52759
▁compared	-9.52829
▁feet	-9.52888
▁rooms	-9.52925
▁maximum	-9.5295
▁sex	-9.52957
▁notice	-9.53015
▁dream	-9.53128
▁eight	-9.53168
ina	-9.53296
▁cor	-9.53306
▁fish	-9.5349
ell	-9.53516
▁county	-9.53542
▁platform	-9.53565
▁para	-9.53587
over	-9.53816
cu	-9.53889
▁ver	-9.53918
ten	-9.53932
▁sale	-9.53982
▁farm	-9.54068
▁competition	-9.54142
▁protein	-9.54239
▁par	-9.54265
▁applications	-9.54305
▁sweet	-9.54305
▁storage	-9.54317
ging	-9.54677
▁allowed	-9.54814
pp	-9.5482
▁hall	-9.54837
▁exchange	-9.54973
▁speak	-9.5509
▁exactly	-9.55156
▁ob	-9.55199
▁india	-9.55225
port	-9.55292
▁prices	-9.5549
uff	-9.55536
▁bri	-9.55554
▁jesus	-9.55576
tan	-9.55623
▁tour	-9.55628
oo	-9.5569
▁battle	-9.55755
▁saying	-9.55762
▁internal	-9.55862
▁song	-9.55865
▁lord	-9.55888
▁reference	-9.55966
▁weather	-9.55984
▁methods	-9.56055
▁fo	-9.56077
▁radio	-9.56252
▁america	-9.56256
▁projects	-9.56317
▁connected	-9.56337
▁pet	-9.5634
▁resources	-9.56344
▁couldn	-9.56416
▁stone	-9.56494
▁models	-9.56574
▁pump	-9.56595
▁employees	-9.567
qui	-9.5678
▁paid	-9.56831
▁died	-9.56857
▁sand	-9.56866
▁fashion	-9.56894
▁bright	-9.56917
▁factors	-9.56969
▁district	-9.57041
see	-9.57065
▁status	-9.57116
▁rich	-9.57188
▁sports	-9.57287
▁km	-9.57289
ign	-9.5729
▁--	-9.57543
▁french	-9.57607
▁commercial	-9.57658
▁pair	-9.57669
▁ring	-9.57704
jo	-9.57722
▁ideas	-9.57728
▁bottom	-9.57732
▁tree	-9.57963
▁holiday	-9.58008
▁released	-9.58013
▁female	-9.58042
▁spend	-9.58064
pt	-9.58102
▁require	-9.58277
▁ce	-9.58393
▁talking	-9.58462
▁remain	-9.58485
▁properties	-9.58567
▁rights	-9.58695
▁earlier	-9.587
▁breath	-9.58704
▁<	-9.58731
▁gain	-9.58938
▁suit	-9.59009
▁suggest	-9.59118
▁healthy	-9.592
▁brain	-9.59302
▁interested	-9.59585
▁species	-9.59688
▁output	-9.59799
▁edge	-9.59808
▁op	-9.59932
▁foreign	-9.59946
▁april	-9.59989
▁mc	-9.60174
▁mu	-9.60244
▁giving	-9.60311
nk	-9.60344
▁files	-9.60431
▁interview	-9.60516
like	-9.60687
▁applied	-9.60719
▁nu	-9.6074
▁bathroom	-9.60833
▁plastic	-9.60853
▁cook	-9.60967
bit	-9.60982
▁taste	-9.61063
▁package	-9.61149
▁regular	-9.61252
▁determine	-9.61275
▁description	-9.61435
▁benefits	-9.61437
▁fat	-9.61521
▁performed	-9.61584
▁generally	-9.61653
ven	-9.61706
rd	-9.6185
▁leading	-9.61882
ral	-9.6189
▁capacity	-9.61934
▁girls	-9.61968
▁cons	-9.62081
▁negative	-9.62235
ov	-9.6224
light	-9.62331
down	-9.62353
▁die	-9.62426
▁gun	-9.62456
▁wine	-9.62458
▁guess	-9.62463
▁opening	-9.62528
▁spirit	-9.6253
▁fuel	-9.62568
term	-9.62646
▁serious	-9.62658
▁challenge	-9.62766
▁truth	-9.62766
▁brown	-9.62785
▁comment	-9.62811
▁sch	-9.62819
▁selection	-9.62828
▁mac	-9.62929
▁sector	-9.63019
▁secret	-9.63032
▁successful	-9.63091
form	-9.631
▁contains	-9.63131
▁te	-9.63206
▁campaign	-9.63247
▁error	-9.63378
▁task	-9.6347
ai	-9.63492
▁growing	-9.63526
▁programs	-9.6356
▁suitable	-9.63592
▁cast	-9.63679
ries	-9.63707
▁degree	-9.63747
▁christ	-9.63792
▁kill	-9.641
rate	-9.64157
▁reflect	-9.64218
▁sm	-9.64224
▁pop	-9.64262
bar	-9.64337
▁blog	-9.64381
▁husband	-9.64399
▁pin	-9.64423
ged	-9.64486
▁welcome	-9.645
▁sensor	-9.6455
▁ice	-9.64684
▁wonder	-9.64705
▁client	-9.64734
▁lake	-9.64739
▁understanding	-9.6476
vent	-9.64784
ple	-9.64803
▁ch	-9.64986
▁scale	-9.64989
▁tu	-9.65055
▁moving	-9.65066
▁square	-9.65067
▁claim	-9.6507
▁phase	-9.65178
▁reaction	-9.65218
▁village	-9.65242
▁combination	-9.6539
▁colors	-9.65402
▁placed	-9.6545
▁begin	-9.65491
▁carried	-9.65507
▁vote	-9.65599
▁responsible	-9.65623
uch	-9.65623
▁topic	-9.65629
▁profile	-9.65656
nc	-9.65684
▁news	-9.65725
gan	-9.65786
ments	-9.65848
▁wonderful	-9.65878
▁drug	-9.65885
▁unfortunately	-9.65939
▁smooth	-9.65966
▁session	-9.65982
▁relax	-9.66003
▁useful	-9.66018
▁separate	-9.66025
▁military	-9.66039
▁presented	-9.66072
▁association	-9.66097
▁letter	-9.6614
ew	-9.6621
▁solid	-9.66214
▁benefit	-9.66242
▁progress	-9.66301
▁deliver	-9.66316
▁diet	-9.66473
▁lines	-9.66512
▁extremely	-9.66533
▁solutions	-9.66594
▁mini	-9.6661
▁sl	-9.66636
▁animals	-9.66637
▁pull	-9.6665
▁den	-9.6665
▁whose	-9.6665
▁ya	-9.66742
▁pu	-9.66823
▁july	-9.6688
ery	-9.66896
▁rain	-9.67023
▁respond	-9.67053
▁regard	-9.67285
not	-9.67359
▁plans	-9.67389
▁listen	-9.67499
point	-9.67525
▁spent	-9.67538
▁scar	-9.676
▁tea	-9.6763
tain	-9.67716
&	-9.67743
▁chapter	-9.67788
▁independent	-9.67834
▁agree	-9.67897
▁male	-9.6792
▁kit	-9.67927
han	-9.67993
▁guy	-9.68022
▁established	-9.68091
▁sit	-9.68132
▁christmas	-9.68192
but	-9.68194
▁coach	-9.682
▁ge	-9.68221
hu	-9.68336
▁heavy	-9.68379
▁latest	-9.68397
▁christian	-9.68443
▁electronic	-9.68453
▁stuff	-9.68481
ris	-9.68555
ade	-9.68618
▁produced	-9.68675
▁van	-9.68678
▁planning	-9.68713
▁essential	-9.68736
▁sal	-9.68796
▁visual	-9.68799
▁primary	-9.68858
▁mon	-9.68887
▁grand	-9.68913
▁beyond	-9.68964
▁dec	-9.69013
▁trial	-9.69029
▁repair	-9.69066
▁wedding	-9.69152
▁rev	-9.69233
ase	-9.69249
▁wave	-9.69339
mic	-9.69341
▁annual	-9.69412
▁alternative	-9.69454
▁spread	-9.69468
▁sky	-9.6953
▁hill	-9.69532
cl	-9.69559
▁slow	-9.69575
▁cru	-9.69578
▁ran	-9.69625
▁generation	-9.69643
▁roll	-9.6965
istic	-9.69697
".	-9.69739
”.	-9.69777
▁followed	-9.69855
▁meaning	-9.69861
▁committee	-9.69895
▁album	-9.69918
▁caused	-9.6996
mate	-9.69982
ff	-9.7011
du	-9.70118
▁lose	-9.7017
▁input	-9.7024
▁mission	-9.70246
▁places	-9.70291
▁expression	-9.70303
▁driver	-9.70541
▁presence	-9.70552
▁score	-9.70604
▁dance	-9.70617
▁kept	-9.70619
▁moved	-9.70627
▁smart	-9.70631
tel	-9.70652
ification	-9.70697
▁oh	-9.70778
▁license	-9.70811
▁horse	-9.70814
▁disc	-9.70886
right	-9.70942
▁sat	-9.7095
▁delivery	-9.70973
▁route	-9.70992
▁fl	-9.7108
▁pla	-9.71153
▁accept	-9.71222
bra	-9.71248
▁creating	-9.71253
▁conduct	-9.71369
▁recommended	-9.71427
ear	-9.7153
▁chain	-9.71584
▁steps	-9.71603
▁reasons	-9.71685
▁electric	-9.71725
ists	-9.71768
▁certainly	-9.71778
▁powerful	-9.71832
pr	-9.71865
▁comfort	-9.7188
▁gar	-9.72
par	-9.72058
▁clearly	-9.72141
▁animal	-9.722
▁iron	-9.72292
ult	-9.72331
▁pattern	-9.72382
▁factor	-9.72427
▁height	-9.72554
▁nearly	-9.72577
ological	-9.72626
▁published	-9.72657
▁appears	-9.72669
▁closed	-9.72711
▁waiting	-9.72739
▁external	-9.72881
top	-9.72934
▁facebook	-9.72939
tru	-9.72967
▁plants	-9.7297
▁indian	-9.73013
▁september	-9.73022
▁effort	-9.73029
▁cm	-9.73034
▁london	-9.73077
▁larger	-9.73239
▁comp	-9.73426
▁marketing	-9.73449
und	-9.73469
▁highest	-9.73472
▁context	-9.73533
▁august	-9.73581
▁museum	-9.73596
▁]	-9.73606
▁push	-9.73661
▁easier	-9.73738
▁partner	-9.7377
▁forest	-9.73795
▁rose	-9.73838
ji	-9.73902
▁trend	-9.73908
▁secure	-9.73952
▁fer	-9.74051
▁measures	-9.74095
zo	-9.74141
▁existing	-9.74222
▁official	-9.743
▁label	-9.74384
▁sell	-9.7439
▁january	-9.74404
▁traffic	-9.74412
▁bro	-9.74555
▁symbol	-9.74561
ants	-9.74591
▁sold	-9.7466
▁judge	-9.747
▁ii	-9.74759
▁sin	-9.7477
gue	-9.74779
▁failure	-9.74779
ya	-9.74819
▁muscle	-9.74827
▁gone	-9.74841
▁waste	-9.74945
▁drink	-9.74955
ise	-9.74962
▁wouldn	-9.74981
▁achieve	-9.74996
▁express	-9.75106
wn	-9.75116
▁icon	-9.75152
▁format	-9.75204
▁che	-9.75233
▁wo	-9.75251
▁snow	-9.75273
▁guarantee	-9.75275
fin	-9.7528
▁bal	-9.75305
▁honor	-9.75324
ory	-9.75404
▁|	-9.75456
▁fla	-9.75533
▁straight	-9.75548
mat	-9.75609
▁weekend	-9.75631
ole	-9.75646
?"	-9.75658
net	-9.75741
▁procedure	-9.75765
phy	-9.75825
▁october	-9.75879
zi	-9.75884
▁providing	-9.75927
▁collect	-9.75933
▁components	-9.7598
▁depending	-9.76014
har	-9.76022
yard	-9.76036
▁smile	-9.7604
▁apple	-9.76058
free	-9.76068
▁bike	-9.76115
app	-9.76196
▁lip	-9.76246
▁covered	-9.76264
▁com	-9.76308
▁prepared	-9.76324
▁conference	-9.76333
▁sport	-9.76349
▁remains	-9.7635
▁wild	-9.76476
▁requires	-9.76518
▁tend	-9.76539
▁december	-9.76559
ric	-9.76645
ob	-9.76697
▁broad	-9.76762
▁rise	-9.76765
uc	-9.76797
nes	-9.76809
▁corner	-9.76901
▁maintain	-9.76902
▁finger	-9.7695
▁uk	-9.76952
▁sw	-9.7708
▁gene	-9.77086
▁clients	-9.77139
▁friendly	-9.77198
▁fill	-9.77226
▁germany	-9.7736
▁sad	-9.77372
ica	-9.77492
▁ser	-9.77503
▁chemical	-9.77506
take	-9.77524
▁evening	-9.77526
▁wrote	-9.77539
▁cream	-9.77732
▁promote	-9.77756
wo	-9.77799
▁)	-9.77802
▁burn	-9.77985
▁strategy	-9.78033
▁minister	-9.78055
▁monitor	-9.78077
▁meal	-9.78106
▁served	-9.78107
▁item	-9.78116
▁offered	-9.78129
fl	-9.78139
nce	-9.78261
▁aim	-9.78296
len	-9.78337
▁driving	-9.78347
▁budget	-9.78381
▁foundation	-9.78396
▁showed	-9.78451
gy	-9.78456
▁environmental	-9.785
▁ab	-9.78514
cy	-9.78554
ill	-9.7863
▁pr	-9.78634
▁fans	-9.78677
▁cent	-9.78682
▁jump	-9.78744
part	-9.78758
▁cash	-9.78793
cr	-9.78803
▁fig	-9.78856
▁root	-9.78859
▁fix	-9.78931
ay	-9.78963
house	-9.78966
▁loved	-9.78967
lon	-9.78977
▁haven	-9.78996
▁income	-9.78996
▁sample	-9.79004
box	-9.79055
▁equal	-9.79075
▁helps	-9.79116
▁interior	-9.79153
▁joint	-9.79165
▁characters	-9.79237
val	-9.79281
mit	-9.79303
▁carry	-9.79326
hel	-9.79328
▁labor	-9.7937
▁insurance	-9.79478
▁completed	-9.79583
cul	-9.79624
ek	-9.79671
▁tra	-9.79713
▁cla	-9.79728
▁loan	-9.79778
▁friday	-9.79803
▁paint	-9.7991
ette	-9.79941
▁os	-9.79987
▁sister	-9.80001
▁operations	-9.80004
▁identify	-9.80093
▁beat	-9.8014
▁classic	-9.8015
▁core	-9.80198
▁fund	-9.8033
▁families	-9.80395
▁miss	-9.80396
▁mor	-9.80431
▁cloud	-9.8063
▁processes	-9.80703
ware	-9.80767
▁explore	-9.80768
▁reality	-9.80774
▁famous	-9.80801
▁ear	-9.80811
▁ok	-9.80849
med	-9.80856
tar	-9.80981
▁stick	-9.81003
ou	-9.81036
▁breakfast	-9.81089
▁ 	-9.81151
▁describe	-9.81245
);	-9.81345
▁pack	-9.81387
▁leg	-9.8144
▁parties	-9.81467
cha	-9.81542
▁largest	-9.8155
row	-9.81574
▁sexual	-9.81587
▁chinese	-9.81644
▁mentioned	-9.81676
rac	-9.81774
oli	-9.8188
▁discussion	-9.8194
▁comm	-9.81972
ane	-9.81986
▁gr	-9.81995
▁sn	-9.81995
this	-9.82018
▁quarter	-9.82073
▁participants	-9.82247
▁decide	-9.82257
gar	-9.82289
▁spin	-9.82398
▁stream	-9.82449
▁mental	-9.82554
▁learned	-9.82559
well	-9.82579
▁tank	-9.82625
▁owner	-9.8263
▁rear	-9.82635
▁british	-9.82667
▁sunday	-9.82667
▁valid	-9.82709
▁ke	-9.82769
▁manage	-9.82806
▁gi	-9.82829
head	-9.82907
▁doubt	-9.8292
▁vector	-9.82935
▁flight	-9.82938
▁gen	-9.82971
▁ref	-9.83002
▁otherwise	-9.83007
▁ec	-9.83021
▁shift	-9.83074
▁upper	-9.83075
▁distribution	-9.83082
▁units	-9.83125
▁je	-9.83192
▁opened	-9.83251
▁audience	-9.83273
▁cal	-9.83274
▁initial	-9.83351
▁named	-9.83368
▁guests	-9.83405
ken	-9.83414
▁forms	-9.83435
▁beauty	-9.83456
ates	-9.83477
▁liquid	-9.83491
▁appearance	-9.83505
ify	-9.83519
▁individuals	-9.83534
▁net	-9.83597
▁relevant	-9.83648
▁gra	-9.83663
▁continued	-9.83674
pre	-9.83699
▁facilities	-9.83744
▁chief	-9.83813
van	-9.83834
sis	-9.83881
▁instance	-9.83912
dis	-9.83931
\	-9.83945
▁functions	-9.83962
▁salt	-9.84026
▁invest	-9.84191
▁older	-9.84231
▁paul	-9.84284
▁miles	-9.84294
▁exp	-9.8433
▁fabric	-9.84409
▁sim	-9.84471
▁laugh	-9.84542
▁sheet	-9.84593
▁{	-9.84602
ular	-9.84666
▁critical	-9.84726
▁zone	-9.84815
tter	-9.8483
az	-9.84918
▁russian	-9.8494
▁profit	-9.8496
▁wash	-9.85055
▁boot	-9.85095
▁remote	-9.85124
▁finished	-9.85134
▁rates	-9.85165
▁audio	-9.85207
▁slightly	-9.85219
▁poly	-9.85234
▁convert	-9.85265
pping	-9.85285
field	-9.85325
book	-9.85333
▁copy	-9.85336
▁yellow	-9.85408
▁bottle	-9.8543
▁edit	-9.85437
ski	-9.8544
▁lift	-9.85484
▁stories	-9.85547
▁saturday	-9.85621
▁leaves	-9.85672
▁painting	-9.85762
▁numbers	-9.85799
▁army	-9.85802
ari	-9.8584
ax	-9.85874
▁november	-9.86004
tch	-9.86009
?”	-9.86029
▁automatically	-9.86115
▁flash	-9.86161
://	-9.86197
▁tro	-9.86359
▁objective	-9.8637
cent	-9.86436
▁becomes	-9.86539
▁advice	-9.86587
▁peace	-9.86605
▁cycle	-9.86609
▁experiment	-9.86659
▁mine	-9.86679
▁element	-9.86707
▁reports	-9.86746
▁equipped	-9.86749
▁mountain	-9.8676
▁vo	-9.8677
▁resistance	-9.86803
▁removed	-9.86805
▁outdoor	-9.86821
▁regarding	-9.86853
▁installed	-9.86854
[	-9.86878
▁minimum	-9.87028
▁standards	-9.87099
▁league	-9.87209
▁dev	-9.8725
▁channel	-9.87318
rt	-9.87329
▁proper	-9.87338
▁chair	-9.87366
▁quiet	-9.87414
ker	-9.87442
▁hole	-9.87467
▁measure	-9.87469
▁episode	-9.87507
▁accident	-9.87537
▁attend	-9.87579
▁milk	-9.87629
lie	-9.87701
▁ven	-9.87719
▁airport	-9.87907
▁holding	-9.87925
zy	-9.87958
▁catch	-9.87963
▁drawing	-9.8797
some	-9.87988
▁walking	-9.88006
▁reduced	-9.88068
▁symptoms	-9.8811
▁reached	-9.8816
▁measurement	-9.88221
▁mill	-9.88236
▁contain	-9.88286
ens	-9.88313
▁manual	-9.88363
cur	-9.88411
▁ter	-9.88416
lea	-9.88423
▁plug	-9.8844
▁passed	-9.88466
art	-9.88482
▁shared	-9.8867
▁eventually	-9.88675
chi	-9.88749
▁france	-9.88781
▁determined	-9.88923
cor	-9.88926
uk	-9.88928
▁variable	-9.88941
▁syn	-9.89014
don	-9.89044
▁bridge	-9.8906
uring	-9.89067
▁offering	-9.89077
lum	-9.89111
▁fixed	-9.89139
▁appeal	-9.89154
▁advance	-9.89172
▁coast	-9.89191
▁studio	-9.89199
▁guys	-9.89323
▁goals	-9.89445
▁award	-9.89503
▁occur	-9.89515
▁pur	-9.89517
pm	-9.89563
▁testing	-9.89587
▁teaching	-9.89637
▁workers	-9.89643
▁schools	-9.89674
▁ride	-9.897
▁whatever	-9.89709
she	-9.89733
▁parking	-9.8977
berg	-9.89792
▁bond	-9.89827
name	-9.89835
▁spec	-9.89862
▁wants	-9.89911
▁counter	-9.89927
int	-9.89957
▁increasing	-9.90035
▁actions	-9.90037
▁efficient	-9.90067
▁origin	-9.90162
▁married	-9.90163
serv	-9.90195
▁forget	-9.90195
▁trouble	-9.90284
▁billion	-9.9036
▁practical	-9.90396
▁creative	-9.9045
▁medicine	-9.90489
burg	-9.90497
▁changing	-9.90502
▁pieces	-9.90508
ran	-9.90609
▁dynamic	-9.90626
ency	-9.90628
▁medium	-9.90687
▁processing	-9.90714
▁ram	-9.90726
▁sources	-9.90727
▁maintenance	-9.9077
▁cultural	-9.9083
▁economy	-9.90845
▁silver	-9.90872
▁administration	-9.90929
▁del	-9.90937
▁depends	-9.91034
table	-9.91126
with	-9.91215
▁onto	-9.91215
▁western	-9.91241
▁gets	-9.91266
▁module	-9.91327
▁advanced	-9.91381
ue	-9.91419
▁cr	-9.9145
▁actual	-9.91493
▁defense	-9.91505
tive	-9.9159
▁detail	-9.91611
▁obtained	-9.91635
▁spa	-9.91645
▁previously	-9.91707
▁launch	-9.91713
▁sugar	-9.91728
▁mistake	-9.91818
▁alcohol	-9.91834
▁roof	-9.91842
▁aid	-9.91894
▁bear	-9.91912
▁smaller	-9.91942
▁happens	-9.91959
▁contribute	-9.92014
▁leader	-9.92042
▁victim	-9.92071
▁boat	-9.92096
cus	-9.9212
▁promise	-9.92237
▁mechanism	-9.92252
play	-9.92282
tom	-9.92325
▁soul	-9.92336
reg	-9.92344
▁mom	-9.92361
▁bath	-9.92362
▁sto	-9.92469
®	-9.92556
▁survey	-9.92585
▁gear	-9.92648
▁helped	-9.92695
▁sorry	-9.9273
ino	-9.92745
nal	-9.92883
lock	-9.92899
▁journey	-9.92939
▁documents	-9.93076
nn	-9.93092
lf	-9.93146
▁senior	-9.93159
▁assessment	-9.93178
▁favor	-9.9318
▁ac	-9.93188
▁william	-9.93202
▁teacher	-9.93285
▁festival	-9.93361
▁wire	-9.93461
ez	-9.93468
▁observed	-9.9361
▁fail	-9.93631
▁crime	-9.93691
▁scan	-9.93733
▁mouth	-9.93763
▁football	-9.93799
▁truck	-9.93933
ome	-9.93993
ture	-9.94049
▁dinner	-9.94056
▁truly	-9.94071
▁improvement	-9.94108
▁imagine	-9.94123
▁opportunities	-9.94162
▁industrial	-9.94201
vis	-9.94288
sta	-9.94303
▁conversation	-9.94317
▁authority	-9.94423
▁pot	-9.94483
look	-9.94491
▁vision	-9.94647
▁feed	-9.94654
▁rep	-9.94661
yn	-9.94817
low	-9.94928
▁represent	-9.94942
room	-9.9498
▁division	-9.95061
▁http	-9.95159
bc	-9.95196
▁killed	-9.95207
ox	-9.9529
▁birth	-9.95361
oma	-9.95382
▁lots	-9.95406
▁mod	-9.95419
▁cu	-9.95445
cal	-9.95485
▁seemed	-9.95489
▁vol	-9.95516
▁majority	-9.95618
▁soil	-9.95662
▁monday	-9.95697
lia	-9.95745
▁except	-9.95779
▁threat	-9.95968
shi	-9.96019
▁defined	-9.96062
▁tre	-9.96063
ties	-9.96182
▁border	-9.96188
▁february	-9.96188
▁participate	-9.96218
hy	-9.96356
▁david	-9.96387
▁indeed	-9.96486
▁novel	-9.96575
▁strip	-9.96656
▁wheel	-9.96703
▁interface	-9.96722
▁flu	-9.96786
air	-9.96818
▁sites	-9.96909
▁ste	-9.96942
▁adult	-9.96953
▁discuss	-9.96978
▁minor	-9.97103
▁clinical	-9.97134
▁bought	-9.97182
sha	-9.97311
▁differences	-9.97453
▁ski	-9.97466
▁obtain	-9.97483
▁hy	-9.97534
▁faith	-9.97541
ju	-9.97562
that	-9.97565
fer	-9.97567
▁sum	-9.97724
▁prop	-9.97741
▁cards	-9.97743
▁highlight	-9.97764
▁regulation	-9.97774
amp	-9.97777
wood	-9.97863
▁finding	-9.979
▁manner	-9.97953
▁meat	-9.97976
what	-9.97978
ject	-9.9798
▁significantly	-9.97997
▁bedroom	-9.98028
▁announced	-9.98041
▁mad	-9.98079
lam	-9.98214
▁prison	-9.98227
▁fri	-9.98375
ulation	-9.98384
▁importance	-9.98417
▁ahead	-9.98456
▁angle	-9.98492
▁toward	-9.985
pri	-9.98508
▁seeing	-9.98556
ld	-9.98684
▁approximately	-9.9874
▁operate	-9.98826
▁treated	-9.98888
▁throw	-9.98953
▁freedom	-9.99
▁extract	-9.9908
▁returned	-9.9909
war	-9.99131
▁forces	-9.99198
▁unless	-9.99232
▁tap	-9.99243
▁infection	-9.99252
▁leaving	-9.99303
▁neuro	-9.9934
▁rec	-9.99357
▁shower	-9.99403
▁developing	-9.99505
▁belong	-9.99531
▁gray	-9.99579
mail	-9.99605
how	-9.99622
▁kar	-9.99653
▁classes	-9.9966
▁seal	-9.99683
▁sounds	-9.99695
▁detect	-9.99731
ura	-9.99753
ville	-9.99762
▁parent	-9.99778
▁implementation	-9.99868
▁flowers	-9.99877
ins	-9.99894
cut	-9.99902
▁biggest	-10.0002
igh	-10.0003
▁shoes	-10.0005
din	-10.0014
▁insert	-10.0015
▁library	-10.0019
▁aren	-10.0028
▁bur	-10.0031
▁usb	-10.0038
▁default	-10.0043
▁whom	-10.0045
▁authorities	-10.0047
▁artist	-10.0047
▁bay	-10.0052
▁historical	-10.0053
type	-10.0055
▁theory	-10.0055
▁comments	-10.0061
▁photography	-10.0064
▁aware	-10.0073
▁purposes	-10.0073
▁lay	-10.0077
cin	-10.008
▁therapy	-10.0094
▁…	-10.01
▁cd	-10.0108
▁speaker	-10.0109
▁assist	-10.012
▁cleaning	-10.013
▁carbon	-10.0135
▁joy	-10.0138
ming	-10.0142
▁consistent	-10.0144
▁views	-10.0144
▁concentration	-10.0146
▁screw	-10.0146
▁database	-10.0151
▁james	-10.0152
▁nation	-10.0155
matic	-10.0155
▁officer	-10.0161
▁managed	-10.0163
▁apart	-10.0173
▁constant	-10.0173
▁shock	-10.0185
▁brief	-10.0188
list	-10.019
▁transaction	-10.0192
▁ar	-10.0195
▁row	-10.0196
▁schedule	-10.0201
▁ban	-10.0209
▁hd	-10.0213
bel	-10.0213
▁reserve	-10.0222
sp	-10.0225
▁replace	-10.0225
▁crowd	-10.0226
▁marriage	-10.0231
▁talent	-10.0236
vin	-10.0243
mor	-10.0248
▁tube	-10.025
▁sitting	-10.0257
▁worse	-10.0259
▁grade	-10.0267
▁tele	-10.0271
▁mainly	-10.0271
▁mary	-10.0276
▁occasion	-10.0285
▁combined	-10.0287
log	-10.0288
▁euro	-10.0292
▁representative	-10.0293
▁guard	-10.0294
cess	-10.0299
▁rating	-10.0301
▁numerous	-10.0307
▁supposed	-10.0315
cycl	-10.0317
hop	-10.0318
tric	-10.0318
▁dar	-10.0319
▁standing	-10.0323
ese	-10.0325
▁resolution	-10.0325
cer	-10.0327
ically	-10.033
▁column	-10.033
▁civil	-10.0341
▁flower	-10.0342
▁pure	-10.0344
▁expensive	-10.0346
▁mostly	-10.0346
▁circuit	-10.0348
▁gate	-10.0367
▁conflict	-10.0368
water	-10.0382
▁pal	-10.0384
▁experienced	-10.0385
▁chart	-10.039
▁thread	-10.0396
▁definition	-10.0402
▁delay	-10.0406
ix	-10.0406
▁configuration	-10.0409
▁sentence	-10.0409
path	-10.0412
▁records	-10.0412
▁grant	-10.0413
▁adapt	-10.0414
▁mention	-10.0417
▁atmosphere	-10.0421
▁desire	-10.043
▁meters	-10.0435
mal	-10.0436
▁organizations	-10.044
▁noise	-10.0443
▁cas	-10.0443
ney	-10.0445
▁bl	-10.0447
▁realize	-10.045
▁federal	-10.0453
spect	-10.0453
▁showing	-10.0454
▁tissue	-10.0454
ł	-10.0458
▁concerned	-10.0458
▁valve	-10.0461
▁notes	-10.0462
▁outcome	-10.0463
▁substance	-10.0468
▁agency	-10.047
ius	-10.047
▁candidate	-10.0471
▁identified	-10.0473
▁russia	-10.0474
je	-10.0478
▁motion	-10.0479
lies	-10.0484
▁assess	-10.0485
▁encourage	-10.0488
▁fu	-10.0489
▁properly	-10.049
▁shopping	-10.0491
▁actor	-10.0497
▁bone	-10.0509
▁plenty	-10.051
rin	-10.051
▁watching	-10.0512
sign	-10.0513
▁none	-10.0513
▁pat	-10.0515
▁executive	-10.0524
▁israel	-10.0531
▁weak	-10.0531
▁dan	-10.0532
▁severe	-10.0536
▁predict	-10.0538
▁causes	-10.0541
▁minute	-10.0543
▁frequency	-10.0554
▁tests	-10.0559
▁thick	-10.056
▁hurt	-10.0567
▁filled	-10.0568
▁names	-10.0568
pir	-10.0569
▁tab	-10.0572
▁lunch	-10.0574
▁instructions	-10.0579
▁seek	-10.0579
▁preparation	-10.058
▁mag	-10.058
▁detailed	-10.0583
▁kid	-10.0588
ever	-10.059
▁election	-10.0597
▁spoke	-10.0605
!!!	-10.0607
▁entry	-10.0608
read	-10.0614
▁hat	-10.0616
▁investigation	-10.0619
▁cro	-10.062
▁calls	-10.0622
▁remind	-10.0631
▁possibility	-10.0632
▁adjust	-10.0633
▁pipe	-10.0647
▁disorder	-10.0648
▁max	-10.0652
arch	-10.0657
▁pl	-10.0658
▁shr	-10.066
▁formula	-10.0661
▁relative	-10.0663
▁eating	-10.0664
▁raised	-10.0667
▁perspective	-10.0668
▁prime	-10.067
iness	-10.0676
▁establish	-10.0678
▁regional	-10.0678
▁fell	-10.0682
▁appeared	-10.0688
▁cities	-10.0688
▁fr	-10.0688
▁discover	-10.069
▁worry	-10.0695
▁trees	-10.0697
▁skill	-10.0697
▁£	-10.0698
▁domain	-10.0701
▁compound	-10.0702
▁era	-10.0713
▁supported	-10.0715
▁saving	-10.0726
$	-10.0729
▁ku	-10.0739
ola	-10.0745
▁holy	-10.0749
▁inform	-10.0752
mu	-10.0756
▁bell	-10.0756
▁solve	-10.0764
▁glad	-10.0765
piece	-10.0765
▁prepare	-10.0765
▁blow	-10.0766
▁arch	-10.077
there	-10.077
▁becoming	-10.0773
▁hol	-10.0774
▁graduate	-10.0779
▁funds	-10.0782
▁creation	-10.0785
▁kick	-10.0785
▁peter	-10.0786
cap	-10.0786
▁climate	-10.0803
ttle	-10.0807
gb	-10.081
▁lovely	-10.081
ung	-10.081
▁pad	-10.0811
▁estate	-10.0812
▁justice	-10.0817
load	-10.0818
▁colon	-10.0822
illa	-10.0826
ik	-10.0834
xi	-10.0834
▁illustration	-10.0835
▁import	-10.0835
▁teams	-10.0844
▁teachers	-10.0845
▁nine	-10.0847
ient	-10.0852
▁thin	-10.0858
than	-10.0861
▁objects	-10.0864
▁composition	-10.0877
ute	-10.0887
▁operator	-10.0887
▁bat	-10.0891
ography	-10.0895
▁raise	-10.091
▁introduced	-10.0912
▁murder	-10.0914
▁prefer	-10.0915
▁efficiency	-10.0919
▁intended	-10.092
▁enable	-10.0924
iff	-10.0925
▁lamp	-10.0925
▁referred	-10.0931
lt	-10.0932
▁vehicles	-10.0935
▁retail	-10.0937
▁whi	-10.0943
▁efforts	-10.095
▁twice	-10.0967
▁improved	-10.0972
▁mono	-10.0974
▁proposed	-10.0976
▁lived	-10.0981
▁helpful	-10.0984
▁craft	-10.0984
▁shut	-10.0996
▁fiber	-10.1006
▁mas	-10.1007
▁pra	-10.1022
▁contrast	-10.1023
▁translation	-10.1025
bal	-10.1027
▁argument	-10.1029
▁transform	-10.103
▁provider	-10.1031
▁youth	-10.1034
▁cars	-10.1034
▁journal	-10.1038
▁responsibility	-10.1038
▁ended	-10.1042
comp	-10.1045
▁tight	-10.1048
▁conducted	-10.1055
▁meant	-10.1056
▁debt	-10.1069
▁implement	-10.107
▁anyway	-10.1072
▁ip	-10.1072
▁accurate	-10.1075
dra	-10.1084
▁interaction	-10.1088
▁clothes	-10.1091
▁theater	-10.1094
▁africa	-10.1095
ford	-10.1099
▁export	-10.11
af	-10.1101
bus	-10.1103
ska	-10.1108
▁leather	-10.1109
ii	-10.1109
▁cutting	-10.1111
duct	-10.1113
▁recording	-10.1122
▁japanese	-10.1129
▁writer	-10.1132
▁hum	-10.1136
osis	-10.1138
▁perfectly	-10.1139
▁dad	-10.1142
▁ben	-10.1145
▁voltage	-10.1147
▁category	-10.1152
▁tail	-10.1152
▁[...]	-10.1154
▁ancient	-10.1156
ib	-10.1156
▁deposit	-10.1167
▁parameters	-10.117
▁pink	-10.1174
og	-10.1175
▁typically	-10.1176
▁lesson	-10.1176
▁tough	-10.1183
▁appreciate	-10.1185
▁col	-10.1188
▁mg	-10.1191
▁italian	-10.1192
▁institute	-10.1193
▁accessories	-10.1194
are	-10.1196
▁hydro	-10.1202
▁relatively	-10.1203
▁sla	-10.1209
▁keeping	-10.1224
▁cheap	-10.1225
▁religious	-10.1234
ku	-10.1234
▁absolutely	-10.1237
▁stopped	-10.1239
▁android	-10.1239
▁sk	-10.1257
▁canada	-10.1259
▁royalty	-10.1263
▁bin	-10.127
▁housing	-10.1271
tes	-10.1272
▁agent	-10.1273
▁examples	-10.1286
▁missing	-10.1287
▁hearing	-10.1287
▁walls	-10.1288
kh	-10.1291
▁gla	-10.1294
hand	-10.1294
des	-10.1296
fu	-10.1303
▁extend	-10.1306
▁buildings	-10.1315
▁ratio	-10.132
▁pages	-10.1325
zz	-10.1329
lk	-10.1331
▁automatic	-10.1336
▁recorded	-10.1349
cept	-10.1352
▁furniture	-10.1354
▁neck	-10.1356
▁circle	-10.1357
▁pm	-10.136
cm	-10.1363
▁adding	-10.1369
▁expand	-10.1376
print	-10.1376
ration	-10.1379
▁char	-10.1384
▁mess	-10.1388
etic	-10.1389
uck	-10.1391
▁reduction	-10.1392
vic	-10.1393
nel	-10.1396
▁songs	-10.1397
flow	-10.1398
▁revenue	-10.14
dia	-10.1402
▁wal	-10.1406
▁sharp	-10.1418
ack	-10.1424
▁broken	-10.1426
▁trail	-10.1427
▁adults	-10.143
▁incident	-10.1434
▁comparison	-10.1436
▁gl	-10.1445
▁uses	-10.145
▁prove	-10.1451
▁stretch	-10.1455
rated	-10.1455
▁assembly	-10.1458
▁arrived	-10.1464
▁flag	-10.147
▁tradition	-10.147
▁tomorrow	-10.1475
win	-10.1479
▁register	-10.149
▁affected	-10.1492
▁permanent	-10.1492
▁england	-10.1506
▁bowl	-10.1514
ches	-10.1515
▁scheme	-10.1519
▁conclusion	-10.153
▁password	-10.1531
▁bull	-10.1533
▁tag	-10.1537
til	-10.1539
ore	-10.1542
▁cake	-10.1548
▁mixture	-10.1549
▁rh	-10.1555
▁presentation	-10.1555
▁struggle	-10.156
▁pocket	-10.156
ode	-10.1561
▁portion	-10.1564
ened	-10.1568
▁michael	-10.1573
▁surprise	-10.1577
▁consumption	-10.158
▁depend	-10.1586
▁ms	-10.159
struct	-10.1595
▁claims	-10.16
pha	-10.1605
▁television	-10.1612
▁certificate	-10.1613
qu	-10.1615
▁sequence	-10.1618
▁jack	-10.1622
wel	-10.1622
▁mat	-10.1635
fr	-10.1641
▁trump	-10.1646
▁magic	-10.1646
▁instrument	-10.1646
pc	-10.1652
onic	-10.1654
▁businesses	-10.1657
▁listed	-10.1658
▁arms	-10.1666
eu	-10.1666
▁ingredients	-10.1667
nu	-10.168
▁ap	-10.1682
▁decisions	-10.1683
▁vitamin	-10.1688
even	-10.1694
▁lady	-10.1695
▁shoot	-10.1695
▁faster	-10.1697
▁exceed	-10.1699
▁mask	-10.17
▁emotional	-10.17
▁component	-10.1701
nie	-10.1701
ised	-10.1709
star	-10.171
▁landscape	-10.1712
▁drugs	-10.1715
▁exposure	-10.1718
▁consists	-10.1725
▁frank	-10.1727
▁enhance	-10.1728
hal	-10.1729
pers	-10.1735
otic	-10.174
▁characteristics	-10.174
▁boys	-10.1742
▁sam	-10.1744
▁fly	-10.1745
▁failed	-10.1745
ender	-10.1746
▁displayed	-10.1748
▁radi	-10.1752
▁reveal	-10.1752
▁photograph	-10.1752
ators	-10.1754
▁alarm	-10.1754
▁robert	-10.1755
▁delete	-10.1756
att	-10.176
▁surgery	-10.1763
▁sight	-10.1769
▁fourth	-10.1769
▁challenges	-10.1772
ick	-10.1779
▁leaders	-10.1782
▁sy	-10.1786
bl	-10.1787
▁surrounding	-10.1789
▁fin	-10.1791
logical	-10.1795
▁monitoring	-10.1798
▁dose	-10.1802
▁increases	-10.1805
tical	-10.1807
▁rank	-10.1808
▁japan	-10.1809
loc	-10.1812
ele	-10.182
new	-10.1826
▁gal	-10.1826
aw	-10.1829
▁formed	-10.1831
▁tower	-10.1839
tern	-10.1844
fil	-10.1845
▁jobs	-10.1855
▁brush	-10.1858
▁organic	-10.1862
▁technologies	-10.1878
▁rent	-10.1881
gh	-10.1882
▁celebrate	-10.1882
▁slowly	-10.1883
oh	-10.1889
▁supplement	-10.1891
▁witness	-10.1892
▁royal	-10.1897
▁sufficient	-10.1898
▁consist	-10.1904
▁teach	-10.1907
ray	-10.1908
ero	-10.1919
bil	-10.1933
▁fault	-10.1935
▁guest	-10.1936
▁native	-10.194
▁edition	-10.1943
▁specified	-10.1951
▁shi	-10.1955
▁relationships	-10.1955
▁speech	-10.1958
mination	-10.196
▁follows	-10.1964
▁bre	-10.1967
▁electrical	-10.1969
pan	-10.1975
▁signs	-10.1976
eng	-10.1981
%)	-10.1983
bin	-10.1995
▁recipe	-10.1996
▁fuck	-10.1997
law	-10.1997
▁ham	-10.1999
▁argue	-10.2002
▁australia	-10.2015
▁bu	-10.2016
▁clo	-10.202
▁pri	-10.2024
▁enjoyed	-10.203
aging	-10.2031
▁wearing	-10.2034
▁entered	-10.2035
▁pic	-10.2036
▁okay	-10.2038
▁flavor	-10.2042
mmer	-10.2044
▁leads	-10.2047
inter	-10.205
▁tear	-10.2055
▁survive	-10.2056
▁quote	-10.2059
▁cho	-10.2061
stone	-10.2062
▁cl	-10.2066
▁injury	-10.2067
‐	-10.2076
▁rob	-10.2079
ulated	-10.208
▁awesome	-10.2084
▁dedicated	-10.2085
▁purchased	-10.2087
▁george	-10.2088
▁coll	-10.2091
ye	-10.2092
▁familiar	-10.2098
▁techniques	-10.2101
▁adventure	-10.2101
▁extension	-10.2103
▁scientific	-10.2104
▁recovery	-10.2105
▁index	-10.2109
▁promotion	-10.211
▁string	-10.2111
vert	-10.2111
link	-10.2112
ene	-10.2112
▁turns	-10.2114
▁identity	-10.2117
position	-10.2119
▁mirror	-10.2121
▁asking	-10.2122
bol	-10.2123
▁decrease	-10.2123
ara	-10.2131
▁plot	-10.2133
made	-10.2135
▁winner	-10.2136
▁lan	-10.2147
▁planet	-10.2149
ks	-10.2152
▁engineering	-10.2153
▁editor	-10.2158
▁heating	-10.2163
▁queen	-10.2173
rr	-10.2174
▁earn	-10.2177
▁gre	-10.2178
▁seconds	-10.2179
▁pol	-10.2185
▁stated	-10.2187
▁tar	-10.2188
verse	-10.219
▁alter	-10.2197
▁epi	-10.2201
▁segment	-10.2202
▁bla	-10.2208
▁criminal	-10.2211
▁birthday	-10.2226
▁recognized	-10.2228
▁tire	-10.2235
▁residents	-10.2242
cro	-10.2253
▁replaced	-10.2268
▁delicious	-10.2272
▁partners	-10.2272
▁passenger	-10.2275
▁vary	-10.228
lar	-10.2281
▁crack	-10.2282
▁employee	-10.2284
▁urban	-10.2287
lip	-10.2295
▁shoulder	-10.2296
▁container	-10.2297
▁herself	-10.2297
▁professor	-10.2303
hor	-10.2303
wear	-10.2305
▁enterprise	-10.2306
▁depth	-10.2307
▁persons	-10.2307
▁procedures	-10.2313
▁carefully	-10.2315
▁california	-10.2315
tract	-10.2316
▁mail	-10.2317
▁hell	-10.2319
▁moreover	-10.2319
▁sil	-10.2322
▁plane	-10.2328
▁focused	-10.233
▁accordance	-10.2334
▁producer	-10.2338
▁ki	-10.2339
▁coat	-10.2346
atory	-10.2349
▁opt	-10.2352
▁rail	-10.2353
ending	-10.2355
ama	-10.2355
hr	-10.2366
▁starts	-10.2367
▁angel	-10.2372
▁ocean	-10.2373
▁kr	-10.2374
▁facility	-10.2377
▁reward	-10.2379
▁attract	-10.2382
▁rare	-10.2383
▁organized	-10.2385
lit	-10.2388
▁manufacturer	-10.2388
▁thousands	-10.2396
▁runs	-10.2397
▁impossible	-10.2399
▁cooperation	-10.2401
▁controller	-10.2406
▁dangerous	-10.241
long	-10.2411
▁moon	-10.2411
▁dust	-10.2412
ished	-10.2414
▁der	-10.2414
iz	-10.2417
▁crystal	-10.242
▁sur	-10.242
ched	-10.2428
▁consumer	-10.2428
py	-10.243
aries	-10.2436
▁recognize	-10.2437
▁wooden	-10.2442
▁domestic	-10.2442
▁tablet	-10.2443
▁belt	-10.2444
▁tr	-10.2444
▁mil	-10.2447
itis	-10.2447
▁integrated	-10.2449
▁breast	-10.245
rie	-10.2452
▁thursday	-10.2452
▁mari	-10.2453
▁za	-10.2455
▁smoke	-10.2462
▁italy	-10.2464
ani	-10.2466
▁tuesday	-10.2475
▁videos	-10.2478
▁tasks	-10.2485
▁frequently	-10.2485
▁boil	-10.2486
▁literature	-10.2488
lation	-10.249
mir	-10.249
▁define	-10.2495
▁revealed	-10.2497
▁regulations	-10.25
▁transmission	-10.2503
fully	-10.2505
gging	-10.2507
▁innovation	-10.2508
▁anymore	-10.2511
▁resulting	-10.2515
▁magazine	-10.2516
▁recover	-10.2518
▁hence	-10.2525
ition	-10.2527
▁dogs	-10.2527
▁powder	-10.2528
cher	-10.2532
▁shipping	-10.2537
▁sir	-10.254
▁selling	-10.2543
▁religion	-10.2546
▁fee	-10.2547
▁semi	-10.2551
▁signed	-10.2553
▁aliexpress	-10.2555
▁sick	-10.2562
▁extensive	-10.2562
▁swa	-10.2562
▁ep	-10.2562
▁specifically	-10.2566
mes	-10.2567
▁typical	-10.2568
▁tourist	-10.2571
▁planned	-10.2571
rus	-10.2571
dal	-10.2575
vers	-10.2577
▁formation	-10.2578
▁occurs	-10.2581
▁fulfill	-10.2582
~	-10.2586
▁proposal	-10.2587
▁emergency	-10.259
▁fluid	-10.2592
▁extent	-10.2593
▁contribution	-10.2594
▁remaining	-10.2596
▁spiritual	-10.2597
▁buying	-10.2597
▁helping	-10.2597
stand	-10.2608
direct	-10.2612
▁thousand	-10.2614
▁assistance	-10.2614
▁han	-10.2615
▁escape	-10.2616
▁chosen	-10.2618
▁lights	-10.2623
▁smell	-10.2624
▁achieved	-10.2625
▁aspects	-10.2627
</	-10.263
ace	-10.2631
▁framework	-10.2635
▁roman	-10.2637
▁designer	-10.2638
▁speaking	-10.2642
▁factory	-10.2646
▁defend	-10.2648
▁orange	-10.2649
eur	-10.2651
▁confirm	-10.2655
▁experiences	-10.2656
▁owners	-10.2662
▁nail	-10.2665
▁lens	-10.2668
▁proud	-10.2669
▁kingdom	-10.2669
lat	-10.2679
ians	-10.268
ky	-10.2683
▁indicator	-10.2688
▁obviously	-10.2691
▁hang	-10.2694
ett	-10.2695
▁por	-10.2698
▁functional	-10.2701
▁repeat	-10.2703
▁greatest	-10.2706
▁rap	-10.2713
▁forced	-10.2719
▁joined	-10.2719
▁extended	-10.2719
▁terminal	-10.2721
▁wednesday	-10.2723
▁gonna	-10.2727
▁random	-10.2727
graph	-10.2727
▁concern	-10.2729
▁aluminum	-10.274
▁sharing	-10.2741
▁valley	-10.2741
▁cre	-10.2741
▁chest	-10.2744
▁wireless	-10.2744
▁circumstances	-10.2747
▁golden	-10.2747
▁temple	-10.2749
▁attitude	-10.2754
▁tested	-10.2756
▁realized	-10.2757
▁explained	-10.276
▁lighting	-10.2764
▁bread	-10.2767
▁totally	-10.2769
ident	-10.2772
▁accepted	-10.2772
▁concert	-10.2774
▁indicate	-10.2779
eth	-10.2779
duc	-10.278
▁institutions	-10.2785
▁rat	-10.2789
▁finance	-10.2791
cular	-10.28
▁concrete	-10.2805
▁split	-10.2809
pol	-10.2809
▁hip	-10.281
cho	-10.2811
▁closer	-10.2813
▁employment	-10.2814
▁warning	-10.2815
▁exc	-10.2821
▁ye	-10.2824
ella	-10.2834
▁gro	-10.2836
▁workshop	-10.2837
▁dia	-10.284
▁caught	-10.2841
▁stars	-10.2842
▁bodies	-10.2843
▁advise	-10.2844
▁sole	-10.2845
ancy	-10.2846
▁allowing	-10.2849
▁messages	-10.2853
▁climb	-10.2857
▁rod	-10.2863
▁tape	-10.2865
▁shirt	-10.2871
▁tips	-10.2874
▁tip	-10.2875
▁mur	-10.2879
quality	-10.2884
▁institution	-10.2887
▁african	-10.2889
▁putting	-10.2891
nia	-10.2895
mid	-10.2895
▁lab	-10.2898
▁officers	-10.2898
▁prize	-10.2902
▁rub	-10.2905
last	-10.2907
▁clip	-10.2909
arian	-10.2913
glo	-10.2914
▁cute	-10.2923
▁hung	-10.2923
▁engineer	-10.2931
▁hate	-10.2933
▁paris	-10.2933
▁lie	-10.2939
▁indicated	-10.2942
▁cri	-10.2944
<	-10.2945
▁academic	-10.2949
itation	-10.2949
rant	-10.2955
▁arab	-10.2958
▁yesterday	-10.2959
▁lit	-10.2966
▁virus	-10.2971
▁snap	-10.2977
▁microsoft	-10.2987
▁excited	-10.2992
▁southern	-10.2999
▁republic	-10.2999
▁abuse	-10.3003
ural	-10.3005
▁charged	-10.3005
ich	-10.3007
ong	-10.3009
▁neither	-10.3015
▁busy	-10.3018
▁ourselves	-10.3018
▁artists	-10.3024
):	-10.3029
▁raw	-10.3033
▁northern	-10.3039
▁afraid	-10.304
▁drain	-10.3041
▁hundred	-10.3052
▁neighbor	-10.3053
▁policies	-10.3054
▁principle	-10.3056
aff	-10.3057
▁ml	-10.3063
▁solar	-10.3068
▁attached	-10.3069
▁fields	-10.3071
▁practices	-10.3077
▁corporate	-10.3078
ala	-10.3083
▁chip	-10.3084
bro	-10.3085
▁forum	-10.3086
▁continues	-10.3092
▁peak	-10.3099
▁revolution	-10.3103
gene	-10.3105
▁prayer	-10.3106
▁assets	-10.3106
▁emerge	-10.3109
met	-10.3116
▁discovered	-10.3121
▁attribute	-10.3125
they	-10.3127
dar	-10.313
clu	-10.3133
▁transition	-10.3139
▁infrastructure	-10.3144
▁clock	-10.3147
▁analyze	-10.3149
▁legs	-10.316
▁bomb	-10.3161
▁walked	-10.3162
▁accomplish	-10.3168
ria	-10.3173
▁happening	-10.3176
▁cop	-10.3176
poli	-10.318
▁competitive	-10.3182
▁mixed	-10.3186
▁collected	-10.3186
▁machines	-10.3187
▁agreed	-10.3187
▁cy	-10.319
ml	-10.3194
▁cry	-10.3196
pass	-10.3198
▁latter	-10.3201
▁passion	-10.3207
▁communities	-10.3209
▁printer	-10.321
▁suspect	-10.3211
▁leadership	-10.3212
▁turning	-10.3213
▁laws	-10.3214
▁nut	-10.3214
pu	-10.3215
state	-10.3216
▁eva	-10.3217
▁wing	-10.3222
▁logo	-10.3232
▁supplier	-10.3243
▁fold	-10.3244
▁react	-10.3247
▁sides	-10.3248
«	-10.3252
▁suddenly	-10.3256
▁moral	-10.3258
sure	-10.3264
▁initiative	-10.327
▁qui	-10.3271
▁desired	-10.3272
▁architecture	-10.3275
related	-10.3282
▁delivered	-10.3283
▁evil	-10.3286
▁proceed	-10.3286
▁shares	-10.3286
ivity	-10.3289
ogen	-10.329
▁fellow	-10.3293
▁anywhere	-10.3298
▁stored	-10.3298
uri	-10.33
▁expense	-10.3306
▁containing	-10.3307
▁restaurants	-10.3311
▁evaluation	-10.332
▁begins	-10.3323
▁sets	-10.3326
▁www	-10.3329
▁boost	-10.333
▁parliament	-10.3337
▁mont	-10.3342
▁movies	-10.3345
▁cheese	-10.3345
▁stable	-10.3348
▁visible	-10.3352
▁hero	-10.3357
▁encounter	-10.3357
lay	-10.3358
place	-10.3359
▁crisis	-10.336
ﬁ	-10.3365
▁visitors	-10.3365
▁nurse	-10.3367
▁measured	-10.3376
▁estimate	-10.3377
class	-10.3381
▁empty	-10.3383
▁chicken	-10.3385
▁consideration	-10.3391
▁issued	-10.3393
▁iphone	-10.3396
{/	-10.3396
▁believed	-10.3397
▁relation	-10.3397
▁violence	-10.3406
now	-10.341
▁spanish	-10.3415
▁knows	-10.3416
▁meta	-10.3417
▁noticed	-10.3421
▁belief	-10.343
▁clothing	-10.3432
▁goods	-10.3434
▁unable	-10.3435
▁ordered	-10.3435
▁universal	-10.3438
▁theme	-10.3444
char	-10.3448
▁chat	-10.3452
▁controlled	-10.3457
▁fantastic	-10.346
ulate	-10.3468
▁cancel	-10.3471
▁introduction	-10.3472
▁mechanical	-10.3475
▁loud	-10.3476
ening	-10.348
ita	-10.348
▁hyper	-10.3481
▁technique	-10.3483
▁divided	-10.3483
▁reject	-10.3485
▁id	-10.3492
▁destination	-10.3496
▁fighting	-10.3499
lash	-10.3501
▁virtual	-10.3503
pon	-10.3504
▁slide	-10.3506
▁crash	-10.3515
▁qua	-10.3516
▁restrict	-10.3521
org	-10.3522
▁draft	-10.3525
▁constantly	-10.3526
▁concerns	-10.3527
▁updated	-10.3528
▁observation	-10.3528
▁employer	-10.353
▁convenient	-10.353
ock	-10.3536
▁restore	-10.3537
▁shade	-10.354
▁desk	-10.3541
▁pig	-10.3541
▁markets	-10.3544
▁trigger	-10.3545
▁intention	-10.3547
▁resort	-10.3548
omy	-10.3549
tens	-10.3553
▁nearby	-10.3555
▁diseases	-10.356
▁teeth	-10.3569
▁thoughts	-10.357
▁exhibition	-10.3571
▁retain	-10.3573
▁sing	-10.3574
▁combine	-10.3578
vel	-10.359
ough	-10.3595
qua	-10.3601
▁volunteer	-10.3602
▁complaint	-10.3603
▁adjustment	-10.3604
▁experts	-10.3605
ddle	-10.3605
▁teen	-10.3608
▁strike	-10.3609
script	-10.3613
▁educational	-10.3615
ban	-10.362
▁furthermore	-10.3621
▁manufacturing	-10.3622
▁funny	-10.3623
▁consult	-10.3623
pen	-10.3625
ati	-10.3625
bor	-10.3628
▁scope	-10.3639
▁commitment	-10.3642
▁vessel	-10.3645
▁gap	-10.3646
▁washington	-10.3648
▁tur	-10.365
▁compare	-10.3652
▁wound	-10.3652
▁upgrade	-10.3657
▁exhibit	-10.3658
▁chocolate	-10.3659
▁normally	-10.3666
meter	-10.3668
▁yield	-10.3668
▁isolated	-10.3669
▁regions	-10.3675
▁calm	-10.3676
▁afternoon	-10.3683
lp	-10.3687
▁accommodation	-10.3688
▁bigger	-10.3692
▁blend	-10.3693
agon	-10.3699
▁entirely	-10.3699
▁chamber	-10.37
▁feels	-10.37
▁hal	-10.3701
▁expert	-10.3702
born	-10.3703
▁relations	-10.3706
▁feedback	-10.3707
▁confirmed	-10.3707
▁stores	-10.3708
▁info	-10.3712
▁castle	-10.3713
▁occ	-10.3715
▁cam	-10.3716
quest	-10.3721
▁decor	-10.3726
▁doors	-10.3728
▁usual	-10.3731
▁replacement	-10.3733
▁fra	-10.3742
mus	-10.3744
▁bacteria	-10.3751
bul	-10.3755
ologist	-10.3757
▁crew	-10.3762
▁opposite	-10.3765
▁possibly	-10.3765
▁evaluate	-10.3768
ua	-10.3769
▁capable	-10.377
▁attraction	-10.377
▁contest	-10.3773
▁estimated	-10.3776
▁duty	-10.3783
▁registration	-10.3786
▁samples	-10.3788
▁shell	-10.3789
▁generate	-10.3794
▁willing	-10.3797
▁discussed	-10.3798
▁yu	-10.3802
▁steam	-10.3807
▁diameter	-10.3807
▁mp	-10.3808
▁officials	-10.3809
put	-10.3811
▁arc	-10.3813
▁folk	-10.3819
run	-10.3821
▁approved	-10.3823
▁abstract	-10.3827
▁swimming	-10.3827
▁curve	-10.3829
▁honest	-10.383
▁occurred	-10.3833
▁ultra	-10.3835
▁defeat	-10.384
▁zero	-10.3846
▁sen	-10.3849
▁shooting	-10.385
▁attractive	-10.385
▁hypo	-10.3853
▁thomas	-10.3857
▁slip	-10.3859
▁hook	-10.3861
▁grass	-10.3866
circ	-10.3866
▁differ	-10.3866
▁aircraft	-10.3871
▁citizens	-10.3875
▁champion	-10.3877
▁remained	-10.3881
▁criteria	-10.3886
▁considering	-10.3889
▁organ	-10.3891
▁loose	-10.3896
▁eastern	-10.3896
▁patterns	-10.3903
▁obvious	-10.3903
▁registered	-10.3905
▁repeated	-10.3907
▁suggested	-10.3907
▁arrangement	-10.3908
▁mount	-10.3908
oph	-10.3914
nne	-10.3914
▁trick	-10.3915
get	-10.3918
cast	-10.3923
▁yo	-10.3936
▁browser	-10.3937
▁poster	-10.394
▁harm	-10.3945
▁tall	-10.3945
▁tan	-10.3954
▁accounts	-10.3954
screen	-10.3966
rick	-10.3976
▁narrow	-10.3979
▁fundamental	-10.3989
▁protest	-10.3991
▁structures	-10.3998
▁extreme	-10.3998
▁jan	-10.3999
ae	-10.401
▁effectively	-10.4013
▁smith	-10.402
▁decline	-10.402
▁heaven	-10.4034
▁pleasure	-10.4034
wing	-10.4038
▁secondary	-10.4048
▁surprised	-10.4054
▁bow	-10.4055
▁principles	-10.4058
▁vertical	-10.4061
▁situations	-10.4063
utter	-10.4065
▁advertising	-10.4075
▁examination	-10.4078
▁absorb	-10.408
▁laptop	-10.4082
ott	-10.4086
▁scholar	-10.4088
test	-10.4097
▁strange	-10.41
vy	-10.4101
▁inner	-10.4102
nate	-10.4102
▁films	-10.4104
pot	-10.4106
▁yeah	-10.4112
atic	-10.4117
▁vice	-10.4118
▁championship	-10.4118
psy	-10.4119
▁greek	-10.4123
▁storm	-10.4124
▁younger	-10.4124
▁cooking	-10.4131
▁folder	-10.4131
non	-10.4139
▁worst	-10.4144
▁interests	-10.4145
",	-10.4146
ional	-10.4147
maker	-10.415
cra	-10.4154
▁tells	-10.4154
▁knee	-10.4156
▁confidence	-10.4159
▁assume	-10.4164
▁stra	-10.417
▁everyday	-10.4176
chan	-10.4176
▁branch	-10.418
▁pitch	-10.418
▁funding	-10.418
suit	-10.4185
▁tie	-10.4186
most	-10.419
▁calling	-10.4191
▁submit	-10.4196
gro	-10.4197
▁cle	-10.4197
▁till	-10.42
▁nobody	-10.4208
!!	-10.4209
▁smartphone	-10.4216
▁authentic	-10.4217
oxy	-10.4217
▁linked	-10.4236
▁strengthen	-10.4237
▁concerning	-10.4242
▁usa	-10.4244
▁publication	-10.4244
zu	-10.4251
▁spending	-10.4252
▁gender	-10.4253
▁specialist	-10.4258
▁innovative	-10.4261
organ	-10.4261
▁eliminate	-10.4264
▁receiving	-10.4265
▁disappear	-10.4267
power	-10.4268
▁entrance	-10.4269
▁reform	-10.4269
rup	-10.427
style	-10.4283
▁regularly	-10.43
▁poll	-10.4303
▁apparently	-10.4305
bed	-10.4307
▁formal	-10.4307
▁medication	-10.431
▁reviews	-10.4311
▁reliable	-10.4311
▁posted	-10.4319
▁household	-10.432
▁pray	-10.4327
▁respectively	-10.4328
▁disappoint	-10.4329
▁spray	-10.433
▁premium	-10.4335
▁kiss	-10.4337
▁brings	-10.4339
emp	-10.4341
▁hor	-10.4346
▁discount	-10.4348
rp	-10.4353
ula	-10.4354
▁fur	-10.4358
▁resource	-10.4362
▁sec	-10.4364
card	-10.4365
▁guitar	-10.4365
mark	-10.4367
▁jam	-10.4369
▁supporting	-10.4381
▁researchers	-10.4382
▁judgment	-10.4384
▁traveling	-10.4386
▁matters	-10.4388
▁false	-10.4391
pad	-10.44
▁additionally	-10.4415
▁mold	-10.4416
▁acc	-10.4417
▁telling	-10.4418
▁gram	-10.442
gger	-10.4423
▁blade	-10.4424
▁expressed	-10.4426
cial	-10.4428
▁laser	-10.4431
▁valuable	-10.4434
which	-10.444
just	-10.4442
▁bird	-10.4447
▁recall	-10.4451
▁partnership	-10.4452
▁dam	-10.4456
▁exception	-10.4458
▁launched	-10.4462
ense	-10.4465
▁ministry	-10.4466
▁chronic	-10.4467
▁dc	-10.4471
▁template	-10.4474
▁drivers	-10.4476
▁plays	-10.4478
▁insight	-10.4481
▁debate	-10.4483
▁entertainment	-10.4491
bell	-10.4497
▁].	-10.4498
fall	-10.4501
uv	-10.4502
▁catholic	-10.4503
▁crop	-10.4505
▁sensitive	-10.4511
▁mountains	-10.4512
▁prompt	-10.4513
▁widely	-10.4514
▁provision	-10.4525
▁winning	-10.4525
url	-10.4527
▁saint	-10.4528
▁categories	-10.4529
▁tech	-10.4529
▁twenty	-10.453
late	-10.4531
rc	-10.4534
lc	-10.4537
▁serving	-10.4537
ended	-10.4538
▁script	-10.4541
sur	-10.4542
▁hidden	-10.4558
▁colour	-10.4558
â	-10.4563
▁consumers	-10.4568
▁proportion	-10.4581
▁degrees	-10.4583
@	-10.4586
▁texture	-10.4589
▁def	-10.459
▁musical	-10.4593
▁reasonable	-10.4597
▁pp	-10.4601
▁existence	-10.4605
▁genetic	-10.4607
▁personally	-10.4618
▁agents	-10.4618
▁variation	-10.462
▁strategies	-10.4621
▁whereas	-10.4627
▁mineral	-10.4627
▁adopted	-10.4631
▁^	-10.4631
▁grew	-10.4634
▁rubber	-10.4637
▁brake	-10.4646
conscious	-10.4649
▁letters	-10.465
▁obligation	-10.4651
▁seriously	-10.4652
▁regime	-10.4653
▁feelings	-10.466
▁sar	-10.4664
▁exhaust	-10.4667
▁twin	-10.4669
activ	-10.4669
▁banks	-10.4676
erie	-10.4677
active	-10.4678
▁resolve	-10.4681
▁everybody	-10.4685
www	-10.4689
augh	-10.4693
▁comprehensive	-10.4696
▁blu	-10.4699
fusion	-10.4701
▁stability	-10.4702
▁indicates	-10.4703
▁congress	-10.4705
▁hire	-10.4705
▁capture	-10.4706
▁pregnancy	-10.4708
▁gentle	-10.4709
▁acting	-10.4712
▁buyer	-10.4715
ility	-10.4715
▁committed	-10.4718
lor	-10.4719
▁printing	-10.472
▁knowing	-10.4723
▁inspired	-10.4724
▁centre	-10.4726
▁blind	-10.4731
▁veg	-10.4735
▁neighborhood	-10.4741
▁prince	-10.4746
▁aspect	-10.4749
rad	-10.4753
á	-10.4757
ature	-10.4764
▁exact	-10.4765
▁applicable	-10.4766
▁butter	-10.4769
▁marked	-10.4773
▁articles	-10.4776
▁jacket	-10.4779
▁rush	-10.4787
▁decoration	-10.479
▁suite	-10.4792
▁pleasant	-10.4794
▁saved	-10.4794
▁massive	-10.4795
▁drinking	-10.4801
▁wealth	-10.4803
▁trading	-10.4804
▁breed	-10.4805
™	-10.4806
▁gallery	-10.4813
▁scenario	-10.4817
chin	-10.4819
▁pulled	-10.4822
▁somewhere	-10.4824
▁taught	-10.4829
teen	-10.4835
hood	-10.4838
▁particle	-10.4841
▁flo	-10.4841
▁links	-10.4843
▁besides	-10.4845
▁pour	-10.4848
oe	-10.4849
▁forever	-10.4849
hl	-10.4853
▁trace	-10.486
▁charges	-10.4865
▁assistant	-10.4866
nge	-10.4867
▁stem	-10.4877
after	-10.488
▁principal	-10.4881
▁arrive	-10.4881
shore	-10.4882
gle	-10.4883
▁sho	-10.4883
ano	-10.4887
▁figures	-10.4889
▁rapid	-10.489
▁drill	-10.4891
cp	-10.4892
break	-10.4892
▁sco	-10.4893
▁sauce	-10.4901
hz	-10.4901
▁pound	-10.4902
▁programme	-10.4905
▁stir	-10.4909
▁expansion	-10.4909
▁stood	-10.491
▁martin	-10.4912
▁kn	-10.4913
▁cord	-10.4914
▁arts	-10.4917
▁contemporary	-10.4921
▁sticker	-10.4923
▁basically	-10.4924
tz	-10.4931
▁visited	-10.4931
acy	-10.4934
wise	-10.4935
▁bun	-10.4935
▁protocol	-10.4936
▁invite	-10.4936
▁dear	-10.4936
▁bearing	-10.4937
▁flexible	-10.494
▁destroy	-10.494
▁mood	-10.4944
fc	-10.4951
▁corn	-10.4954
▁counsel	-10.4954
▁suffer	-10.4957
cia	-10.4959
stein	-10.4961
▁apps	-10.4962
▁hardware	-10.4964
▁percentage	-10.4965
▁distinguish	-10.4966
▁dish	-10.4967
▁drawn	-10.4971
▁regardless	-10.4973
“	-10.4977
▁primarily	-10.4978
ux	-10.4984
▁channels	-10.4985
▁thi	-10.4993
urg	-10.4993
▁pilot	-10.4994
▁holder	-10.4998
▁ill	-10.4998
▁granted	-10.5004
▁giant	-10.5004
▁dining	-10.5005
▁continuous	-10.501
▁deserve	-10.5013
holder	-10.5016
▁grace	-10.5019
▁strain	-10.5026
▁explanation	-10.5027
▁loop	-10.503
▁honey	-10.5031
▁houses	-10.5033
ridge	-10.5034
▁habit	-10.5036
▁luck	-10.5045
▁shadow	-10.5048
▁gran	-10.5049
▁findings	-10.505
▁hide	-10.506
sky	-10.5061
▁mer	-10.5061
▁temp	-10.5063
▁locations	-10.5074
ographic	-10.508
▁charm	-10.5082
▁setup	-10.5083
▁privacy	-10.5085
▁plain	-10.5086
▁acts	-10.5087
▁nick	-10.5088
▁%	-10.5091
▁emb	-10.5096
erson	-10.5096
▁wake	-10.51
▁ze	-10.5103
media	-10.5105
▁decades	-10.5106
▁unknown	-10.5106
▁covers	-10.5107
▁appointment	-10.5107
▁suffering	-10.5109
▁generated	-10.5109
▁scr	-10.5112
▁asia	-10.5114
▁keyboard	-10.5117
▁kg	-10.5118
▁admit	-10.512
▁adam	-10.5122
▁audit	-10.5131
grad	-10.5131
die	-10.5132
▁initially	-10.5134
bling	-10.5134
tech	-10.5136
mag	-10.514
▁communicate	-10.5142
▁routine	-10.5142
▁width	-10.5149
▁careful	-10.5154
▁fairly	-10.5157
▁grown	-10.5162
▁gym	-10.5162
▁villa	-10.5163
”,	-10.5163
▁egg	-10.5166
▁jewish	-10.5171
rous	-10.5173
via	-10.5177
▁attorney	-10.518
life	-10.518
▁intervention	-10.5183
dri	-10.5184
▁exciting	-10.5185
><	-10.5186
ada	-10.5187
​	-10.5188
phi	-10.519
▁ultimately	-10.5191
▁expectations	-10.5196
▁mus	-10.5197
▁proof	-10.52
▁dna	-10.5201
▁toilet	-10.5203
▁hundreds	-10.5207
astic	-10.5215
▁ken	-10.5219
▁seller	-10.522
▁iii	-10.5224
▁commonly	-10.5227
▁danger	-10.523
▁alive	-10.5233
▁province	-10.5235
▁participation	-10.5238
▁juice	-10.5244
▁bru	-10.5247
▁fitness	-10.525
▁carrying	-10.5254
stat	-10.5257
▁rice	-10.5261
▁odd	-10.5262
▁observe	-10.5267
▁critic	-10.5271
▁spain	-10.5276
▁harry	-10.5279
▁pit	-10.5286
▁sleeve	-10.5287
gri	-10.5288
▁palm	-10.5288
▁scott	-10.5292
▁sail	-10.5293
▁spell	-10.5295
person	-10.5296
▁elegant	-10.5298
▁bud	-10.53
▁uni	-10.53
▁withdraw	-10.5309
▁uniform	-10.5312
nan	-10.5318
code	-10.5321
▁surprising	-10.5322
▁sweat	-10.5323
▁qu	-10.5328
▁permit	-10.5329
▁gel	-10.5329
▁warsaw	-10.5331
▁integration	-10.5336
▁eli	-10.5338
▁vital	-10.5339
▁stands	-10.534
▁leaf	-10.5343
▁tumor	-10.5344
▁laid	-10.535
▁fishing	-10.5357
▁superior	-10.5357
▁prospect	-10.5367
▁knock	-10.5368
▁ease	-10.5368
▁worldwide	-10.537
▁margin	-10.5373
▁originally	-10.5386
town	-10.5394
▁languages	-10.5399
ini	-10.54
▁investigate	-10.5401
metric	-10.5407
▁costume	-10.5407
rit	-10.5407
▁listening	-10.5408
▁substantial	-10.541
level	-10.541
▁spark	-10.5411
▁enemy	-10.5415
▁protected	-10.5418
▁leak	-10.5425
aunt	-10.5427
▁seed	-10.5428
when	-10.5428
▁phil	-10.543
▁reverse	-10.5432
▁packaging	-10.5435
▁rid	-10.5444
▁understood	-10.5447
▁birds	-10.545
▁strategic	-10.5451
▁bid	-10.5454
ó	-10.5454
▁tam	-10.5458
▁fre	-10.5459
▁strict	-10.5462
▁massage	-10.5466
▁len	-10.5468
▁successfully	-10.5468
▁stainless	-10.5468
▁awareness	-10.547
▁paragraph	-10.5473
▁academy	-10.5474
▁represents	-10.5474
cker	-10.5475
▁inspiration	-10.5481
▁picked	-10.5485
▁ignore	-10.5485
▁removal	-10.549
▁hp	-10.5492
▁instruments	-10.5492
ibility	-10.5499
▁ray	-10.5502
▁adequate	-10.5502
▁louis	-10.5504
▁dimensions	-10.5505
▁unlike	-10.5512
▁deck	-10.5512
▁delight	-10.5518
▁cow	-10.5518
▁provisions	-10.5528
▁succeed	-10.5529
claim	-10.5532
▁closely	-10.5534
▁telephone	-10.5535
▁combat	-10.5535
▁facing	-10.5543
▁cotton	-10.5545
▁dual	-10.5546
▁bringing	-10.5546
▁priest	-10.5548
▁muslim	-10.5548
▁intelligence	-10.555
temp	-10.5552
▁enables	-10.5553
▁transportation	-10.5553
▁comprise	-10.5554
▁somewhat	-10.5559
pic	-10.5559
gno	-10.5561
▁squ	-10.5562
▁choosing	-10.5565
▁constitution	-10.5566
▁lawyer	-10.5573
▁golf	-10.5573
▁tournament	-10.5583
▁trap	-10.5585
ida	-10.5587
▁robot	-10.5591
▁coin	-10.5595
▁evolution	-10.5595
▁carrier	-10.5597
lig	-10.5601
▁electricity	-10.5603
view	-10.5604
hear	-10.5605
▁politics	-10.5608
worth	-10.5609
▁crazy	-10.5609
▁connections	-10.5611
▁thermal	-10.5611
▁»	-10.5614
▁tickets	-10.5617
▁corporation	-10.562
dom	-10.5622
page	-10.5625
▁ger	-10.563
fold	-10.5631
▁correctly	-10.5634
var	-10.5642
▁lies	-10.5649
cri	-10.565
▁moments	-10.5654
▁graphic	-10.5657
▁paying	-10.5657
▁patch	-10.5659
!"	-10.5663
rb	-10.5666
oxid	-10.5676
zing	-10.5676
key	-10.5678
▁meetings	-10.5685
▁val	-10.5689
plan	-10.5693
▁compact	-10.5693
▁handling	-10.5694
▁tile	-10.5695
▁ticket	-10.5697
▁connector	-10.5697
▁eggs	-10.5703
▁coverage	-10.5707
▁flood	-10.5711
▁ceiling	-10.5713
▁richard	-10.5716
▁broke	-10.5724
ison	-10.5728
▁nations	-10.573
▁emission	-10.5745
▁luxury	-10.5745
▁shin	-10.5746
emia	-10.5747
▁translate	-10.5748
▁immediate	-10.5751
▁personality	-10.5752
morph	-10.5755
▁studied	-10.5756
▁crown	-10.5761
▁awards	-10.5768
▁duration	-10.5768
▁wallpaper	-10.5769
▁directed	-10.5772
▁tho	-10.5778
high	-10.5786
{	-10.5786
▁kat	-10.5788
▁losing	-10.5789
rri	-10.5798
have	-10.5798
▁lee	-10.5803
section	-10.5805
▁depression	-10.5808
shot	-10.581
crea	-10.5812
▁reporting	-10.5814
▁mouse	-10.5815
ote	-10.5823
ifies	-10.5824
▁investors	-10.5827
▁absence	-10.583
▁missed	-10.5834
▁satellite	-10.5835
cip	-10.5843
▁lucky	-10.585
▁suggests	-10.5853
▁corp	-10.5854
▁naturally	-10.5854
▁captain	-10.5855
▁bible	-10.586
▁infant	-10.5866
▁dropped	-10.5867
▁casual	-10.587
▁reg	-10.5871
▁grain	-10.5873
▁merc	-10.5874
▁illness	-10.5874
▁consequences	-10.5876
▁causing	-10.5877
mini	-10.5883
▁reducing	-10.5885
▁barrier	-10.5885
hn	-10.5889
ifying	-10.5891
▁grip	-10.5893
amine	-10.5893
▁wrap	-10.5895
▁exposed	-10.5898
cz	-10.5901
▁disk	-10.5902
▁dreams	-10.5911
▁impressive	-10.5917
pin	-10.5918
▁vacation	-10.5928
▁dealing	-10.5929
▁holds	-10.5934
band	-10.5939
▁defect	-10.594
num	-10.594
lot	-10.594
cies	-10.5943
▁passing	-10.5943
▁applicant	-10.5944
▁memories	-10.5945
▁exit	-10.5951
▁compete	-10.5955
eff	-10.5956
▁thr	-10.596
rum	-10.5964
▁impression	-10.5967
▁tun	-10.5968
try	-10.5973
▁bound	-10.5974
rating	-10.5979
lateral	-10.5979
▁interpret	-10.598
▁possess	-10.5983
▁weapons	-10.5984
ü	-10.5984
`	-10.5986
▁liked	-10.5995
hydr	-10.5997
wan	-10.6
ush	-10.6
▁demonstrate	-10.6
▁diagnosis	-10.6006
▁sew	-10.6014
▁unre	-10.6014
▁strap	-10.6021
▁configure	-10.6025
▁applies	-10.6026
▁fees	-10.6029
▁cabinet	-10.603
ball	-10.6032
▁tiny	-10.6032
▁exam	-10.6036
▁terrace	-10.6036
prov	-10.6039
▁interpretation	-10.6061
▁dishes	-10.6063
posing	-10.6065
▁cluster	-10.607
▁introduce	-10.607
▁correspond	-10.6077
▁printed	-10.6077
asse	-10.608
▁stayed	-10.6085
▁luc	-10.6085
▁improving	-10.6085
tta	-10.6089
▁blo	-10.6089
▁performing	-10.6091
▁recognition	-10.6102
▁texas	-10.6102
▁unusual	-10.6104
▁charles	-10.6106
ache	-10.6108
inch	-10.611
▁vast	-10.6113
▁assigned	-10.6114
▁pole	-10.6117
coming	-10.6128
▁thermo	-10.6132
▁dollars	-10.6135
▁examine	-10.614
▁bob	-10.6145
more	-10.615
rog	-10.6153
▁meanwhile	-10.6154
▁victory	-10.616
roll	-10.6161
▁tired	-10.6165
▁marine	-10.6167
▁relief	-10.617
pur	-10.6171
▁chose	-10.6172
▁preference	-10.6176
▁facilitate	-10.6178
oper	-10.6181
ami	-10.6183
▁afford	-10.6185
▁premier	-10.6188
▁slot	-10.619
▁happiness	-10.6191
▁outstanding	-10.6191
▁plea	-10.6204
vol	-10.6207
static	-10.6207
▁singer	-10.6207
▁@	-10.6208
▁managing	-10.6209
▁newspaper	-10.621
▁nutrition	-10.6212
audi	-10.6219
under	-10.6221
▁tion	-10.6224
▁oxygen	-10.6224
▁electro	-10.6225
▁olive	-10.6226
▁parallel	-10.6232
▁cooling	-10.6233
▁errors	-10.6237
▁bug	-10.6238
▁scheduled	-10.624
▁youtube	-10.624
▁informed	-10.6241
▁situated	-10.6243
▁weigh	-10.6243
▁construct	-10.6246
▁minimal	-10.6247
▁twitter	-10.6249
▁personalization	-10.6254
vision	-10.6258
▁pace	-10.6259
▁reader	-10.6263
color	-10.6265
mond	-10.6272
▁visiting	-10.6274
▁invention	-10.6276
eno	-10.6277
▁pepper	-10.628
gie	-10.6282
rom	-10.6285
▁approval	-10.6287
▁tin	-10.6291
▁colorful	-10.6298
▁achievement	-10.6302
▁specify	-10.6304
▁directive	-10.6306
▁scratch	-10.631
arm	-10.6317
▁corresponding	-10.6319
▁jean	-10.6327
where	-10.6328
▁buck	-10.6329
rich	-10.6332
▁portrait	-10.6337
▁clinic	-10.6338
▁flying	-10.6339
▁boss	-10.6343
▁strongly	-10.6346
face	-10.6346
posed	-10.6347
▁damaged	-10.6348
▁priority	-10.6355
▁preserve	-10.636
▁bonus	-10.6362
▁grave	-10.6364
▁pill	-10.6366
▁emotions	-10.6368
▁supplies	-10.6369
▁everywhere	-10.637
▁pregnant	-10.637
▁tac	-10.6374
▁graphics	-10.6376
mann	-10.6387
▁increasingly	-10.6387
▁seeking	-10.6389
hold	-10.6391
▁joke	-10.6393
▁twist	-10.6394
quar	-10.6394
▁homo	-10.6402
▁permission	-10.6406
dan	-10.6406
▁falling	-10.6407
▁drinks	-10.6408
▁contained	-10.6413
▁equivalent	-10.6413
ude	-10.6415
▁manufacturers	-10.642
shirt	-10.6421
!”	-10.6422
▁incorporate	-10.6423
▁render	-10.6424
▁inspection	-10.6425
▁engage	-10.6429
▁drum	-10.6431
▁maintained	-10.6432
▁divide	-10.6434
cub	-10.6443
▁colleague	-10.6445
▁represented	-10.6447
▁subsequent	-10.645
▁vegetables	-10.6451
▁intense	-10.6452
ui	-10.6453
from	-10.6454
▁largely	-10.6459
▁temporary	-10.6466
▁nuclear	-10.6466
▁implemented	-10.647
▁stronger	-10.647
▁complain	-10.6473
▁consent	-10.6475
▁parameter	-10.6481
▁involves	-10.6484
▁engaged	-10.6484
▁tattoo	-10.6488
gate	-10.6493
▁dun	-10.6494
▁lifestyle	-10.6508
▁geo	-10.6508
clo	-10.651
▁submitted	-10.6514
▁chan	-10.6515
▁universe	-10.652
▁node	-10.6528
▁arrival	-10.6529
▁characterized	-10.6532
▁crucial	-10.6534
wl	-10.6536
ential	-10.6537
▁outlet	-10.6549
ulating	-10.6554
▁conversion	-10.6554
▁drag	-10.6555
▁whenever	-10.6558
▁rural	-10.6561
▁sponsor	-10.6563
▁solo	-10.6566
other	-10.6566
gin	-10.6566
wick	-10.6568
▁incredible	-10.6575
cover	-10.6581
▁secretary	-10.6582
ured	-10.6583
build	-10.659
berry	-10.6594
▁ker	-10.6595
▁calculation	-10.6598
ena	-10.6599
hol	-10.6604
▁accuracy	-10.6604
▁melt	-10.6611
▁guidelines	-10.6613
dding	-10.6622
▁protective	-10.663
▁charging	-10.6636
▁historic	-10.6642
train	-10.6653
▁shit	-10.6661
▁reception	-10.6664
trans	-10.6673
▁grab	-10.6676
▁preferred	-10.6682
▁tension	-10.6685
duction	-10.6685
▁sup	-10.6694
▁genuine	-10.6694
▁anxiety	-10.6696
rl	-10.6699
▁calendar	-10.6714
▁ranked	-10.6715
uous	-10.6717
▁calculated	-10.6722
loy	-10.6723
▁meter	-10.6726
body	-10.6727
▁concentrate	-10.6728
▁watched	-10.6729
count	-10.6735
▁exclusive	-10.6741
logy	-10.6748
▁diver	-10.6748
▁wage	-10.6752
▁comic	-10.6753
tone	-10.6754
▁injuries	-10.6755
▁rescue	-10.6755
▁rome	-10.6757
▁nose	-10.677
▁pea	-10.6771
▁slave	-10.6771
▁dramatic	-10.6772
▁celebration	-10.6781
▁tender	-10.6782
▁drama	-10.6785
▁wheels	-10.6788
▁stain	-10.6792
▁indoor	-10.6794
▁attended	-10.6796
▁invited	-10.6797
▁illustrate	-10.6797
▁employed	-10.6805
▁lean	-10.681
▁convention	-10.6812
▁oven	-10.6813
▁palace	-10.6814
▁gall	-10.6816
▁administrator	-10.6819
▁float	-10.6831
▁matt	-10.6831
chlor	-10.6838
▁absolute	-10.6838
▁broadcast	-10.6843
▁disturb	-10.6843
ously	-10.6846
tron	-10.6849
▁territory	-10.685
▁lar	-10.6853
▁decade	-10.6857
▁dozen	-10.6869
▁liver	-10.6872
▁trim	-10.6873
▁cookies	-10.6874
▁founded	-10.6875
▁rental	-10.6879
sphere	-10.688
▁steve	-10.6881
▁amendment	-10.6883
▁settlement	-10.6885
▁manifest	-10.6899
▁pizza	-10.6901
▁featuring	-10.6905
▁es	-10.6906
▁legislation	-10.6911
▁structural	-10.6913
▁coating	-10.6916
hen	-10.6918
▁constitute	-10.6928
▁adapter	-10.6928
▁physician	-10.694
▁availability	-10.6944
▁campus	-10.6951
▁stomach	-10.6957
▁mut	-10.6958
▁injection	-10.6959
▁shouldn	-10.696
▁jim	-10.6968
▁claimed	-10.697
▁bush	-10.6971
▁analog	-10.6973
▁scal	-10.6987
rid	-10.6989
elli	-10.6989
▁accessible	-10.6992
▁sexy	-10.6993
▁brazil	-10.6994
▁hazard	-10.7006
▁grill	-10.7006
▁nevertheless	-10.701
▁programming	-10.7013
▁compress	-10.7018
▁soldiers	-10.7018
▁childhood	-10.7029
▁durable	-10.7033
▁nar	-10.7034
▁binding	-10.7035
stimul	-10.7036
ific	-10.7041
▁diamond	-10.7042
▁requirement	-10.7042
chrom	-10.7045
▁arrested	-10.7046
▁flour	-10.7048
▁opponent	-10.705
▁sending	-10.7055
▁notification	-10.7056
▁alert	-10.7057
▁entering	-10.7061
station	-10.7061
crypt	-10.7066
▁adopt	-10.7069
post	-10.7071
▁owned	-10.7073
▁beam	-10.7075
emi	-10.7075
▁jews	-10.7077
▁stuck	-10.7078
▁killing	-10.7084
▁residence	-10.7085
▁detection	-10.7086
▁reinforce	-10.7089
ipped	-10.7096
▁ultimate	-10.7101
▁readers	-10.7102
phone	-10.7103
bound	-10.7104
▁membrane	-10.7104
▁seeds	-10.7106
▁debut	-10.7109
▁horizontal	-10.7111
▁riding	-10.7115
▁hoping	-10.7115
por	-10.7119
▁necessarily	-10.7123
▁bolt	-10.7125
▁mel	-10.7133
▁outfit	-10.7133
▁cinema	-10.7136
▁checked	-10.7147
▁compliance	-10.7154
▁asian	-10.7157
▁latin	-10.7161
▁nervous	-10.7165
▁abandon	-10.7167
▁discharge	-10.7171
▁alleged	-10.7174
▁hood	-10.7175
▁resist	-10.7178
▁brick	-10.7187
▁supplied	-10.7196
▁identification	-10.72
▁laboratory	-10.7201
ifier	-10.7203
▁arise	-10.7209
any	-10.7209
▁venue	-10.7212
▁empire	-10.7219
zer	-10.7231
migrant	-10.7239
▁array	-10.7255
▁scientists	-10.7257
▁lung	-10.7259
drive	-10.7259
tail	-10.7261
▁administrative	-10.7262
▁ordinary	-10.7262
▁transformation	-10.7263
▁algorithm	-10.7266
▁collaboration	-10.7266
▁summary	-10.7275
▁usage	-10.728
▁cav	-10.7281
▁sav	-10.7282
▁currency	-10.7283
▁literally	-10.7287
▁ireland	-10.7295
▁agencies	-10.7296
▁toxic	-10.7298
▁entitled	-10.7298
▁jar	-10.7306
▁operational	-10.7306
▁consume	-10.7311
▁gh	-10.7319
fla	-10.7321
▁mexico	-10.7326
▁passage	-10.7331
▁pln	-10.7332
who	-10.7333
▁quantity	-10.7334
ö	-10.7339
▁personnel	-10.7339
▁satisfied	-10.7341
▁decent	-10.7342
▁tooth	-10.7343
▁phrase	-10.7343
▁washing	-10.7343
▁oct	-10.7345
making	-10.7345
▁swim	-10.7345
▁driven	-10.7345
▁sustainable	-10.735
▁dragon	-10.7361
▁somebody	-10.7362
▁refresh	-10.7364
control	-10.7367
▁hub	-10.7368
▁excess	-10.7368
▁density	-10.7371
▁cartoon	-10.7373
▁approaches	-10.7375
▁proven	-10.7377
kar	-10.7378
▁console	-10.738
▁connecting	-10.738
▁neutral	-10.7386
▁compatible	-10.7388
▁cli	-10.7388
▁lecture	-10.7392
▁railway	-10.7392
▁persist	-10.7393
▁graph	-10.7394
▁fifth	-10.7397
care	-10.7397
▁municipal	-10.7399
▁optimal	-10.7399
▁utilize	-10.7399
▁awarded	-10.7401
▁tonight	-10.7404
▁junior	-10.7418
▁emphasize	-10.7422
▁lever	-10.7423
nik	-10.7426
titu	-10.7438
▁conventional	-10.7439
▁cata	-10.7443
▁dependent	-10.7444
▁toys	-10.7445
▁associate	-10.7446
eller	-10.7452
▁interval	-10.7454
turn	-10.7466
−	-10.7468
▁weapon	-10.7472
▁suspension	-10.7477
core	-10.7479
▁span	-10.7481
▁eco	-10.7483
▁rarely	-10.7485
»	-10.7491
▁psycho	-10.7492
▁prof	-10.7494
▁vintage	-10.7496
para	-10.7497
▁featured	-10.75
▁fitted	-10.75
▁mit	-10.7502
▁statistics	-10.7503
▁boxes	-10.7505
▁cheer	-10.7506
▁monster	-10.7508
▁instruction	-10.7509
▁retro	-10.751
tribu	-10.7517
▁recommendations	-10.7521
▁optional	-10.7522
▁rack	-10.7526
acle	-10.7532
▁gang	-10.7534
▁measuring	-10.7535
▁proved	-10.7543
encies	-10.7544
▁monthly	-10.7545
▁difficulty	-10.7547
▁reset	-10.7547
▁artificial	-10.7548
▁illegal	-10.7555
▁matches	-10.7557
▁governor	-10.7557
▁spare	-10.756
▁sq	-10.7563
▁copper	-10.7564
▁interact	-10.7566
bert	-10.7567
▁distinct	-10.757
▁stupid	-10.757
▁moisture	-10.7572
▁filling	-10.7578
▁chicago	-10.7583
▁talked	-10.7584
▁turkey	-10.7586
▁fitting	-10.7591
▁chu	-10.7598
ound	-10.7601
▁australian	-10.7604
▁racing	-10.7609
▁demo	-10.7609
#	-10.761
▁statistical	-10.761
▁ruin	-10.7611
▁thickness	-10.7612
▁ongoing	-10.7617
▁mile	-10.7618
far	-10.7619
▁acknowledge	-10.7623
▁traveler	-10.7627
▁painted	-10.7627
▁execution	-10.7632
▁challenging	-10.7641
▁healing	-10.7643
▁rip	-10.7657
space	-10.766
▁affairs	-10.7664
front	-10.7665
▁cooper	-10.7667
▁exceptional	-10.767
ule	-10.767
▁appointed	-10.7678
▁complement	-10.768
▁preparing	-10.768
▁rein	-10.7682
▁equally	-10.7684
▁mild	-10.7685
note	-10.7685
▁dispute	-10.7688
▁trained	-10.7689
ssa	-10.769
▁signature	-10.7697
aya	-10.7699
▁tim	-10.7699
▁creature	-10.7701
▁pleased	-10.7702
zar	-10.7703
▁harvest	-10.7703
▁pod	-10.7704
craft	-10.7707
▁cave	-10.7709
round	-10.771
▁balcony	-10.7711
▁supreme	-10.7718
▁inches	-10.772
fect	-10.7726
▁silent	-10.7734
▁curious	-10.7736
ogram	-10.7737
▁stan	-10.7738
ould	-10.7742
▁romantic	-10.7746
▁hopefully	-10.7748
▁patent	-10.7749
▁frequent	-10.775
▁santa	-10.775
▁bon	-10.775
▁guidance	-10.7752
▁arrow	-10.7752
▁perception	-10.7753
charge	-10.7761
▁accounting	-10.7766
▁chop	-10.7767
▁documentation	-10.7767
▁legend	-10.7769
▁jet	-10.777
▁neo	-10.7777
step	-10.7778
▁representation	-10.7778
▁rapidly	-10.7781
▁gained	-10.7791
▁henry	-10.7792
▁resistant	-10.7793
▁suck	-10.7796
▁instant	-10.78
▁magnetic	-10.7806
▁batteries	-10.781
▁industries	-10.781
▁joseph	-10.781
▁recruit	-10.7815
gent	-10.7817
▁engagement	-10.7823
▁diverse	-10.7825
▁shield	-10.7825
▁slice	-10.7828
▁upload	-10.7834
▁relate	-10.7844
itch	-10.7844
▁assumption	-10.7852
▁entrepreneur	-10.7853
road	-10.7853
▁regulate	-10.7864
▁silence	-10.7873
▁complicated	-10.7875
called	-10.7877
oon	-10.7879
▁stack	-10.7885
itz	-10.7885
▁suffered	-10.7888
▁immune	-10.7891
isation	-10.7893
▁ceo	-10.7893
▁makeup	-10.7894
▁canadian	-10.7898
▁bass	-10.7899
▁autumn	-10.7904
▁survival	-10.7904
▁backup	-10.7905
▁resulted	-10.7908
▁weird	-10.7909
▁bother	-10.791
▁fox	-10.7914
▁sustain	-10.7915
▁applying	-10.7916
▁closing	-10.7926
▁slo	-10.7928
▁spacious	-10.7932
 	-10.7934
▁demonstrated	-10.7934
▁destroyed	-10.7935
▁florida	-10.7936
▁worn	-10.7936
▁reply	-10.7941
▁mounted	-10.7946
▁stroke	-10.7952
▁similarly	-10.7956
will	-10.7957
▁desktop	-10.7958
▁cloth	-10.7963
▁tale	-10.7966
▁amazon	-10.7968
▁admitted	-10.7969
▁acquisition	-10.7975
▁mounting	-10.7978
lov	-10.7978
digit	-10.7982
▁slight	-10.7984
▁pursue	-10.7987
▁dial	-10.7988
▁establishment	-10.799
▁prohibit	-10.7991
▁joe	-10.7992
▁surely	-10.7995
ister	-10.7995
scope	-10.7997
▁chairman	-10.7997
def	-10.8002
known	-10.8007
▁compensation	-10.8009
▁tune	-10.8012
▁bang	-10.8016
▁soviet	-10.8023
ington	-10.8024
wall	-10.8024
▁sought	-10.8025
▁cuisine	-10.8037
liter	-10.8046
▁lane	-10.8054
▁€	-10.8055
scale	-10.8057
ika	-10.8057
▁acquired	-10.8058
▁staying	-10.8064
▁anybody	-10.8064
▁desert	-10.8069
▁earned	-10.8069
▁rough	-10.8072
▁pier	-10.808
▁potentially	-10.8089
▁worship	-10.809
▁gay	-10.8092
▁equation	-10.8092
minute	-10.8096
rio	-10.8097
▁flame	-10.8097
hour	-10.811
▁supervisor	-10.8117
▁wondering	-10.8127
▁nerve	-10.8132
away	-10.8133
▁warranty	-10.8134
▁cau	-10.8136
mill	-10.8139
▁lac	-10.8144
▁harder	-10.8144
▁outline	-10.8146
▁adjustable	-10.8146
▁worried	-10.815
▁ky	-10.815
wide	-10.815
kie	-10.8151
ounce	-10.8156
▁brilliant	-10.8159
▁borrow	-10.8164
▁norm	-10.8164
open	-10.8165
▁hello	-10.8168
operative	-10.817
▁foam	-10.8175
▁agricultural	-10.8175
force	-10.818
▁cab	-10.8181
▁grid	-10.8182
▁somehow	-10.8186
▁transferred	-10.8187
▁stereo	-10.8189
▁dealer	-10.8193
▁inhibit	-10.8199
▁swing	-10.8204
▁wifi	-10.8205
▁processor	-10.8205
▁ceremony	-10.8206
wind	-10.821
▁remark	-10.821
▁macro	-10.8211
▁philosophy	-10.822
▁experimental	-10.8226
▁psychological	-10.8227
▁advisor	-10.8248
condition	-10.8248
▁satisfaction	-10.8252
▁burning	-10.826
▁approx	-10.8266
▁customize	-10.8267
▁heritage	-10.8269
▁forecast	-10.8269
tum	-10.8276
▁accu	-10.8277
▁nano	-10.8279
▁discipline	-10.828
▁modified	-10.8285
trop	-10.8286
▁polymer	-10.8286
fire	-10.8286
▁receiver	-10.8287
▁cock	-10.8288
▁covering	-10.8294
▁sleeping	-10.8294
▁dating	-10.8296
▁chris	-10.8296
▁brew	-10.8298
▁appliance	-10.8299
rank	-10.83
▁undergo	-10.8313
▁confident	-10.8314
fit	-10.8321
▁affordable	-10.8322
rest	-10.8322
▁faculty	-10.8328
gree	-10.833
onia	-10.8343
▁diabetes	-10.8344
▁bump	-10.8345
▁producing	-10.8347
▁breaking	-10.8348
▁garage	-10.8349
▁optimize	-10.8351
▁maintaining	-10.8352
▁hr	-10.8356
▁digest	-10.8356
izer	-10.8359
ibly	-10.8361
▁hanging	-10.8368
▁layout	-10.8369
izz	-10.837
▁iran	-10.8372
▁chill	-10.8376
pay	-10.8376
▁classroom	-10.8376
▁daniel	-10.8378
shaped	-10.8385
▁tub	-10.839
▁blame	-10.8397
▁biological	-10.84
▁actress	-10.8404
▁transmit	-10.8406
▁contractor	-10.8408
▁motivation	-10.8415
▁portfolio	-10.8418
jun	-10.8419
▁knife	-10.842
▁linear	-10.8426
shire	-10.8433
gli	-10.8435
▁sym	-10.8438
▁ladies	-10.844
▁pel	-10.844
▁bluetooth	-10.8442
kg	-10.8445
▁peer	-10.8446
stick	-10.8447
elle	-10.8449
course	-10.845
▁depict	-10.8455
▁tomato	-10.8457
function	-10.8461
mobil	-10.8463
▁mice	-10.8467
▁farmers	-10.8473
rang	-10.8476
▁taxes	-10.8477
▁catalog	-10.8486
▁shortly	-10.8492
▁moderate	-10.8493
▁citizen	-10.8494
▁terrible	-10.8497
▁hardly	-10.8506
cellular	-10.851
▁wise	-10.851
▁merely	-10.8516
▁conditioning	-10.8518
▁porn	-10.8521
▁tourism	-10.8522
▁surrounded	-10.8526
pit	-10.8529
▁kim	-10.853
▁britain	-10.853
▁healthcare	-10.854
▁collective	-10.8568
▁trailer	-10.8569
▁qualified	-10.8572
▁suggestions	-10.8573
▁deeply	-10.8574
▁gradually	-10.8579
▁mah	-10.8581
▁tent	-10.8583
▁aimed	-10.8584
▁addressed	-10.8586
▁reputation	-10.8591
▁essentially	-10.8594
▁mun	-10.86
▁salad	-10.8601
▁stunning	-10.8613
commerce	-10.8621
weight	-10.8623
▁composed	-10.8623
▁abroad	-10.8631
▁reflection	-10.8633
vari	-10.8634
▁pants	-10.8637
▁incredibly	-10.864
including	-10.8644
▁enabled	-10.8646
▁johnson	-10.8646
▁dvd	-10.8647
▁hug	-10.8649
▁hybrid	-10.8649
▁concluded	-10.8651
ception	-10.8655
ambi	-10.8657
▁prevention	-10.866
▁hack	-10.8668
guard	-10.8668
mount	-10.867
▁tray	-10.868
▁puzzle	-10.8681
case	-10.8682
bri	-10.8684
iii	-10.8689
▁mutual	-10.8692
▁scream	-10.8693
▁rising	-10.8698
▁losses	-10.8704
▁assault	-10.8706
▁lemon	-10.8707
▁vacuum	-10.8708
▁functionality	-10.8711
connect	-10.8715
▁derived	-10.8718
lux	-10.8719
▁regret	-10.872
ulator	-10.873
▁loving	-10.8739
▁dash	-10.8743
▁kan	-10.8752
▁instagram	-10.8762
▁diversity	-10.8762
▁mike	-10.8765
▁considerable	-10.8772
▁flexibility	-10.8772
▁math	-10.8775
▁convey	-10.8775
vir	-10.8778
capacit	-10.8779
blo	-10.8783
▁fool	-10.8785
▁glasses	-10.8786
▁logic	-10.8799
▁duties	-10.8805
▁wil	-10.8807
▁characteristic	-10.881
▁exclude	-10.8819
▁modification	-10.8821
foot	-10.8824
▁excessive	-10.8827
▁gil	-10.8829
max	-10.8831
each	-10.8833
▁bend	-10.8841
▁diagnose	-10.8844
▁constructed	-10.8849
▁musician	-10.8859
lysis	-10.8861
▁arrest	-10.8862
▁shake	-10.8863
▁venture	-10.8871
▁treasure	-10.8871
▁oak	-10.8871
▁entertain	-10.8878
▁pose	-10.8879
▁govern	-10.8884
▁korea	-10.8885
▁jewelry	-10.8887
▁lion	-10.8888
▁jail	-10.889
▁hunt	-10.889
▁kil	-10.8892
▁highway	-10.8893
▁smoking	-10.8896
▁upcoming	-10.8897
▁involving	-10.8901
▁coal	-10.8906
▁settle	-10.8907
▁removing	-10.8911
▁diagnostic	-10.8914
▁suspend	-10.8921
▁nov	-10.8925
▁cafe	-10.8925
▁intensity	-10.8927
▁entity	-10.8928
▁enemies	-10.8929
▁indication	-10.893
▁residential	-10.8931
▁sink	-10.8931
▁refuge	-10.8937
▁capabilities	-10.8939
▁olympic	-10.8939
▁employ	-10.894
▁medal	-10.894
found	-10.8941
induced	-10.8942
▁completion	-10.8947
▁praise	-10.8952
▁lying	-10.8959
order	-10.8962
▁grateful	-10.8969
ancing	-10.8971
▁enhanced	-10.8975
▁diagram	-10.8977
▁motorcycle	-10.8979
▁bicycle	-10.8982
▁precise	-10.8982
▁radical	-10.8983
▁cylinder	-10.8984
▁poem	-10.8991
▁assumed	-10.8991
▁casino	-10.8996
▁detected	-10.8996
▁workout	-10.8998
▁independence	-10.9002
▁accompanied	-10.9004
▁relating	-10.9012
▁defendant	-10.9013
▁asset	-10.9013
▁bake	-10.9014
▁optical	-10.9016
aver	-10.9016
▁possibilities	-10.9017
▁disaster	-10.9022
aire	-10.9024
▁transparent	-10.9025
▁angry	-10.9031
▁distributed	-10.9036
▁reaching	-10.9039
í	-10.9048
▁gorgeous	-10.9048
▁exploit	-10.9048
▁stamp	-10.9048
▁effectiveness	-10.9048
then	-10.9055
▁verb	-10.9058
▁lifetime	-10.9059
▁insect	-10.9066
may	-10.9067
▁syndrome	-10.9073
▁sword	-10.9084
stream	-10.9084
▁steal	-10.9088
▁ensuring	-10.9089
▁radiation	-10.9089
▁commit	-10.909
▁intelligent	-10.9093
▁shame	-10.9097
▁grind	-10.9102
▁essay	-10.9109
▁crush	-10.9114
▁aggressive	-10.9116
▁dialogue	-10.9119
▁declared	-10.912
▁aesthetic	-10.9121
▁alongside	-10.9125
▁maker	-10.9126
▁horn	-10.9131
▁mature	-10.9135
▁anniversary	-10.9142
gest	-10.9144
▁fragment	-10.9145
▁gross	-10.9146
▁airline	-10.9147
▁singing	-10.9147
▁dismiss	-10.9149
▁anger	-10.9161
nz	-10.9164
speed	-10.9166
▁cosmetic	-10.917
▁intellectual	-10.9175
och	-10.9194
ferr	-10.9195
▁elastic	-10.9195
▁injured	-10.9196
▁friendship	-10.9196
▁possession	-10.9197
nucle	-10.9204
▁overcome	-10.9208
▁jones	-10.9213
▁scored	-10.9215
▁yoga	-10.9221
▁divine	-10.9232
▁thrill	-10.9238
▁czech	-10.9242
▁annex	-10.9244
▁java	-10.9244
▁energ	-10.9249
▁alex	-10.9254
▁nest	-10.9255
▁manufacture	-10.9258
pop	-10.9259
plication	-10.9261
▁simulation	-10.9262
▁armor	-10.9263
▁cruise	-10.9265
▁surf	-10.9266
▁vocal	-10.927
cell	-10.928
▁austria	-10.9281
▁purple	-10.9286
▁offense	-10.9294
▁metro	-10.9294
▁narrative	-10.9294
▁veteran	-10.9297
▁pie	-10.9299
▁cali	-10.9303
▁pride	-10.9311
gui	-10.9311
▁punch	-10.9311
€	-10.9313
▁furnish	-10.9313
▁stadium	-10.9318
▁adjusted	-10.932
▁equi	-10.9322
▁monument	-10.9328
▁occupation	-10.9331
good	-10.9337
▁agriculture	-10.9341
qual	-10.9341
stock	-10.9345
▁founder	-10.9349
▁assignment	-10.9352
▁proceedings	-10.9358
range	-10.9365
▁dried	-10.9367
▁ukraine	-10.9367
▁samsung	-10.9367
▁loading	-10.9369
▁refused	-10.9369
▁bloom	-10.9378
▁activation	-10.9378
▁gently	-10.9384
▁democratic	-10.9385
▁fake	-10.9388
▁shaft	-10.9392
specific	-10.9396
▁dancing	-10.9397
▁sacrifice	-10.9402
▁pubmed	-10.9408
▁accused	-10.9417
through	-10.9425
▁difficulties	-10.9426
▁honestly	-10.943
▁bullet	-10.9439
▁bunch	-10.944
▁steering	-10.9444
×	-10.9446
▁opposition	-10.9453
▁satisfy	-10.9454
▁tang	-10.9455
▁tries	-10.9459
▁administer	-10.946
publish	-10.9461
bia	-10.9466
ook	-10.9472
▁insist	-10.9474
▁certified	-10.9483
▁sel	-10.9484
▁bou	-10.9484
▁separated	-10.9486
▁angeles	-10.9496
▁minimize	-10.9497
▁receptor	-10.9502
▁thoroughly	-10.9503
▁gaming	-10.9503
▁damn	-10.9504
owski	-10.9508
▁forgive	-10.9517
▁adverse	-10.9518
▁galaxy	-10.9518
▁pakistan	-10.9521
phon	-10.9528
▁disrupt	-10.9529
friendly	-10.9536
▁plum	-10.9538
▁demon	-10.9538
▁directory	-10.954
hole	-10.9541
▁snack	-10.9543
▁competitor	-10.955
miss	-10.9551
▁dimension	-10.9552
▁basketball	-10.9558
▁expertise	-10.9559
▁polar	-10.9559
▁hormone	-10.9561
▁operated	-10.9565
▁continuing	-10.9566
▁marsh	-10.9567
▁fiction	-10.9571
▁enforcement	-10.9571
▁fleet	-10.9573
▁subscribe	-10.9576
▁evolve	-10.9577
▁squad	-10.9585
▁evident	-10.9587
▁gru	-10.9589
strong	-10.9594
▁copies	-10.9603
▁shoe	-10.9604
▁attach	-10.9605
▁sofa	-10.9606
fig	-10.9614
fish	-10.9617
▁violation	-10.9617
▁examined	-10.9619
▁beneficial	-10.962
▁heavily	-10.962
▁coordinate	-10.9639
▁ghost	-10.9639
▁journalist	-10.9639
▁scrap	-10.9641
▁initiate	-10.9642
▁rolling	-10.9646
▁shelter	-10.9647
▁fence	-10.9655
▁acute	-10.9657
kon	-10.9662
▁weekly	-10.9667
▁rotation	-10.9671
▁bulk	-10.9674
▁guilty	-10.9674
▁branches	-10.9677
▁verify	-10.9677
„	-10.9682
▁syria	-10.9688
▁edward	-10.9693
▁decreased	-10.9695
▁lease	-10.9697
▁hunting	-10.9699
▁jeff	-10.9708
▁simultaneously	-10.971
▁slope	-10.9711
▁dirt	-10.9714
▁decorative	-10.9719
▁captured	-10.9723
▁sensitivity	-10.9731
group	-10.9735
▁collapse	-10.9736
▁unlock	-10.9741
▁mall	-10.9742
tress	-10.9746
▁comply	-10.975
hara	-10.975
▁knight	-10.9751
▁suppose	-10.9753
▁phenomenon	-10.9755
▁organize	-10.9757
▁discovery	-10.9757
▁ceramic	-10.9758
▁privilege	-10.9758
▁princess	-10.9762
install	-10.9765
▁liber	-10.9768
chemistry	-10.9774
▁whilst	-10.9782
▁roller	-10.9783
▁involve	-10.9785
chen	-10.9785
▁cad	-10.9786
▁determination	-10.9788
▁wolf	-10.9789
▁font	-10.9792
▁prominent	-10.9793
▁humor	-10.9795
▁stylish	-10.9796
▁burden	-10.9798
▁opera	-10.9799
▁enzyme	-10.9804
▁realistic	-10.9811
▁sketch	-10.9812
▁tongue	-10.983
▁archive	-10.9837
▁pushed	-10.9844
▁elected	-10.9848
▁feeding	-10.9851
▁utility	-10.9851
▁rider	-10.9852
▁behalf	-10.9854
▁needle	-10.9856
large	-10.9865
▁liberal	-10.9865
............	-10.9866
▁hydraulic	-10.987
▁jersey	-10.9876
▁bishop	-10.9879
▁separately	-10.9881
exp	-10.9898
▁candle	-10.9905
▁artistic	-10.9912
▁activated	-10.9914
▁elect	-10.9915
▁authorized	-10.9917
▁pub	-10.9918
quin	-10.9919
▁hint	-10.9926
▁precision	-10.9928
▁troops	-10.993
▁membership	-10.9933
▁petition	-10.9938
▁admission	-10.9941
▁packed	-10.9945
html	-10.9948
school	-10.9951
§	-10.9953
▁memorial	-10.9956
▁jackson	-10.9958
▁diploma	-10.9959
▁attachment	-10.9968
▁mum	-10.9971
▁pension	-10.9978
▁marker	-10.9983
▁rival	-11.0004
▁bold	-11.0004
▁abilities	-11.0006
▁expanded	-11.0007
▁urge	-11.0009
▁fisher	-11.0011
▁flip	-11.0011
▁lap	-11.0015
▁waterproof	-11.0016
▁straw	-11.0017
▁consultation	-11.0024
▁pathway	-11.003
▁centuries	-11.0034
▁significance	-11.0034
▁funeral	-11.0034
▁chrome	-11.0035
▁soap	-11.0036
posit	-11.0038
▁hose	-11.0042
solv	-11.0047
lau	-11.006
▁photographer	-11.0061
▁analyzed	-11.0061
bury	-11.0062
▁classification	-11.0065
▁vendor	-11.0065
▁deeper	-11.0066
▁architect	-11.0066
▁blank	-11.0067
▁jen	-11.0069
▁avenue	-11.0071
▁slim	-11.0076
▁andrew	-11.0077
▁bulb	-11.0078
▁divorce	-11.0085
▁variant	-11.0085
▁elsewhere	-11.0086
world	-11.009
▁serial	-11.0094
▁technological	-11.0102
▁lowest	-11.0103
▁mcc	-11.0103
▁shine	-11.0105
▁pulse	-11.0108
▁correction	-11.0111
▁creator	-11.0112
▁theoretical	-11.0116
still	-11.0116
▁egypt	-11.0117
▁refine	-11.0117
·	-11.0119
▁downtown	-11.0126
▁modify	-11.0137
▁foster	-11.0143
▁ethnic	-11.0144
kov	-11.0146
scribe	-11.0146
▁occasionally	-11.0151
▁settled	-11.0153
▁poet	-11.0154
▁dollar	-11.0155
▁weakness	-11.0158
▁pope	-11.0161
▁resident	-11.0162
▁fraction	-11.0162
▁tennis	-11.017
▁subsequently	-11.0173
▁dental	-11.0177
▁dutch	-11.0177
pack	-11.0185
▁apparent	-11.019
▁fate	-11.0191
▁hay	-11.0198
▁flaw	-11.0202
▁korean	-11.0208
▁peaceful	-11.0209
generation	-11.0209
▁chor	-11.0215
▁statue	-11.0219
▁chef	-11.022
hill	-11.0229
▁interrupt	-11.0238
▁motivate	-11.0241
▁barely	-11.0242
▁navigation	-11.0247
▁gotten	-11.0248
▁involvement	-11.0253
▁terror	-11.0256
▁rational	-11.0259
▁philip	-11.026
▁waist	-11.0262
▁wishes	-11.0262
▁regulatory	-11.0269
▁negotiation	-11.0269
▁scholarship	-11.0271
▁lightweight	-11.0273
▁fighter	-11.0273
▁encouraged	-11.0281
▁passes	-11.0283
▁profession	-11.0288
▁shu	-11.0289
▁recipient	-11.0292
▁deploy	-11.0303
▁reliability	-11.0307
methyl	-11.0307
▁calculate	-11.031
▁rust	-11.031
▁wisdom	-11.0313
▁immuno	-11.0323
▁merge	-11.033
▁embrace	-11.033
▁irish	-11.0332
ference	-11.0333
nov	-11.0333
▁portable	-11.0334
▁gig	-11.0335
kel	-11.0336
▁navy	-11.0337
|	-11.034
▁bubble	-11.0347
while	-11.0347
▁hind	-11.0355
▁consequently	-11.0356
▁clay	-11.0358
▁classical	-11.0362
▁advocate	-11.0362
▁politician	-11.0362
game	-11.0362
▁reservation	-11.0365
dale	-11.0367
▁timing	-11.0367
bie	-11.0369
▁decorated	-11.037
▁pale	-11.0374
▁vac	-11.0378
▁eligible	-11.0382
▁officially	-11.039
▁unexpected	-11.0391
self	-11.0394
proof	-11.0397
berries	-11.0399
▁dominate	-11.0406
flu	-11.0411
▁struck	-11.0414
▁thumb	-11.0417
▁imagination	-11.0417
▁identical	-11.0423
▁entities	-11.0423
▁hunter	-11.0424
▁portal	-11.0428
zh	-11.0432
▁alien	-11.0435
▁conform	-11.044
▁courage	-11.044
▁cyto	-11.0448
▁quit	-11.0451
▁wipe	-11.0455
±	-11.0464
▁invitation	-11.0464
▁activate	-11.0464
▁emphasis	-11.0469
▁aroma	-11.0473
▁glow	-11.0474
▁rope	-11.0478
▁suicide	-11.0478
▁fridge	-11.0479
▁tunnel	-11.0479
▁stake	-11.0482
gam	-11.0485
burn	-11.0488
▁genre	-11.0488
▁productivity	-11.0492
▁axis	-11.0494
zen	-11.0496
▁physio	-11.0502
▁dump	-11.0507
hur	-11.0507
▁certification	-11.0508
▁berlin	-11.0509
▁obama	-11.0515
▁maria	-11.0516
▁pond	-11.052
▁confront	-11.0521
▁raising	-11.0522
▁disabled	-11.0523
▁horror	-11.0525
▁auction	-11.0529
▁upset	-11.0533
▁typ	-11.0537
▁blast	-11.0538
▁silk	-11.0539
aria	-11.0542
phospho	-11.0552
▁ownership	-11.0552
grade	-11.0559
▁mesh	-11.0563
▁canvas	-11.0564
▁painful	-11.0565
▁boston	-11.0567
▁lace	-11.0578
▁robust	-11.0578
clar	-11.058
▁organizational	-11.058
▁seamless	-11.0581
▁refuse	-11.0582
ometer	-11.0586
▁confi	-11.0587
▁acceptable	-11.0589
▁underlying	-11.0596
▁confused	-11.0599
▁respective	-11.0605
▁arranged	-11.0608
master	-11.0614
walk	-11.0622
▁descend	-11.0629
service	-11.0631
▁babies	-11.0632
▁owe	-11.0633
▁suppress	-11.0633
▁cum	-11.0638
▁specialized	-11.0648
current	-11.0651
▁sudden	-11.0657
▁bureau	-11.0659
▁manually	-11.0659
▁assemble	-11.0664
design	-11.0666
▁poverty	-11.0673
divi	-11.0676
‘	-11.0679
▁liability	-11.0683
▁trait	-11.0684
α	-11.0685
▁wider	-11.0687
▁gem	-11.0688
▁pixel	-11.0694
▁cognitive	-11.0697
▁distract	-11.0698
▁correlation	-11.07
▁poison	-11.0703
▁stimulate	-11.0704
▁bias	-11.0713
▁commander	-11.0716
ledge	-11.072
▁cabin	-11.0729
▁addresses	-11.0733
▁skirt	-11.0735
▁relay	-11.0739
▁socket	-11.0742
▁announcement	-11.0746
▁pap	-11.0753
▁republican	-11.0754
ś	-11.0757
▁matrix	-11.0763
▁consciousness	-11.0764
▁tasty	-11.0767
▁enormous	-11.0769
word	-11.0776
▁sie	-11.0779
▁fraud	-11.0781
data	-11.0781
▁spectrum	-11.0782
▁tackle	-11.0782
▁girlfriend	-11.0782
▁darkness	-11.0795
▁victoria	-11.0798
exe	-11.08
▁thirty	-11.08
▁iraq	-11.0804
▁educate	-11.0809
▁compromise	-11.0812
▁disagree	-11.0812
▁elizabeth	-11.0815
▁receipt	-11.0815
▁enthusiast	-11.0824
▁curtain	-11.0825
fix	-11.0826
▁dirty	-11.0839
▁intend	-11.0842
zan	-11.0843
▁obstacle	-11.0854
▁glue	-11.0856
▁pillow	-11.0865
▁warrant	-11.0869
▁destruction	-11.087
▁sodium	-11.0873
lift	-11.0878
▁threshold	-11.0882
month	-11.0885
▁bracket	-11.0888
▁restrictions	-11.089
▁incorrect	-11.0894
about	-11.0895
▁versus	-11.0895
▁piano	-11.0899
▁violent	-11.0906
▁brun	-11.091
▁baking	-11.0912
▁conservative	-11.0918
▁gps	-11.0923
▁ltd	-11.0924
▁insulation	-11.0933
▁extraordinary	-11.0934
▁anchor	-11.0939
▁arbitra	-11.094
start	-11.0942
▁netherlands	-11.0943
▁thy	-11.0945
▁overview	-11.0946
glyc	-11.0946
▁excel	-11.0947
▁kidney	-11.095
▁purchasing	-11.0952
plus	-11.0958
fur	-11.0964
▁retirement	-11.0964
▁alloy	-11.0968
▁basket	-11.0973
▁mystery	-11.0977
▁recreation	-11.098
▁caution	-11.0981
▁equity	-11.0983
change	-11.0983
▁universities	-11.0983
config	-11.0984
▁accommodate	-11.0986
▁scent	-11.0991
▁impressed	-11.0992
gio	-11.0994
ń	-11.0995
▁carpet	-11.0996
udge	-11.0997
▁sap	-11.0999
▁greece	-11.1005
▁molecular	-11.1008
▁fantasy	-11.1014
▁subscription	-11.1017
▁synthetic	-11.1017
▁warrior	-11.1017
▁afterwards	-11.1019
click	-11.1019
inflammatory	-11.102
▁burst	-11.102
▁vietnam	-11.1026
▁dresses	-11.1035
▁resume	-11.1043
▁quad	-11.1049
▁cheaper	-11.1059
▁pdf	-11.1068
▁disconnect	-11.1069
▁scroll	-11.1074
▁deadline	-11.1076
■	-11.1076
hawk	-11.1078
▁tribe	-11.1082
©	-11.1088
▁migration	-11.1088
▁inventory	-11.1098
▁lamb	-11.11
phil	-11.1107
▁unlikely	-11.1108
▁magnet	-11.1111
▁comb	-11.1111
▁globe	-11.1116
▁fame	-11.1123
▁georgia	-11.1126
▁elite	-11.1126
▁dialog	-11.1129
▁vibration	-11.1129
iya	-11.1129
▁declaration	-11.1132
glu	-11.1133
▁orientation	-11.1135
▁warehouse	-11.1141
ocyte	-11.1142
▁explicit	-11.1144
▁hiv	-11.1148
▁fallen	-11.1148
▁triple	-11.1156
а	-11.1157
▁jane	-11.1164
▁precisely	-11.1166
▁contrary	-11.1166
▁underground	-11.1167
▁cyber	-11.1167
▁spice	-11.1172
▁gospel	-11.1173
▁anticipate	-11.1173
▁assert	-11.1178
▁therapeutic	-11.1182
▁disadvantage	-11.1182
▁delicate	-11.1182
▁dj	-11.1183
▁prophet	-11.1192
▁lcd	-11.1198
▁nursing	-11.1201
▁convenience	-11.1204
▁separation	-11.1204
▁bitter	-11.1204
▁dick	-11.1204
track	-11.1212
▁promoting	-11.1214
▁pacific	-11.1214
file	-11.1216
▁runner	-11.1219
▁progressive	-11.1223
▁bride	-11.1224
▁diesel	-11.1227
μ	-11.1232
▁gathered	-11.1235
▁classified	-11.1236
▁lime	-11.1245
▁glance	-11.1247
о	-11.1248
▁competent	-11.125
▁jewel	-11.1256
escent	-11.1257
▁subtle	-11.1259
▁placing	-11.1261
▁barrel	-11.1265
lou	-11.1269
▁compartment	-11.1274
▁virginia	-11.1275
▁partial	-11.1279
cient	-11.128
sensit	-11.1282
▁copyright	-11.1285
▁mul	-11.129
▁oldest	-11.1295
store	-11.1296
▁focuses	-11.1298
▁qualify	-11.1303
▁fro	-11.1304
▁gather	-11.1305
▁alliance	-11.1306
▁organism	-11.1307
▁bite	-11.1312
ä	-11.1315
▁substitute	-11.1315
▁comedy	-11.1319
ille	-11.1323
▁creativity	-11.1334
▁gathering	-11.134
▁relieve	-11.1341
▁varied	-11.1342
▁keyword	-11.1342
▁transcript	-11.135
therapy	-11.1355
▁refund	-11.1355
product	-11.1355
▁reaches	-11.1356
▁dough	-11.1365
▁generator	-11.1366
▁virtually	-11.137
▁echo	-11.137
▁visa	-11.1376
▁essence	-11.1382
▁companion	-11.1385
▁lodge	-11.139
▁stairs	-11.1393
▁devil	-11.1395
zel	-11.1406
▁penalty	-11.1408
▁fortunately	-11.1412
▁sunset	-11.1412
▁emerging	-11.1414
▁clamp	-11.1415
▁opposed	-11.1415
bank	-11.1418
▁manufactured	-11.1429
▁lind	-11.1432
▁disney	-11.1447
▁mechanic	-11.1449
▁lounge	-11.1454
system	-11.1455
▁respondents	-11.1456
▁calcium	-11.1463
▁surgical	-11.1463
▁zealand	-11.1472
▁perceived	-11.1473
▁teenager	-11.1476
▁marvel	-11.1483
▁mortgage	-11.1485
▁qualification	-11.1485
▁animation	-11.1489
▁permitted	-11.149
▁hollywood	-11.1495
▁athletes	-11.1498
▁agenda	-11.1508
▁kur	-11.1509
▁cult	-11.1511
▁amongst	-11.1514
▁peel	-11.1515
▁democracy	-11.1521
▁skip	-11.1524
▁popularity	-11.1525
▁frozen	-11.1541
▁acquire	-11.1546
title	-11.1547
▁raid	-11.1553
▁cozy	-11.1555
е	-11.1557
▁confess	-11.1557
rock	-11.156
▁designated	-11.1562
▁boast	-11.1567
▁interactive	-11.1569
▁taylor	-11.1573
▁probe	-11.1574
▁roughly	-11.1575
▁instantly	-11.1576
▁mobility	-11.158
▁buried	-11.158
▁harmful	-11.1581
▁spoken	-11.1582
▁parish	-11.1583
▁wool	-11.1587
▁vulnerable	-11.1596
▁begun	-11.1597
quot	-11.1598
▁drove	-11.16
▁hydrogen	-11.1605
white	-11.1611
▁inflammation	-11.1612
oriented	-11.1619
▁blessing	-11.1619
▁nigeria	-11.1623
▁servant	-11.1623
▁glory	-11.1627
mission	-11.1629
▁sweden	-11.1629
▁organizer	-11.1634
▁singapore	-11.1635
▁workplace	-11.1636
home	-11.1642
▁thro	-11.1643
▁jazz	-11.1645
▁blessed	-11.1646
▁throat	-11.1647
▁kw	-11.1652
▁excuse	-11.1652
▁stitch	-11.1654
every	-11.1657
▁magical	-11.1657
▁rhythm	-11.1658
▁shout	-11.1663
▁damp	-11.1663
▁drew	-11.1669
▁accent	-11.1674
▁vegetable	-11.1675
▁passionate	-11.1677
▁replied	-11.1678
though	-11.1679
▁dying	-11.1681
▁conservation	-11.1681
▁instructor	-11.1682
integra	-11.1688
▁spar	-11.1689
▁spoil	-11.1691
▁alexander	-11.1695
▁fought	-11.1698
▁sneak	-11.1698
▁electron	-11.1702
▁financing	-11.1705
▁facial	-11.1707
β	-11.1711
▁determining	-11.1711
▁shelf	-11.1715
▁empower	-11.1727
▁router	-11.1729
▁brave	-11.173
worm	-11.1733
▁reconstruct	-11.1735
▁exclusively	-11.1738
▁tremendous	-11.1738
▁letting	-11.1747
▁wrist	-11.1751
▁acceptance	-11.1757
▁submission	-11.1763
▁rumor	-11.1765
▁socio	-11.1766
▁dessert	-11.1768
figure	-11.1771
▁deputy	-11.1774
▁twelve	-11.1778
▁preferably	-11.178
corn	-11.178
▁charger	-11.178
▁sunny	-11.1781
▁departure	-11.1781
▁baker	-11.1785
▁mushroom	-11.1794
▁integrity	-11.1798
▁fasten	-11.1799
▁pile	-11.1806
▁convinced	-11.1821
▁overnight	-11.1825
▁participating	-11.1828
▁eagle	-11.1828
▁await	-11.1829
harmon	-11.1837
▁publisher	-11.1844
▁circum	-11.1845
▁boyfriend	-11.1849
▁obli	-11.1853
▁esc	-11.1853
national	-11.1858
▁specimen	-11.1862
▁implant	-11.1862
▁pharmaceutical	-11.1865
▁beef	-11.1867
▁soccer	-11.1869
▁victor	-11.1879
▁kir	-11.1885
ā	-11.1885
▁continuously	-11.1892
▁smiling	-11.1892
nova	-11.1898
▁athletic	-11.1899
rrh	-11.1904
▁tyr	-11.191
▁neu	-11.1915
▁charity	-11.1918
▁plasma	-11.1919
▁boom	-11.1923
drop	-11.1924
responsibilities	-11.1926
▁executed	-11.1928
▁fol	-11.1945
▁humanity	-11.1946
▁consequence	-11.1952
▁beverage	-11.1956
length	-11.1959
▁antenna	-11.196
▁stiff	-11.1972
▁circulation	-11.1973
▁sept	-11.1977
▁sensation	-11.1978
▁conclude	-11.1981
▁mole	-11.1987
▁consultant	-11.1989
▁antibiotic	-11.2
volu	-11.2002
itude	-11.2007
sight	-11.2007
▁steady	-11.2014
▁cheek	-11.2017
bacter	-11.2025
watch	-11.2035
▁announce	-11.2038
▁chase	-11.2045
▁tiger	-11.2045
sheet	-11.2049
▁harbor	-11.2049
▁criticism	-11.2063
▁replica	-11.2063
▁disposal	-11.2065
▁physics	-11.2065
▁wheat	-11.2069
▁partially	-11.2072
▁ventilation	-11.2079
genesis	-11.208
▁salary	-11.2084
}{	-11.2085
▁forgotten	-11.2087
check	-11.2091
▁amino	-11.2094
▁retired	-11.2096
▁buffer	-11.21
▁baseball	-11.2102
▁banner	-11.2107
▁kra	-11.2108
▁titan	-11.212
▁startup	-11.2121
▁orchestra	-11.2131
▁rib	-11.2133
▁vest	-11.2133
▁fuse	-11.2134
▁struggling	-11.2138
green	-11.2138
▁distinction	-11.2141
dress	-11.2144
sexual	-11.2145
▁tweet	-11.2159
heat	-11.2171
▁partition	-11.2181
▁remarkable	-11.2187
▁denied	-11.2187
▁batch	-11.2189
▁mentor	-11.2192
▁portray	-11.2196
lop	-11.2198
▁pearl	-11.22
▁harsh	-11.2207
▁duck	-11.2209
▁substrate	-11.2211
▁sculpture	-11.2211
▁clark	-11.2212
▁qualities	-11.2218
▁moscow	-11.2221
▁gloves	-11.2221
▁pricing	-11.2222
▁freeze	-11.2222
dimensional	-11.2223
▁torque	-11.2224
▁analyst	-11.2225
▁lymph	-11.2225
why	-11.2226
write	-11.2233
▁residue	-11.2235
▁desperate	-11.2239
illus	-11.2241
▁flesh	-11.2244
trust	-11.2245
**	-11.2245
▁psychology	-11.2249
symmetr	-11.225
▁hydra	-11.2251
▁inhibitor	-11.2263
▁spectacular	-11.2263
▁temper	-11.2267
▁cocktail	-11.227
▁virgin	-11.2279
▁jordan	-11.2291
▁ryan	-11.2292
▁pencil	-11.2295
▁tropical	-11.2295
▁closure	-11.2296
▁wanna	-11.2298
▁fever	-11.2303
▁compliment	-11.2305
▁helmet	-11.2305
▁defensive	-11.2309
▁francisco	-11.2312
▁scatter	-11.2312
▁ritual	-11.2316
▁eager	-11.232
▁breach	-11.2326
***	-11.2329
▁hammer	-11.233
toxic	-11.2331
▁ranging	-11.2339
▁cartridge	-11.234
▁controlling	-11.2342
▁adoption	-11.2357
▁exterior	-11.2358
▁sacred	-11.2358
▁grape	-11.2366
▁stranger	-11.2369
escence	-11.237
spec	-11.2372
▁irre	-11.2375
▁abnormal	-11.2376
▁witch	-11.2386
▁gloss	-11.2409
▁exploring	-11.2415
▁dominant	-11.2415
▁rifle	-11.2415
▁precious	-11.2418
▁wherever	-11.2424
&#	-11.2432
▁epic	-11.2432
▁microphone	-11.2438
▁arrange	-11.2439
▁spider	-11.244
▁solvent	-11.2462
▁condo	-11.2464
▁machinery	-11.2466
▁cathedral	-11.2468
▁kha	-11.2468
stitution	-11.2471
▁adaptation	-11.2473
▁francis	-11.2475
▁turkish	-11.2479
▁dye	-11.248
valent	-11.2488
▁vaccine	-11.2493
▁flex	-11.2496
▁michel	-11.2502
▁disclose	-11.2503
▁amateur	-11.2504
▁incentive	-11.2515
▁dissolve	-11.2517
▁engaging	-11.2519
▁guardian	-11.2521
▁preach	-11.2522
text	-11.2524
▁snake	-11.2526
▁experiencing	-11.2529
▁wander	-11.253
prop	-11.2532
▁invoice	-11.2533
▁habitat	-11.254
▁boundaries	-11.2544
▁knit	-11.2545
▁advertise	-11.2545
▁carolina	-11.2551
profit	-11.2553
▁generous	-11.2556
▁expenditure	-11.2562
▁offensive	-11.2562
▁sandwich	-11.2562
▁elderly	-11.2569
▁striking	-11.2569
▁kong	-11.2571
plex	-11.2579
▁beast	-11.2583
▁intent	-11.2586
▁replacing	-11.2591
▁punishment	-11.2596
▁wow	-11.26
▁tighten	-11.2606
▁headache	-11.2608
▁glucose	-11.2612
▁png	-11.2614
▁premises	-11.2616
▁hetero	-11.2625
▁heroes	-11.2625
▁thunder	-11.2631
▁ruling	-11.2632
▁confirmation	-11.2635
▁ornament	-11.2635
▁drunk	-11.2642
▁horizon	-11.2643
▁spatial	-11.2645
▁clue	-11.2646
▁cease	-11.265
▁nowadays	-11.2652
▁indicating	-11.2652
▁naked	-11.2657
▁restart	-11.2659
▁hike	-11.2661
▁implications	-11.2682
▁gaze	-11.2692
peptide	-11.2692
▁zoom	-11.2697
▁varieties	-11.27
▁alpha	-11.2701
turb	-11.2702
▁emperor	-11.2714
▁tutorial	-11.2722
▁confusion	-11.2722
▁terrorist	-11.2724
▁adhere	-11.2728
▁cheat	-11.2728
▁welfare	-11.2729
▁cottage	-11.274
▁faithful	-11.2741
▁sophisticated	-11.2744
▁bmw	-11.2744
▁prediction	-11.2745
▁stephen	-11.2746
▁systematic	-11.2765
▁referring	-11.2766
▁harris	-11.2773
▁anime	-11.2773
ground	-11.2775
▁serum	-11.2779
▁occurrence	-11.2784
▁merchant	-11.2784
▁thrown	-11.2785
▁keen	-11.2789
natal	-11.2794
▁bronze	-11.2796
▁pretend	-11.2799
market	-11.2802
▁islamic	-11.2803
▁elder	-11.2814
▁accelerate	-11.2814
▁seminar	-11.2816
▁esp	-11.2819
▁eternal	-11.2821
▁clause	-11.2821
▁fortune	-11.2833
▁jury	-11.2834
▁neat	-11.2835
▁steep	-11.2837
▁poetry	-11.2837
▁achieving	-11.284
slav	-11.2845
▁floral	-11.2845
▁embodiment	-11.2866
▁capability	-11.2899
▁zoo	-11.2902
▁trunk	-11.2903
▁intensive	-11.2903
▁admire	-11.2903
▁silicone	-11.2908
▁collar	-11.2916
▁gauge	-11.2918
▁jacob	-11.2918
▁sarah	-11.2925
▁legacy	-11.293
▁refrigerator	-11.2933
▁cushion	-11.2933
▁adjacent	-11.2937
▁cigarette	-11.2937
▁publishing	-11.2938
american	-11.2946
value	-11.2949
▁crisp	-11.295
▁broker	-11.2951
▁tick	-11.2953
▁pollution	-11.2963
▁penn	-11.2963
▁backpack	-11.2971
▁beneath	-11.2978
▁kilometers	-11.2978
develop	-11.2984
▁carries	-11.2988
owner	-11.299
▁supervision	-11.2996
▁merit	-11.2996
model	-11.2997
▁excitement	-11.2997
produce	-11.2997
▁donald	-11.3001
▁welding	-11.3001
▁transit	-11.3011
▁dwell	-11.302
▁soldier	-11.302
▁meaningful	-11.3023
▁rocket	-11.3025
▁halloween	-11.3027
▁trauma	-11.3035
▁franchise	-11.3038
▁hong	-11.304
▁miracle	-11.3042
▁bail	-11.3045
▁compression	-11.3048
▁intermediate	-11.3057
factor	-11.306
▁auditor	-11.307
▁fascinating	-11.3072
▁wildlife	-11.3074
▁simon	-11.3076
▁jurisdiction	-11.308
▁entries	-11.3088
vocation	-11.3091
▁sunlight	-11.3094
▁molecules	-11.3103
▁boring	-11.3106
gress	-11.3109
▁headquarters	-11.311
boo	-11.3114
▁blonde	-11.3114
▁microwave	-11.3118
▁roast	-11.3128
▁fatigue	-11.313
▁durability	-11.3137
▁infected	-11.3138
▁whisk	-11.314
▁cycling	-11.3141
▁synthesis	-11.3141
▁complexity	-11.3141
▁zip	-11.3141
▁cement	-11.3142
▁organisation	-11.3145
▁clutch	-11.3153
▁compile	-11.3156
▁emotion	-11.3157
▁asleep	-11.316
http	-11.3162
▁eric	-11.3166
▁tolerance	-11.3172
▁imaging	-11.3176
people	-11.3178
▁dumb	-11.3186
▁linux	-11.3187
▁ohio	-11.3189
▁participant	-11.3194
▁frost	-11.3203
´	-11.321
▁pause	-11.321
▁coconut	-11.3222
▁complications	-11.3222
▁garlic	-11.3227
▁fade	-11.3227
▁explosion	-11.3245
▁regulator	-11.3246
️	-11.3253
▁capsule	-11.3253
▁literary	-11.3253
▁tenant	-11.3261
▁recruitment	-11.3271
▁wrapped	-11.3274
▁absorption	-11.328
▁hiking	-11.3281
▁quo	-11.3284
▁prescription	-11.3291
▁calories	-11.3295
▁inflation	-11.3296
▁senate	-11.33
▁mutation	-11.3301
black	-11.3306
▁insulin	-11.3307
night	-11.3313
▁varies	-11.3314
▁practitioner	-11.3334
▁accompany	-11.3338
▁gesture	-11.3346
▁probability	-11.335
▁albert	-11.335
▁wardrobe	-11.3361
▁phenomena	-11.3365
▁summit	-11.3375
▁intimate	-11.3377
▁limb	-11.3381
▁dictionary	-11.3385
▁triangle	-11.3385
▁uncle	-11.3386
▁enabling	-11.3397
week	-11.3397
▁wilson	-11.3404
▁analytics	-11.3404
▁circular	-11.3424
carbon	-11.3424
natural	-11.3429
season	-11.3431
▁affiliate	-11.3432
ów	-11.3444
▁acoustic	-11.3444
▁composite	-11.3444
▁enrich	-11.3449
frame	-11.3457
▁automation	-11.346
▁restoration	-11.346
▁greg	-11.346
▁pipeline	-11.3462
▁automotive	-11.3479
▁respiratory	-11.3483
soft	-11.3484
source	-11.3486
version	-11.3487
▁alternate	-11.3488
▁dawn	-11.3489
▁transplant	-11.3495
▁nutrients	-11.35
▁buzz	-11.35
▁vein	-11.3502
▁propose	-11.3503
science	-11.3503
▁forgot	-11.3507
▁discrimination	-11.3507
▁mexican	-11.3507
�	-11.3511
cogni	-11.3511
▁spouse	-11.3515
▁mysterious	-11.3523
▁completing	-11.3527
▁pioneer	-11.3527
▁luke	-11.353
▁fancy	-11.3531
▁hungry	-11.3533
▁unnecessary	-11.3539
▁bleeding	-11.3539
▁query	-11.3541
▁addict	-11.3542
▁tractor	-11.3543
▁consistency	-11.3548
▁switzerland	-11.3555
consuming	-11.3561
▁patron	-11.3561
▁indonesia	-11.3567
▁flush	-11.3571
▁dense	-11.3577
▁logistics	-11.3583
punct	-11.3592
▁overwhelming	-11.3595
▁potter	-11.3596
▁jealous	-11.3603
▁khan	-11.3603
▁gdp	-11.3609
borne	-11.361
▁tobacco	-11.3615
▁punish	-11.3618
▁retrieve	-11.3623
▁leisure	-11.3631
__	-11.3633
▁bundle	-11.3636
▁versa	-11.3641
▁integral	-11.3643
▁investigator	-11.3647
scopic	-11.3647
▁retreat	-11.3656
▁theories	-11.3657
▁fracture	-11.3659
▁matthew	-11.3663
▁disability	-11.3684
▁balloon	-11.3685
▁raj	-11.3687
▁rotate	-11.369
▁blanket	-11.369
▁davis	-11.3693
▁contradict	-11.3699
▁scotland	-11.3707
▁bitcoin	-11.3707
▁creek	-11.3709
▁wholesale	-11.3718
▁enforce	-11.3724
▁ribbon	-11.3736
▁execute	-11.3737
▁humidity	-11.3748
▁textile	-11.3749
▁prosecutor	-11.3752
▁preview	-11.3762
▁beloved	-11.3765
▁exempt	-11.3769
▁addiction	-11.3772
▁wallet	-11.3776
▁hypothesis	-11.3776
▁distort	-11.3779
▁embedded	-11.378
▁whisper	-11.3781
▁potatoes	-11.3786
▁fragrance	-11.3789
▁patience	-11.3789
▁spill	-11.3801
▁uncomfortable	-11.3801
▁corruption	-11.3801
viv	-11.3805
▁showcase	-11.3818
▁cemetery	-11.3829
▁neglect	-11.3829
chemical	-11.3834
▁advertisement	-11.3844
▁hitting	-11.3845
keeper	-11.3845
▁voting	-11.3849
▁burger	-11.3857
▁precede	-11.3861
▁fond	-11.3862
ologies	-11.3862
▁demonstration	-11.387
▁scoring	-11.3874
▁earnings	-11.388
▁metabolism	-11.3883
▁requiring	-11.3891
▁coincide	-11.3905
child	-11.3909
▁vinyl	-11.3912
wheel	-11.3913
▁scripture	-11.3914
▁velocity	-11.3916
▁cousin	-11.3917
▁threw	-11.3917
dependent	-11.3918
▁stepped	-11.3922
▁constraint	-11.3924
▁resin	-11.3931
▁luckily	-11.3932
▁considerably	-11.3935
▁necklace	-11.3937
▁survivor	-11.3941
▁optimization	-11.3945
▁rinse	-11.3946
▁ethical	-11.3951
▁fatty	-11.3959
▁plaintiff	-11.3966
safe	-11.3967
responsive	-11.3982
▁automated	-11.3982
▁curriculum	-11.3986
▁turbo	-11.3987
▁questionnaire	-11.399
▁undertaking	-11.399
▁occurring	-11.3992
▁thorough	-11.3993
▁quantities	-11.4011
▁stolen	-11.4014
▁strive	-11.4016
▁malaysia	-11.4028
human	-11.403
▁thailand	-11.403
uffle	-11.403
▁bucket	-11.4046
▁pedal	-11.4048
▁chuck	-11.4051
stead	-11.4056
▁compassion	-11.407
▁commence	-11.4072
▁integrate	-11.4077
▁locate	-11.4082
effective	-11.4083
▁cpu	-11.4086
▁throne	-11.4089
▁uncertainty	-11.4089
benz	-11.4089
▁ought	-11.4091
▁widespread	-11.4091
▁inclusion	-11.4091
mouth	-11.4093
▁versatile	-11.4095
▁swift	-11.4095
▁artwork	-11.4102
▁mediterranean	-11.4103
▁beginner	-11.4106
▁terminate	-11.4111
▁creep	-11.4111
▁prescribed	-11.4112
▁sweep	-11.4125
quent	-11.4131
▁rigid	-11.4137
tree	-11.4142
▁elementary	-11.4149
▁laundry	-11.4154
patriot	-11.4157
▁coordination	-11.4158
▁lining	-11.4164
▁securities	-11.4167
▁innocent	-11.4171
process	-11.4173
▁distinctive	-11.4179
▁cube	-11.4183
▁architectural	-11.4184
▁resemble	-11.4188
▁strand	-11.4201
▁freak	-11.4201
▁horrible	-11.4209
▁michigan	-11.4209
first	-11.4213
▁promising	-11.4214
▁aggregate	-11.4218
▁readily	-11.4219
▁organizing	-11.422
▁maxim	-11.4224
▁mandatory	-11.4231
▁lewis	-11.4241
▁boundary	-11.4245
▁cliff	-11.4246
▁flee	-11.4256
▁encouraging	-11.426
▁coefficient	-11.4263
▁imperial	-11.4265
▁isolation	-11.4267
▁renovation	-11.4269
complete	-11.427
select	-11.4283
▁ecosystem	-11.4291
▁introducing	-11.4295
▁roger	-11.4295
▁packet	-11.4299
▁accumulate	-11.4304
▁preliminary	-11.4308
second	-11.4309
▁attendance	-11.4309
▁elevated	-11.4312
▁romance	-11.4313
▁bracelet	-11.4321
▁fabulous	-11.4325
▁tilt	-11.4333
▁helicopter	-11.4333
dynamic	-11.4335
▁swallow	-11.4342
▁navigate	-11.4355
▁dentist	-11.436
resistant	-11.4379
▁hindu	-11.4381
▁amenities	-11.4385
▁mortality	-11.439
▁norway	-11.4395
threatening	-11.4398
▁legitimate	-11.4403
▁surgeon	-11.4404
▁basin	-11.4405
virus	-11.4405
▁hiding	-11.4413
▁pvc	-11.4421
▁confidential	-11.4423
▁overlap	-11.4424
▁meditation	-11.4433
▁nazi	-11.4434
▁nonetheless	-11.4437
▁apologize	-11.4446
▁fifty	-11.4446
▁assuming	-11.4446
▁amplifier	-11.4459
▁inhabitants	-11.4463
▁activist	-11.4464
▁governance	-11.4467
▁adolescent	-11.4472
▁therapist	-11.4472
▁timber	-11.4476
▁banana	-11.4476
▁communist	-11.4477
▁overseas	-11.4486
▁deployment	-11.4486
▁federation	-11.449
▁spoon	-11.4494
▁hatch	-11.4497
▁comparing	-11.4499
▁trash	-11.4506
▁distress	-11.4511
▁induce	-11.4512
agged	-11.4513
▁kevin	-11.452
▁lobby	-11.452
▁verification	-11.4525
▁atlantic	-11.4525
▁distant	-11.453
▁vapor	-11.4532
▁wizard	-11.4534
▁deemed	-11.4534
▁fireplace	-11.4534
▁corrosion	-11.4538
▁fiscal	-11.454
▁exploration	-11.4547
▁sampling	-11.4547
spiration	-11.4565
▁thai	-11.4567
▁azure	-11.457
health	-11.4574
vascular	-11.4577
▁surveillance	-11.4578
▁tendency	-11.458
▁immigration	-11.4582
▁convince	-11.4587
▁headphones	-11.4591
▁inherent	-11.4591
▁comparable	-11.4595
▁profound	-11.4596
owned	-11.4603
▁arg	-11.4608
present	-11.4616
▁competence	-11.4623
▁virtue	-11.4626
girl	-11.4628
▁marble	-11.4633
▁stopping	-11.4633
▁prevail	-11.464
▁generic	-11.464
▁barcelona	-11.4644
▁toronto	-11.4651
▁skull	-11.4662
▁acres	-11.4662
▁unlimited	-11.4671
▁civilian	-11.469
▁josh	-11.4691
▁dairy	-11.4702
nomic	-11.4704
▁surge	-11.4704
▁interference	-11.4709
▁feather	-11.4724
▁maximize	-11.4728
▁manchester	-11.4729
▁drift	-11.4729
▁civilization	-11.4731
nourish	-11.4733
▁stakeholders	-11.4733
▁swedish	-11.4733
▁valentine	-11.4733
▁chapel	-11.4742
▁cattle	-11.4751
ę	-11.4751
′	-11.476
▁antioxidant	-11.476
▁elephant	-11.4765
▁greeting	-11.4774
▁assay	-11.4775
▁envelope	-11.4783
▁salmon	-11.4797
▁passport	-11.4797
think	-11.48
▁absent	-11.4806
▁mammal	-11.481
▁deficit	-11.4819
▁anonymous	-11.4819
▁combining	-11.4823
cultural	-11.4836
categori	-11.4838
▁gravity	-11.4842
▁electrode	-11.4844
▁threatened	-11.4852
built	-11.4854
▁doctrine	-11.486
▁expire	-11.487
▁condemn	-11.4882
▁patrick	-11.4884
▁buffet	-11.4887
▁welcoming	-11.4892
▁scout	-11.4894
▁terrain	-11.4896
▁stroll	-11.4899
▁fifteen	-11.4901
▁medieval	-11.4905
▁conquer	-11.4915
▁pathogen	-11.4918
▁delhi	-11.492
▁solving	-11.493
▁stabilize	-11.4937
▁ankle	-11.4943
▁jerusalem	-11.4951
▁competing	-11.4951
▁rehabilitation	-11.4969
▁inquiry	-11.497
▁thou	-11.4974
▁pyr	-11.4984
lapse	-11.4987
▁visibility	-11.4992
▁awful	-11.5
▁ridiculous	-11.5001
▁julia	-11.5003
▁congratulations	-11.5006
▁distributor	-11.5011
▁infinite	-11.502
▁democrat	-11.5022
▁unemployment	-11.5024
▁declare	-11.5037
▁fixture	-11.5046
š	-11.5048
▁croatia	-11.5053
glass	-11.5054
▁missile	-11.5058
▁sprinkle	-11.5061
▁historian	-11.5062
▁trademark	-11.5064
▁coronavirus	-11.5075
▁nitrogen	-11.508
▁suburb	-11.5081
è	-11.5085
▁elaborate	-11.5094
▁perfume	-11.5099
▁sanction	-11.5106
▁derivative	-11.5117
▁[…]	-11.5117
→	-11.5131
▁playground	-11.5135
▁magnitude	-11.5136
please	-11.5142
▁clever	-11.5145
▁southeast	-11.5157
▁mattress	-11.5169
▁bachelor	-11.5173
▁necessity	-11.5173
communication	-11.5174
▁consecutive	-11.5178
▁grasp	-11.5179
plasm	-11.5181
▁conviction	-11.5183
▁transparency	-11.5187
▁restrain	-11.5193
▁sydney	-11.5197
▁oxide	-11.5197
▁luggage	-11.5201
▁legendary	-11.5207
ø	-11.5211
▁squeeze	-11.5211
▁retention	-11.5216
▁swiss	-11.5231
▁notebook	-11.5247
▁monkey	-11.5255
▁miami	-11.5256
▁acrylic	-11.5258
▁grandmother	-11.5263
▁liberty	-11.5267
▁altogether	-11.5267
▁zinc	-11.5274
▁sliding	-11.5277
century	-11.528
▁brutal	-11.5281
▁symptom	-11.5285
▁loyalty	-11.5293
ż	-11.5296
xxx	-11.5307
▁urgent	-11.5308
▁airplane	-11.5315
▁ambassador	-11.532
▁romania	-11.5324
▁harmony	-11.533
▁mainstream	-11.5333
▁libraries	-11.5334
▁unclear	-11.5342
▁grocery	-11.5343
▁transmitted	-11.5348
punk	-11.5355
patient	-11.5368
▁scanner	-11.5373
▁mathematics	-11.5377
▁composer	-11.5377
▁feast	-11.5382
centric	-11.5383
▁moore	-11.5392
▁philippines	-11.5401
▁renewable	-11.5401
▁landmark	-11.5401
▁cuba	-11.5409
▁patrol	-11.5414
blue	-11.5429
▁sauna	-11.543
▁sentiment	-11.5434
▁spike	-11.5436
▁potato	-11.5437
▁cholesterol	-11.5444
▁testimony	-11.5444
prehensi	-11.5445
▁conceal	-11.5449
▁assured	-11.5454
▁ethics	-11.5458
▁testament	-11.5463
▁egyptian	-11.5466
▁deliberate	-11.5473
▁shelves	-11.5473
▁belgium	-11.5487
▁comparative	-11.5492
▁affair	-11.5499
toxin	-11.5503
▁seemingly	-11.5503
▁irregular	-11.5531
▁magnificent	-11.5531
▁crawl	-11.554
▁apparatus	-11.555
▁columbia	-11.555
▁efficacy	-11.555
disciplinary	-11.5555
▁summarize	-11.5555
support	-11.5559
▁torture	-11.5564
close	-11.5575
▁technician	-11.558
▁loyal	-11.5584
▁silhouette	-11.5589
▁connectivity	-11.5592
▁surround	-11.5593
▁corridor	-11.5599
saturated	-11.5599
▁arthur	-11.5602
member	-11.5631
▁controversial	-11.5633
▁counterpart	-11.5641
▁negotiate	-11.5643
▁ingredient	-11.565
▁appreciation	-11.5653
▁disabilities	-11.5653
▁legislative	-11.5653
▁alignment	-11.5668
▁invasion	-11.5673
ç	-11.5678
▁dysfunction	-11.5697
▁incidence	-11.5697
▁immense	-11.5697
▁colorado	-11.5698
▁clarity	-11.5703
▁disciple	-11.5712
▁underneath	-11.5717
economic	-11.5719
create	-11.5721
▁ukrainian	-11.5727
▁calibration	-11.5742
▁geographical	-11.5752
appropriate	-11.576
▁supermarket	-11.5769
▁mercedes	-11.5772
▁endorse	-11.5773
▁sustainability	-11.5774
▁aviation	-11.5779
▁monetary	-11.5782
▁describing	-11.5802
▁hollow	-11.5806
▁intuitive	-11.5807
▁sovereign	-11.5807
▁correlate	-11.5814
▁diminish	-11.5827
▁synonym	-11.5827
▁registry	-11.5832
▁salvation	-11.5832
▁odor	-11.5832
▁assassin	-11.5842
▁illuminate	-11.5847
▁morris	-11.5849
▁reservoir	-11.5857
▁ugly	-11.5858
general	-11.5861
▁disclosure	-11.5862
▁cherry	-11.5862
▁osteo	-11.5862
▁racial	-11.5862
structure	-11.5867
▁automobile	-11.5877
photo	-11.5881
▁practicing	-11.5882
▁shrink	-11.5882
▁denmark	-11.5884
▁inspector	-11.5887
▁cardiac	-11.5892
▁marijuana	-11.5897
▁palette	-11.59
▁optimum	-11.5902
esteem	-11.5913
▁sheriff	-11.5917
▁violate	-11.5919
▁contend	-11.5923
▁indigenous	-11.5932
▁madrid	-11.5938
▁delegate	-11.5953
▁judicial	-11.5957
discrimi	-11.5968
▁affirm	-11.5968
▁revelation	-11.5978
▁browse	-11.5985
▁queue	-11.5993
▁grabbed	-11.5994
▁prototype	-11.5998
▁kenya	-11.5999
electric	-11.6005
▁uncertain	-11.6011
▁grease	-11.6012
	-11.6013
▁surrender	-11.6018
▁celebrating	-11.6024
▁elevator	-11.6029
▁annoying	-11.6029
▁additive	-11.6029
▁excellence	-11.6039
defined	-11.6043
▁generating	-11.6046
▁senator	-11.6047
article	-11.6052
▁ladder	-11.606
▁midnight	-11.606
▁hesitate	-11.6075
▁yeast	-11.6076
▁nozzle	-11.6085
▁kelly	-11.6091
▁pursuit	-11.6097
▁anthony	-11.6106
▁impairment	-11.6111
▁memorable	-11.6111
▁desirable	-11.6131
▁deficiency	-11.6136
protect	-11.6138
▁philadelphia	-11.6142
▁defining	-11.6142
because	-11.6142
▁shuttle	-11.6153
▁magnesium	-11.6157
▁knob	-11.6159
▁easiest	-11.6173
▁severity	-11.6173
▁paradise	-11.6199
▁anxious	-11.6204
▁ginger	-11.6213
▁invisible	-11.6214
▁bulgaria	-11.6225
▁temporarily	-11.6235
▁computing	-11.6235
▁portuguese	-11.6256
▁vibrant	-11.6256
third	-11.6281
▁zipper	-11.6281
▁geometry	-11.6287
▁franc	-11.6291
▁ambient	-11.6293
▁earliest	-11.6298
▁analyzing	-11.6308
▁contour	-11.6309
▁geometric	-11.6309
▁conjunction	-11.6319
▁hockey	-11.6324
▁custody	-11.6329
•	-11.7837
£	-12.0544
 	-13.3297
