<unk>	0
<s>	0
</s>	0
<0x00>	0
<0x01>	0
<0x02>	0
<0x03>	0
<0x04>	0
<0x05>	0
<0x06>	0
<0x07>	0
<0x08>	0
<0x09>	0
<0x0A>	0
<0x0B>	0
<0x0C>	0
<0x0D>	0
<0x0E>	0
<0x0F>	0
<0x10>	0
<0x11>	0
<0x12>	0
<0x13>	0
<0x14>	0
<0x15>	0
<0x16>	0
<0x17>	0
<0x18>	0
<0x19>	0
<0x1A>	0
<0x1B>	0
<0x1C>	0
<0x1D>	0
<0x1E>	0
<0x1F>	0
<0x20>	0
<0x21>	0
<0x22>	0
<0x23>	0
<0x24>	0
<0x25>	0
<0x26>	0
<0x27>	0
<0x28>	0
<0x29>	0
<0x2A>	0
<0x2B>	0
<0x2C>	0
<0x2D>	0
<0x2E>	0
<0x2F>	0
<0x30>	0
<0x31>	0
<0x32>	0
<0x33>	0
<0x34>	0
<0x35>	0
<0x36>	0
<0x37>	0
<0x38>	0
<0x39>	0
<0x3A>	0
<0x3B>	0
<0x3C>	0
<0x3D>	0
<0x3E>	0
<0x3F>	0
<0x40>	0
<0x41>	0
<0x42>	0
<0x43>	0
<0x44>	0
<0x45>	0
<0x46>	0
<0x47>	0
<0x48>	0
<0x49>	0
<0x4A>	0
<0x4B>	0
<0x4C>	0
<0x4D>	0
<0x4E>	0
<0x4F>	0
<0x50>	0
<0x51>	0
<0x52>	0
<0x53>	0
<0x54>	0
<0x55>	0
<0x56>	0
<0x57>	0
<0x58>	0
<0x59>	0
<0x5A>	0
<0x5B>	0
<0x5C>	0
<0x5D>	0
<0x5E>	0
<0x5F>	0
<0x60>	0
<0x61>	0
<0x62>	0
<0x63>	0
<0x64>	0
<0x65>	0
<0x66>	0
<0x67>	0
<0x68>	0
<0x69>	0
<0x6A>	0
<0x6B>	0
<0x6C>	0
<0x6D>	0
<0x6E>	0
<0x6F>	0
<0x70>	0
<0x71>	0
<0x72>	0
<0x73>	0
<0x74>	0
<0x75>	0
<0x76>	0
<0x77>	0
<0x78>	0
<0x79>	0
<0x7A>	0
<0x7B>	0
<0x7C>	0
<0x7D>	0
<0x7E>	0
<0x7F>	0
<0x80>	0
<0x81>	0
<0x82>	0
<0x83>	0
<0x84>	0
<0x85>	0
<0x86>	0
<0x87>	0
<0x88>	0
<0x89>	0
<0x8A>	0
<0x8B>	0
<0x8C>	0
<0x8D>	0
<0x8E>	0
<0x8F>	0
<0x90>	0
<0x91>	0
<0x92>	0
<0x93>	0
<0x94>	0
<0x95>	0
<0x96>	0
<0x97>	0
<0x98>	0
<0x99>	0
<0x9A>	0
<0x9B>	0
<0x9C>	0
<0x9D>	0
<0x9E>	0
<0x9F>	0
<0xA0>	0
<0xA1>	0
<0xA2>	0
<0xA3>	0
<0xA4>	0
<0xA5>	0
<0xA6>	0
<0xA7>	0
<0xA8>	0
<0xA9>	0
<0xAA>	0
<0xAB>	0
<0xAC>	0
<0xAD>	0
<0xAE>	0
<0xAF>	0
<0xB0>	0
<0xB1>	0
<0xB2>	0
<0xB3>	0
<0xB4>	0
<0xB5>	0
<0xB6>	0
<0xB7>	0
<0xB8>	0
<0xB9>	0
<0xBA>	0
<0xBB>	0
<0xBC>	0
<0xBD>	0
<0xBE>	0
<0xBF>	0
<0xC0>	0
<0xC1>	0
<0xC2>	0
<0xC3>	0
<0xC4>	0
<0xC5>	0
<0xC6>	0
<0xC7>	0
<0xC8>	0
<0xC9>	0
<0xCA>	0
<0xCB>	0
<0xCC>	0
<0xCD>	0
<0xCE>	0
<0xCF>	0
<0xD0>	0
<0xD1>	0
<0xD2>	0
<0xD3>	0
<0xD4>	0
<0xD5>	0
<0xD6>	0
<0xD7>	0
<0xD8>	0
<0xD9>	0
<0xDA>	0
<0xDB>	0
<0xDC>	0
<0xDD>	0
<0xDE>	0
<0xDF>	0
<0xE0>	0
<0xE1>	0
<0xE2>	0
<0xE3>	0
<0xE4>	0
<0xE5>	0
<0xE6>	0
<0xE7>	0
<0xE8>	0
<0xE9>	0
<0xEA>	0
<0xEB>	0
<0xEC>	0
<0xED>	0
<0xEE>	0
<0xEF>	0
<0xF0>	0
<0xF1>	0
<0xF2>	0
<0xF3>	0
<0xF4>	0
<0xF5>	0
<0xF6>	0
<0xF7>	0
<0xF8>	0
<0xF9>	0
<0xFA>	0
<0xFB>	0
<0xFC>	0
<0xFD>	0
<0xFE>	0
<0xFF>	0
,	-3.30971
▁	-3.34236
.	-3.36109
▁w	-4.10031
▁i	-4.30294
a	-4.38397
▁z	-4.49138
▁na	-4.59939
y	-4.68343
u	-4.81255
▁do	-4.83305
▁się	-4.87821
m	-4.88437
▁nie	-5.06143
0	-5.07403
1	-5.15986
ch	-5.26525
e	-5.28037
▁jest	-5.31657
j	-5.31931
▁po	-5.37089
i	-5.40896
▁o	-5.42494
▁za	-5.43028
▁to	-5.45213
2	-5.45357
s	-5.46213
▁że	-5.47531
ć	-5.51786
ów	-5.5385
em	-5.54511
o	-5.67973
▁od	-5.73643
nie	-5.7736
na	-5.80872
▁W	-5.81724
▁(	-5.83919
ę	-5.84148
ą	-5.85658
ne	-5.89566
-	-5.96086
ł	-5.97227
:	-5.97659
go	-5.98212
z	-5.99381
li	-6.01279
3	-6.03442
5	-6.05248
▁a	-6.06013
mi	-6.08415
sz	-6.09761
t	-6.12101
▁wy	-6.13515
d	-6.15176
▁u	-6.18174
ka	-6.18177
▁„	-6.20042
w	-6.21328
)	-6.21674
▁jak	-6.21956
4	-6.22359
?	-6.22936
ny	-6.24272
nia	-6.25689
9	-6.2599
ki	-6.26057
▁dla	-6.26638
ła	-6.28818
▁prze	-6.30527
▁lub	-6.30645
▁są	-6.31835
k	-6.33685
ach	-6.36516
▁przez	-6.37294
ami	-6.38278
c	-6.39268
▁przy	-6.39834
▁A	-6.42468
6	-6.42482
ie	-6.44674
8	-6.44769
l	-6.44966
▁ma	-6.47145
▁pod	-6.47624
▁s	-6.49094
n	-6.49522
▁Po	-6.49876
ni	-6.4996
▁S	-6.53472
7	-6.54656
▁co	-6.55662
ją	-6.56992
▁aby	-6.58251
▁ale	-6.59624
▁tym	-6.59704
cie	-6.60676
g	-6.61243
ce	-6.61623
my	-6.62691
ło	-6.64184
▁–	-6.65504
owe	-6.67212
le	-6.67942
▁O	-6.70179
▁które	-6.71131
▁może	-6.74696
”	-6.74782
r	-6.79649
▁Nie	-6.82446
▁tego	-6.8444
ta	-6.84636
owych	-6.85443
ły	-6.86589
ną	-6.86856
p	-6.87275
▁Z	-6.87399
nych	-6.90007
enia	-6.90405
b	-6.90482
▁być	-6.90579
!	-6.91209
▁To	-6.92092
▁Na	-6.93308
owy	-6.93758
▁-	-6.95366
ek	-6.95621
▁tak	-6.95881
▁ze	-6.96178
da	-6.96531
ej	-6.97561
cy	-6.98302
▁I	-6.98651
ty	-6.99882
;	-7.03912
/	-7.04694
no	-7.06651
ować	-7.07772
▁jako	-7.08692
▁który	-7.08727
uje	-7.09895
▁Za	-7.10272
▁oraz	-7.10456
ś	-7.11069
▁mi	-7.12968
▁U	-7.13045
ż	-7.13061
▁również	-7.13092
ego	-7.14676
enie	-7.15067
▁tylko	-7.15159
la	-7.1553
▁czy	-7.16657
▁roz	-7.18471
▁jego	-7.18773
wa	-7.19037
).	-7.192
ra	-7.20479
▁roku	-7.20837
ci	-7.20905
▁bardzo	-7.20948
owa	-7.21396
ku	-7.22105
▁E	-7.24371
▁P	-7.25033
st	-7.25169
owania	-7.25199
one	-7.26464
wi	-7.26531
▁był	-7.26949
dy	-7.27163
om	-7.27565
acji	-7.27818
▁ich	-7.27851
▁gdy	-7.28075
ko	-7.28609
owej	-7.30535
re	-7.30616
owego	-7.30671
▁Do	-7.30972
zy	-7.31058
▁B	-7.31859
D	-7.32252
▁go	-7.32587
rze	-7.32825
nego	-7.35137
by	-7.35771
▁C	-7.35782
ca	-7.35887
B	-7.35899
▁bez	-7.36491
ro	-7.37063
ń	-7.37563
▁można	-7.37687
te	-7.37808
▁G	-7.39058
en	-7.39087
to	-7.40155
ar	-7.41278
▁będzie	-7.41827
ze	-7.41834
▁re	-7.42276
dzie	-7.4248
▁Wy	-7.42713
in	-7.42803
kę	-7.43848
▁niż	-7.43927
owanie	-7.43974
P	-7.44221
▁przed	-7.44369
er	-7.44418
S	-7.44803
▁było	-7.44833
nej	-7.46024
ma	-7.46706
▁M	-7.4681
▁ten	-7.47434
▁K	-7.47465
▁ko	-7.48228
ry	-7.48604
▁ob	-7.4893
ści	-7.4922
czy	-7.49273
po	-7.49983
łem	-7.49997
f	-7.50446
nym	-7.50737
▁jej	-7.50848
▁mogą	-7.51271
gi	-7.51343
an	-7.52522
M	-7.53521
▁lat	-7.53891
W	-7.54188
▁D	-7.55735
za	-7.56317
owi	-7.56413
C	-7.56466
owane	-7.5666
ję	-7.57106
▁Jeśli	-7.5739
je	-7.57416
al	-7.57426
ga	-7.57935
▁T	-7.58178
x	-7.58268
▁te	-7.58419
▁jeśli	-7.58961
▁Co	-7.59383
jąc	-7.59584
ową	-7.60102
▁Ma	-7.60956
T	-7.61003
▁która	-7.61472
▁Czy	-7.61489
or	-7.61543
liśmy	-7.62743
cz	-7.62824
▁F	-7.63226
do	-7.63998
▁tej	-7.65276
▁nad	-7.65307
▁mnie	-7.65312
owym	-7.6636
lo	-7.67115
ona	-7.67351
▁p	-7.674
ur	-7.67908
▁już	-7.67913
ść	-7.67917
A	-7.68458
ba	-7.68503
ką	-7.6865
niu	-7.68979
▁więcej	-7.69282
▁by	-7.69583
ia	-7.70074
▁r	-7.70491
bo	-7.70653
...	-7.70738
”.	-7.7179
▁je	-7.71862
▁podczas	-7.71938
L	-7.72026
acja	-7.7218
ony	-7.72264
'	-7.73132
bi	-7.73134
▁także	-7.73236
▁ponieważ	-7.73509
ja	-7.73682
▁Ale	-7.74008
on	-7.75396
▁była	-7.76203
F	-7.7633
K	-7.7637
h	-7.76671
tu	-7.76801
▁powiedział	-7.77548
lu	-7.77867
ter	-7.78325
ków	-7.78485
▁ta	-7.79674
R	-7.79885
▁czas	-7.80388
ri	-7.80393
▁kon	-7.80559
▁sposób	-7.81278
▁sobie	-7.81285
▁wiele	-7.81499
▁tych	-7.81988
de	-7.82289
mu	-7.82511
O	-7.82797
▁N	-7.83685
at	-7.84303
ność	-7.84505
si	-7.84823
owany	-7.84911
nik	-7.8496
wo	-7.85206
▁mają	-7.85759
G	-7.86857
H	-7.87043
E	-7.87593
▁bardziej	-7.8773
am	-7.87902
sze	-7.88227
wy	-7.88591
cja	-7.88614
▁więc	-7.8866
),	-7.89089
▁Od	-7.8913
ują	-7.89982
▁Re	-7.90783
el	-7.90794
sa	-7.90799
%	-7.90832
sta	-7.91086
V	-7.91318
od	-7.91383
▁Jak	-7.92859
▁został	-7.92938
▁bo	-7.93145
ności	-7.93523
▁pracy	-7.93754
wie	-7.94237
▁kiedy	-7.94613
▁H	-7.94868
▁też	-7.95008
▁"	-7.95066
sza	-7.9628
▁R	-7.96351
▁kilka	-7.96372
▁dzieci	-7.96463
ać	-7.96518
"	-7.97192
▁nawet	-7.97295
▁Mi	-7.97494
▁celu	-7.97977
▁innych	-7.98225
ację	-7.98681
eń	-7.99239
szy	-7.99572
▁Jest	-7.99624
▁między	-7.99666
pi	-7.99788
▁ka	-8.00094
es	-8.00247
▁którzy	-8.00708
▁ci	-8.00718
ono	-8.00915
cze	-8.01187
▁wszystkich	-8.01346
▁Ta	-8.02243
▁k	-8.02246
iem	-8.02697
▁których	-8.03409
U	-8.03644
ska	-8.03732
▁możesz	-8.03754
N	-8.03878
▁pro	-8.04442
▁jednak	-8.04476
▁były	-8.0481
▁[	-8.05121
▁da	-8.05168
eniu	-8.0539
ania	-8.05613
ru	-8.05655
▁mówi	-8.05656
ow	-8.0577
▁czasu	-8.05954
ii	-8.06299
▁—	-8.07183
▁Prze	-8.07292
▁V	-8.07646
pa	-8.07687
łącz	-8.08623
cia	-8.09782
▁przypadku	-8.10544
owo	-8.10839
▁praw	-8.11251
anie	-8.11487
▁teraz	-8.11534
bra	-8.11844
▁wszystkie	-8.11897
▁Bo	-8.12039
▁L	-8.12511
ał	-8.12595
ował	-8.13069
▁Te	-8.13619
]	-8.1383
▁Mo	-8.14007
▁de	-8.14371
łam	-8.14606
▁ja	-8.14615
nu	-8.14683
th	-8.14723
▁wielu	-8.15072
▁e	-8.15652
co	-8.15763
▁swoje	-8.15916
ych	-8.16138
ście	-8.16235
▁g	-8.16273
J	-8.17105
▁dobrze	-8.17325
mo	-8.17979
▁temat	-8.18488
ck	-8.18618
…	-8.18636
▁wszystko	-8.1876
▁prostu	-8.19213
owana	-8.19628
ży	-8.19653
▁będą	-8.19796
praw	-8.19826
▁Li	-8.20012
su	-8.20447
▁gdzie	-8.20518
cji	-8.21309
▁naprawdę	-8.21632
cza	-8.21642
▁miejsce	-8.21877
▁nas	-8.22143
ię	-8.22973
▁należy	-8.23007
ob	-8.23159
uj	-8.23332
▁Przy	-8.23411
sty	-8.2396
▁jeszcze	-8.2401
▁in	-8.24269
▁mu	-8.2437
”,	-8.24384
▁naj	-8.2441
et	-8.24429
rzy	-8.24621
▁którym	-8.25199
▁tam	-8.25526
jących	-8.25933
▁In	-8.2628
kiem	-8.26299
▁we	-8.26315
▁coś	-8.2648
▁pi	-8.26558
▁Le	-8.27179
ź	-8.27357
▁Ja	-8.27382
że	-8.27543
sy	-8.27742
▁stanie	-8.27763
is	-8.27883
dzi	-8.27941
▁takie	-8.27958
▁Ca	-8.28261
▁Ba	-8.28398
▁nich	-8.28713
ają	-8.28867
▁domu	-8.29072
Z	-8.29127
▁De	-8.29463
▁ludzi	-8.29503
▁zawsze	-8.29718
▁danych	-8.30512
yć	-8.30853
rod	-8.31023
kami	-8.3143
▁samo	-8.31533
▁Ko	-8.31908
▁Tak	-8.31946
▁La	-8.32794
▁Ka	-8.33023
ak	-8.33171
v	-8.33284
vi	-8.33372
min	-8.33386
we	-8.33663
▁plan	-8.34036
ment	-8.34056
Y	-8.34672
bie	-8.34921
sh	-8.34937
▁osób	-8.35066
▁Pod	-8.35089
gu	-8.36169
▁mam	-8.36183
man	-8.36189
▁pa	-8.36522
ym	-8.36634
▁około	-8.37053
▁przykład	-8.37229
onych	-8.37581
acje	-8.37839
zna	-8.37935
▁gra	-8.38103
sk	-8.38211
▁inne	-8.38589
▁Ra	-8.38713
▁pas	-8.38846
ład	-8.39135
ić	-8.39795
ając	-8.40034
ość	-8.40442
▁ba	-8.40573
kry	-8.40883
▁mieć	-8.41321
▁dwa	-8.41504
me	-8.41606
▁miał	-8.41667
se	-8.41754
I	-8.41925
▁Kiedy	-8.42229
▁Ci	-8.42927
łu	-8.42959
▁ani	-8.43011
▁J	-8.43147
▁części	-8.4353
▁Aby	-8.43798
pro	-8.43898
ha	-8.43918
▁Pro	-8.44116
▁ją	-8.44203
ed	-8.44209
son	-8.44396
▁swoich	-8.44417
zi	-8.4449
▁spo	-8.44503
kon	-8.44526
ing	-8.44875
sto	-8.45127
▁Jednak	-8.45234
▁spraw	-8.45972
▁sta	-8.46075
▁różnych	-8.46317
▁życia	-8.46376
▁zrobić	-8.46445
ski	-8.46468
zie	-8.46544
nę	-8.47028
ad	-8.47102
▁jeden	-8.472
ng	-8.47208
▁została	-8.47262
▁swoją	-8.48385
▁ponad	-8.48705
nika	-8.49389
ali	-8.49424
du	-8.49503
▁Pa	-8.49592
▁posiada	-8.49875
▁projekt	-8.49907
▁często	-8.50028
pie	-8.5008
▁Je	-8.50209
▁prób	-8.50254
ator	-8.50435
▁Ro	-8.50469
▁musi	-8.50849
▁ży	-8.51416
▁rzeczy	-8.51598
ster	-8.51976
▁wymaga	-8.51977
▁dni	-8.52366
▁życie	-8.52411
▁nigdy	-8.52478
ości	-8.52522
chodzi	-8.52598
os	-8.52897
▁sp	-8.52941
▁takich	-8.53033
dział	-8.53038
▁jedno	-8.53206
▁Wi	-8.53207
▁Ten	-8.53296
nd	-8.53469
▁której	-8.53527
▁jaki	-8.53549
ent	-8.53763
▁nadal	-8.54773
▁pomocą	-8.54889
ot	-8.54901
▁potrzeb	-8.55089
ton	-8.55101
ke	-8.55247
▁dzięki	-8.55288
▁strony	-8.55294
ll	-8.55377
eni	-8.55428
▁dnia	-8.55454
waż	-8.55466
sie	-8.56072
dziel	-8.56111
▁masz	-8.56116
fe	-8.56118
▁system	-8.56234
▁siebie	-8.56242
wol	-8.56743
tor	-8.56924
eniem	-8.57146
▁wyda	-8.57267
▁mo	-8.57329
▁powodu	-8.57418
▁dwóch	-8.57434
ując	-8.57531
jące	-8.5771
wiąz	-8.57715
▁czasie	-8.57752
▁Da	-8.57794
▁używa	-8.57798
por	-8.57897
▁trochę	-8.58024
▁raz	-8.58053
tra	-8.58103
owanych	-8.58146
▁firmy	-8.58321
ana	-8.58481
▁swojej	-8.58505
im	-8.58565
il	-8.58581
ol	-8.58684
▁tę	-8.58822
ir	-8.58931
ti	-8.58977
▁zostały	-8.59001
fa	-8.59116
▁następnie	-8.59318
nymi	-8.59417
tek	-8.59581
▁wartości	-8.59583
der	-8.5972
dź	-8.59895
▁trzy	-8.60044
▁program	-8.60183
ul	-8.60243
▁swoim	-8.60335
▁działa	-8.60888
bu	-8.60909
prze	-8.61164
▁ro	-8.61591
▁żeby	-8.62093
ste	-8.62301
▁fa	-8.62373
▁tu	-8.62618
tki	-8.62632
▁d	-8.62928
stęp	-8.63171
▁którego	-8.63362
▁informacji	-8.63767
▁Roz	-8.63944
▁robi	-8.64009
▁jestem	-8.6405
▁Lo	-8.64267
▁najbardziej	-8.64298
uję	-8.64333
mp	-8.64396
fi	-8.64872
▁Bi	-8.64953
▁ludzie	-8.65445
ss	-8.65504
▁zawiera	-8.66021
rę	-8.66134
łe	-8.6616
▁oznacza	-8.66221
ve	-8.66419
pe	-8.6644
▁zostanie	-8.66662
ane	-8.66752
▁kom	-8.66867
eś	-8.66893
▁sto	-8.67077
▁tutaj	-8.6725
▁jesteś	-8.67258
ks	-8.67986
twor	-8.67986
▁wcześniej	-8.68
chod	-8.68215
ver	-8.68259
▁poziom	-8.68347
▁bi	-8.68356
ner	-8.68455
▁Pi	-8.68511
▁on	-8.68548
▁znajduje	-8.69056
▁wieku	-8.69109
▁zarówno	-8.69233
ó	-8.69244
▁kilku	-8.69393
▁ciągu	-8.6955
leg	-8.69792
▁zna	-8.70086
kie	-8.70397
▁szybko	-8.705
▁X	-8.70576
us	-8.70627
▁Ha	-8.70712
▁temu	-8.70731
owie	-8.70749
▁nim	-8.7076
jący	-8.70849
▁b	-8.70883
▁No	-8.7092
▁me	-8.7099
aż	-8.7103
▁minut	-8.71045
ler	-8.7108
▁mniej	-8.71125
▁Może	-8.71209
alne	-8.71231
szcz	-8.71252
▁każdego	-8.71309
▁chcesz	-8.71327
cznie	-8.71338
▁świecie	-8.71382
▁uwagę	-8.71431
cą	-8.72049
▁wie	-8.72251
pad	-8.72451
tro	-8.72581
▁mogę	-8.72586
▁nic	-8.72644
▁sam	-8.72698
▁Sz	-8.72783
▁pierwszy	-8.72869
rza	-8.72985
▁jednym	-8.7299
ran	-8.73138
ho	-8.73284
▁dr	-8.73311
oną	-8.73433
nt	-8.7375
sko	-8.73797
▁Se	-8.73887
▁swojego	-8.74138
▁test	-8.74157
mie	-8.74164
▁mieszka	-8.74724
▁Ch	-8.74964
▁problem	-8.75093
▁stronie	-8.75285
▁razem	-8.75364
▁wpływ	-8.75562
kach	-8.75569
▁którą	-8.75821
par	-8.75884
łeś	-8.76055
ujemy	-8.76231
war	-8.76289
▁później	-8.76312
it	-8.76375
wod	-8.76405
di	-8.76555
ców	-8.76593
szą	-8.76685
X	-8.76796
▁ho	-8.77079
ór	-8.77303
ok	-8.7751
▁sieci	-8.77538
▁proces	-8.77777
ew	-8.77825
mar	-8.77832
dr	-8.77879
rt	-8.77889
▁usług	-8.77972
▁wygląda	-8.78028
tar	-8.78074
czne	-8.78204
tów	-8.78447
raż	-8.78547
▁swój	-8.78551
▁uważa	-8.78599
▁zbyt	-8.78688
▁dotyczące	-8.78763
▁prac	-8.78884
▁zrobi	-8.78889
▁no	-8.79145
fer	-8.79215
▁kolor	-8.79275
com	-8.79465
▁f	-8.79639
▁prawie	-8.79929
owaniu	-8.80266
niem	-8.80431
▁dużo	-8.80706
▁znaleźć	-8.80776
owymi	-8.80831
▁każdym	-8.81096
sku	-8.81784
▁kar	-8.81841
▁Al	-8.819
▁poza	-8.81981
▁wykona	-8.8201
▁jakości	-8.82126
ang	-8.82284
▁miejsca	-8.82379
▁cię	-8.82566
▁stan	-8.82627
▁model	-8.8264
lar	-8.82714
▁godzin	-8.82753
▁trwa	-8.82848
ża	-8.83171
▁jakie	-8.83272
▁badania	-8.83361
▁przeciw	-8.83398
▁udział	-8.83554
▁dzień	-8.83631
▁poprzez	-8.83635
um	-8.83659
▁zabaw	-8.83951
▁każdy	-8.84086
ią	-8.84251
cję	-8.8462
so	-8.84709
▁pan	-8.84723
czu	-8.84753
▁chodzi	-8.84767
twór	-8.84875
per	-8.85188
ron	-8.85201
▁świat	-8.85261
rząd	-8.85402
pon	-8.85474
▁par	-8.85606
▁Ar	-8.85674
▁aktyw	-8.85878
▁St	-8.86067
▁część	-8.8609
lub	-8.86175
skie	-8.86192
any	-8.86269
now	-8.86347
▁of	-8.8647
fik	-8.86597
▁dane	-8.86798
duk	-8.86899
▁naszych	-8.86951
▁op	-8.87008
▁wody	-8.87052
▁se	-8.87171
▁miejscu	-8.87272
daje	-8.87305
tka	-8.87346
daw	-8.8756
bli	-8.87601
▁The	-8.87615
▁informacje	-8.87747
▁rzecz	-8.87767
ód	-8.87782
un	-8.88101
bior	-8.88291
_	-8.88454
▁powierzchni	-8.88478
▁Su	-8.88565
▁gry	-8.88567
zor	-8.88786
▁różne	-8.89027
▁/	-8.89077
▁dostęp	-8.89108
gra	-8.89208
▁dom	-8.8924
▁Ś	-8.89273
czą	-8.89311
▁kobiet	-8.89335
▁film	-8.8934
▁osob	-8.89361
▁Pan	-8.89652
▁cały	-8.89752
▁Di	-8.89781
szu	-8.89791
ge	-8.89942
▁si	-8.89982
▁zostać	-8.90164
▁stanowi	-8.90228
▁tra	-8.90422
▁licz	-8.90455
▁kto	-8.90538
▁cz	-8.90546
▁Jego	-8.90565
▁zgodnie	-8.90842
metr	-8.90952
wal	-8.91531
▁lata	-8.91733
hi	-8.91819
▁względu	-8.9191
ił	-8.91911
▁Mar	-8.91951
io	-8.91975
mer	-8.91979
▁nowe	-8.91995
▁mar	-8.92037
▁znacznie	-8.92061
ger	-8.92213
wał	-8.92214
usz	-8.92448
▁podstaw	-8.92491
▁głos	-8.92537
krzy	-8.9264
▁osoby	-8.92847
leż	-8.92934
▁systemu	-8.93014
▁opis	-8.93105
▁biznes	-8.9317
wia	-8.93376
▁ponownie	-8.93409
ąc	-8.93431
▁odpowiedzi	-8.93532
be	-8.93747
▁uzna	-8.93779
▁ha	-8.93794
różni	-8.9422
czek	-8.94271
▁t	-8.94288
woj	-8.94341
▁Du	-8.9436
ników	-8.94621
▁moje	-8.94691
▁moc	-8.94728
▁byli	-8.94765
unk	-8.94803
nki	-8.95126
▁Kon	-8.95133
▁Me	-8.95256
▁początku	-8.95429
▁Ho	-8.95457
(	-8.95638
▁dwie	-8.95674
▁otrzyma	-8.95706
▁Sa	-8.95728
ut	-8.9575
owała	-8.95752
▁so	-8.95777
▁średni	-8.95973
▁obraz	-8.96067
▁Ob	-8.96093
▁uzyskać	-8.96095
▁Be	-8.9611
mówi	-8.96426
ber	-8.96433
▁zapewnia	-8.96487
▁Możesz	-8.96783
ró	-8.96814
land	-8.96868
got	-8.96951
dow	-8.97033
ujące	-8.97106
▁nadzieję	-8.97156
ciąg	-8.97196
▁bu	-8.97434
▁możliwości	-8.97763
ant	-8.97894
tur	-8.98042
czną	-8.98075
▁We	-8.98075
▁właśnie	-8.98192
tyczne	-8.98443
id	-8.98499
esz	-8.98552
głos	-8.98569
ns	-8.9877
br	-8.98783
▁Mam	-8.98837
▁wszystkim	-8.98855
▁Pe	-8.98906
skich	-8.98998
▁Y	-8.99088
lec	-8.99136
▁ty	-8.99171
▁czego	-8.99289
ic	-8.99309
dę	-8.99333
▁zestaw	-8.99458
zo	-8.99509
▁telefon	-8.99516
raz	-8.99684
▁zakup	-8.99728
acją	-8.99749
▁wiem	-8.99923
▁nauk	-8.99971
nąć	-9.00027
▁składa	-9.0018
▁większość	-9.00332
▁końcu	-9.00504
▁kol	-9.00633
ano	-9.00701
▁zostało	-9.00771
łą	-9.00809
py	-9.00848
dzenia	-9.01182
str	-9.01195
kolwiek	-9.01398
dni	-9.01455
wane	-9.01458
▁gór	-9.01487
▁niego	-9.01614
szedł	-9.01626
▁Gra	-9.01727
cu	-9.01912
den	-9.01992
▁społeczności	-9.02014
▁wszyscy	-9.02114
lin	-9.02138
ple	-9.02158
nicy	-9.0219
▁sie	-9.02314
cją	-9.02355
mierz	-9.02459
▁moim	-9.02525
ałem	-9.02647
▁jednego	-9.02859
▁musiał	-9.03018
ard	-9.03113
wód	-9.03117
▁So	-9.03158
▁pomoc	-9.03293
▁zobaczyć	-9.033
ała	-9.03477
gen	-9.03586
▁Fi	-9.03719
▁zmiany	-9.03893
▁miasta	-9.03926
organiz	-9.04015
era	-9.04041
▁Go	-9.04174
▁ktoś	-9.04202
▁dobry	-9.04224
▁zakresie	-9.04447
iz	-9.04546
▁kocha	-9.04547
op	-9.04551
▁cen	-9.04573
świadcz	-9.04601
letni	-9.04632
▁koniec	-9.04641
staw	-9.04827
▁możemy	-9.04903
▁wydaje	-9.04919
gr	-9.04929
▁nasze	-9.04957
▁działania	-9.05024
▁nam	-9.0555
▁jedną	-9.05578
▁pal	-9.05946
▁im	-9.06012
ył	-9.06101
dat	-9.06199
▁aż	-9.06221
▁kraj	-9.06229
▁Dla	-9.06243
▁prezent	-9.06325
▁syn	-9.0641
▁musisz	-9.06449
iczne	-9.06508
nów	-9.06541
▁standard	-9.06574
▁pie	-9.06817
cje	-9.07056
▁Fa	-9.07169
▁Cz	-9.07215
▁przedstawi	-9.07215
▁poli	-9.07248
▁mod	-9.0725
▁ga	-9.07329
▁pół	-9.07342
▁muszą	-9.07348
va	-9.07402
lne	-9.07491
▁prawdopodobnie	-9.07558
ina	-9.07599
stra	-9.07611
▁USD	-9.07857
▁samym	-9.07987
▁lek	-9.08119
▁latach	-9.08141
▁kor	-9.08193
▁typu	-9.08358
zji	-9.08395
▁współ	-9.08782
▁pomysł	-9.08875
gro	-9.08973
▁kraju	-9.09039
▁powinien	-9.09075
tą	-9.09092
▁rząd	-9.09108
▁albo	-9.09196
▁Bu	-9.09268
dz	-9.09339
▁Teraz	-9.09437
▁okres	-9.09458
▁pozwala	-9.09509
wer	-9.09519
▁metod	-9.09594
cjon	-9.09602
onego	-9.09643
▁naszej	-9.09756
▁całym	-9.09932
▁nowy	-9.10009
▁koszt	-9.10019
▁naszym	-9.10069
tel	-9.10085
▁obowiąz	-9.10214
▁miała	-9.10301
▁form	-9.10314
stan	-9.10317
▁kup	-9.10565
▁mój	-9.106
owali	-9.10664
▁Lu	-9.10782
▁dlatego	-9.1082
tk	-9.10867
▁wyniki	-9.10874
dą	-9.11012
▁rynku	-9.11089
tem	-9.11094
▁•	-9.11337
▁tekst	-9.11349
▁typ	-9.11415
▁zmian	-9.11457
▁szuka	-9.11507
>	-9.11516
▁Podczas	-9.11766
eli	-9.11828
▁rok	-9.11853
▁dobre	-9.11889
as	-9.11959
▁Gdy	-9.11989
▁kontakt	-9.12029
ag	-9.1203
▁produktów	-9.12068
icznych	-9.12126
▁numer	-9.1222
ujących	-9.12304
▁cel	-9.12315
▁Si	-9.12337
ff	-9.12374
▁mamy	-9.12378
▁postaci	-9.12553
▁mógł	-9.12642
▁nowych	-9.12671
alnie	-9.12841
▁Wszystkie	-9.12844
▁płyt	-9.13001
jazd	-9.13128
▁Sta	-9.13184
byt	-9.13213
▁ważne	-9.13269
▁sprzeda	-9.13301
▁wraz	-9.13466
rob	-9.13522
▁historii	-9.13531
jącego	-9.13567
ające	-9.13581
▁Dzięki	-9.13598
▁podróż	-9.13613
▁urządzenia	-9.13643
wali	-9.1374
▁sklep	-9.13809
▁fakt	-9.13951
kom	-9.13951
▁ziemi	-9.14109
kt	-9.14112
tan	-9.14333
▁He	-9.14342
zu	-9.14432
bro	-9.14489
lan	-9.14498
świetl	-9.14535
▁miejsc	-9.14619
▁Ni	-9.14652
łość	-9.14661
nk	-9.14815
owano	-9.14902
▁Sp	-9.15156
▁efekt	-9.1516
gar	-9.15187
skiej	-9.15188
win	-9.1522
▁su	-9.15241
fr	-9.15385
▁czym	-9.15641
wanie	-9.15661
▁lepiej	-9.15739
ion	-9.15768
▁odpowiedni	-9.15789
ser	-9.1586
▁razy	-9.15914
▁Jo	-9.15946
▁ser	-9.15997
skiego	-9.16091
▁dość	-9.16098
oli	-9.16217
▁pomóc	-9.16246
ist	-9.16301
cyjne	-9.16532
myśl	-9.166
dzenie	-9.1673
▁dostępne	-9.16781
lot	-9.1679
▁zaczyna	-9.16792
ujesz	-9.16813
dra	-9.16841
▁ruch	-9.1688
ujący	-9.16941
mat	-9.16995
▁mężczyzn	-9.17093
▁gener	-9.17133
rz	-9.17313
kra	-9.17313
▁małe	-9.17321
▁spa	-9.1752
▁dalej	-9.1753
▁związane	-9.17538
śli	-9.17593
biera	-9.17693
lę	-9.17852
pracowa	-9.18041
▁całkowicie	-9.1807
ld	-9.18087
▁zdjęcia	-9.18128
▁firm	-9.18141
▁niektórych	-9.18148
▁trzech	-9.18291
▁każdej	-9.18311
kro	-9.18322
▁wtedy	-9.18441
▁przycisk	-9.18502
▁długo	-9.18607
mul	-9.1882
▁zwykle	-9.18869
▁dolarów	-9.18905
▁sport	-9.1892
▁ok	-9.18927
kar	-9.19053
▁pozosta	-9.19057
▁pu	-9.19073
czę	-9.19105
▁Bar	-9.19138
▁rol	-9.19139
prowadz	-9.19173
tt	-9.19205
▁Mu	-9.19275
ską	-9.19316
▁bud	-9.19353
▁zanim	-9.19444
▁kierow	-9.1947
tion	-9.19493
▁kolej	-9.19505
lon	-9.19514
▁Chociaż	-9.19626
▁powiedzieć	-9.1963
sen	-9.19735
alnych	-9.19801
nosi	-9.19829
}	-9.19915
▁ku	-9.20144
▁taki	-9.20291
▁obu	-9.20368
puszcza	-9.20492
▁sukces	-9.20761
▁będziesz	-9.20767
wać	-9.20775
▁prawo	-9.2079
cenie	-9.20885
▁aplikacji	-9.20969
mian	-9.21022
kier	-9.21035
▁dlaczego	-9.21132
wier	-9.21133
▁grupy	-9.21221
▁czyta	-9.21353
▁istnieje	-9.21396
ół	-9.21445
iel	-9.21481
ren	-9.21601
▁wys	-9.21646
▁najmniej	-9.21683
ps	-9.21914
łączyć	-9.2195
ble	-9.21993
wany	-9.22039
▁związku	-9.22081
kre	-9.22096
▁dźwięk	-9.22201
▁pracę	-9.22219
▁duże	-9.2227
▁pre	-9.22292
szym	-9.22301
▁pełni	-9.22513
▁rad	-9.22514
▁Dr	-9.22645
ly	-9.2265
publik	-9.22702
▁czeka	-9.22718
pię	-9.22738
gan	-9.22845
▁dwu	-9.22967
jącym	-9.2297
ciu	-9.23066
dia	-9.23092
▁sko	-9.23116
▁programu	-9.23126
ST	-9.23138
he	-9.23195
stwo	-9.23298
▁rozwoju	-9.23317
▁obecnie	-9.23355
▁wciąż	-9.23427
ell	-9.23508
▁Dlatego	-9.23599
▁Następnie	-9.2365
pas	-9.23654
▁przedmiot	-9.2379
▁Ga	-9.23802
ham	-9.23814
▁biur	-9.24015
▁sprawia	-9.24095
tę	-9.24107
ft	-9.24126
▁Vi	-9.24247
stru	-9.24285
▁drzwi	-9.24333
▁zmienia	-9.24516
▁możliwość	-9.2452
▁roślin	-9.24568
▁termin	-9.24619
▁uda	-9.24677
▁według	-9.24683
▁razie	-9.24737
▁mas	-9.24777
▁artykuł	-9.24794
▁hi	-9.24808
▁centrum	-9.24837
▁prawa	-9.25008
▁ramach	-9.25038
mawia	-9.25076
nic	-9.25082
▁ciała	-9.25224
▁innymi	-9.25254
RA	-9.25271
▁Ne	-9.25351
▁Ri	-9.25446
wania	-9.25463
prowadzić	-9.25568
▁granic	-9.25576
▁zasad	-9.25597
▁=	-9.25606
▁lo	-9.25618
▁Car	-9.2567
▁produkt	-9.25799
mail	-9.25938
▁chce	-9.26023
śni	-9.26077
▁przegląd	-9.2608
▁wzrost	-9.26208
▁oferuje	-9.2626
▁...	-9.2627
▁słowa	-9.26379
kontrol	-9.26407
▁Ponadto	-9.26421
▁ilości	-9.26435
▁kart	-9.26475
czenie	-9.26602
danie	-9.26629
ers	-9.26634
▁jednej	-9.26638
▁brak	-9.26719
nek	-9.27017
▁łatwo	-9.27033
▁styl	-9.2705
czo	-9.27089
alny	-9.27108
▁produk	-9.27206
▁mojej	-9.27296
▁poz	-9.27306
▁usługi	-9.2731
roz	-9.2736
▁procent	-9.27376
▁rodziny	-9.27503
bor	-9.27506
nął	-9.27534
jącą	-9.27655
▁fi	-9.27663
nce	-9.27716
▁interes	-9.27789
▁kod	-9.2785
niki	-9.27865
▁bieg	-9.27887
▁Kr	-9.27938
kowa	-9.27944
▁John	-9.27988
▁adres	-9.28025
ęci	-9.2804
▁For	-9.28176
▁struktur	-9.28244
▁wynosi	-9.28248
▁Ru	-9.28273
▁bank	-9.28301
▁korzysta	-9.28318
▁klasy	-9.28462
▁Są	-9.28484
▁rozmiar	-9.285
▁dostaw	-9.28533
ety	-9.28586
▁wybor	-9.28612
▁Ty	-9.28719
▁dokument	-9.28793
port	-9.28965
▁finans	-9.29016
onym	-9.29024
▁podstawie	-9.29027
ryt	-9.29156
ios	-9.29158
strze	-9.292
▁bezpieczeństwa	-9.29206
▁możliwe	-9.29219
ąż	-9.29227
▁rzeczywistości	-9.2935
▁niektóre	-9.29381
▁Ju	-9.29412
▁sobą	-9.29429
▁trans	-9.29579
▁przeciwko	-9.29597
CH	-9.29673
▁Dzi	-9.29768
▁życiu	-9.2979
▁rozwija	-9.29941
▁poniżej	-9.30003
owanego	-9.30029
▁Naj	-9.30148
▁Ki	-9.30168
▁świata	-9.30177
▁znajdują	-9.30348
▁powiedziała	-9.30373
▁reklam	-9.30468
▁myśli	-9.30495
kur	-9.30609
▁maszyn	-9.30651
▁Pra	-9.3067
onej	-9.30742
niej	-9.30763
▁stara	-9.30787
▁noc	-9.30823
cho	-9.30843
cę	-9.30958
Po	-9.30983
▁punkt	-9.30999
▁sprawie	-9.3104
▁pozna	-9.31181
NIE	-9.31209
gląd	-9.31312
▁widzi	-9.31334
wart	-9.31349
▁płyn	-9.31419
fo	-9.3154
▁mogli	-9.31666
▁Wie	-9.31713
czenia	-9.31774
▁pierwsze	-9.31805
▁grze	-9.31808
▁innego	-9.31978
▁Ponieważ	-9.32005
▁poziomie	-9.32048
up	-9.32125
łości	-9.3229
▁naszego	-9.3232
▁umiejętności	-9.32363
ier	-9.32425
▁klientów	-9.3246
▁komputer	-9.32532
lny	-9.32552
ph	-9.32591
▁energii	-9.32611
stos	-9.32625
▁wyjaśni	-9.32683
jąca	-9.32766
▁krok	-9.32792
▁lu	-9.32805
▁drugiej	-9.32843
rów	-9.32856
rzu	-9.32913
▁dziś	-9.32965
kcje	-9.33329
▁trzyma	-9.33333
kowe	-9.33364
▁dokładnie	-9.33394
▁chociaż	-9.33498
rób	-9.3353
▁tytuł	-9.33622
▁*	-9.33663
Ł	-9.33722
▁Star	-9.33774
▁kobiety	-9.33814
czer	-9.33866
*	-9.33954
▁stos	-9.33992
jącej	-9.34229
▁innym	-9.3428
lat	-9.34283
szych	-9.34301
▁Więc	-9.34338
▁właściciel	-9.34399
▁klucz	-9.34422
licz	-9.34468
▁trzeba	-9.34505
daj	-9.34507
cych	-9.34512
prowadził	-9.34546
rzęd	-9.34665
arz	-9.34768
się	-9.34798
▁badań	-9.34812
▁pe	-9.34818
▁przyzna	-9.34836
▁ucz	-9.3484
▁USA	-9.34882
▁wartość	-9.34931
bę	-9.35056
▁+	-9.35059
’	-9.35103
lew	-9.35182
▁potem	-9.35194
▁inny	-9.35264
▁różnic	-9.35304
sad	-9.35437
stron	-9.35446
▁wśród	-9.35502
▁produkcji	-9.3568
kła	-9.35713
▁organ	-9.35723
▁funkcji	-9.35744
▁pomaga	-9.35986
▁szcze	-9.36061
mon	-9.36085
▁rodzaju	-9.36099
▁mojego	-9.36101
▁wymieni	-9.36221
▁usta	-9.36251
▁nazywa	-9.36263
▁analiz	-9.36285
▁ścian	-9.36415
▁wypełni	-9.36418
ąt	-9.36458
res	-9.36571
pal	-9.36595
yz	-9.36717
pp	-9.3677
▁region	-9.36895
ER	-9.36907
▁krwi	-9.37348
niejsze	-9.37554
krę	-9.37699
▁Ser	-9.37714
pływ	-9.37782
▁północ	-9.3779
▁lekarz	-9.3787
▁pierwszym	-9.37891
nios	-9.38176
budowa	-9.38328
▁najlepsze	-9.38336
▁win	-9.38458
▁jesteśmy	-9.38485
les	-9.38506
▁miesięcy	-9.38584
czyn	-9.38598
▁szczególnie	-9.3863
▁pomocy	-9.38854
shi	-9.3887
▁stron	-9.3892
▁tworzy	-9.38952
▁postęp	-9.38964
▁ram	-9.39009
ley	-9.39039
ex	-9.39115
▁przyczyn	-9.39125
▁rodzaj	-9.39128
▁grup	-9.39281
zawod	-9.39284
▁dostarcza	-9.39371
est	-9.39372
▁powie	-9.39388
▁Był	-9.39396
▁per	-9.39398
▁występ	-9.39412
▁mm	-9.39417
pis	-9.39425
pat	-9.39533
sji	-9.39548
▁element	-9.39641
▁du	-9.39705
▁pytanie	-9.39749
acyjny	-9.398
▁wspiera	-9.39986
bel	-9.40002
▁pacjentów	-9.40049
tycznych	-9.40083
▁produkty	-9.40092
nęła	-9.40124
bit	-9.40213
▁miesza	-9.40235
moc	-9.40242
nka	-9.40261
▁list	-9.40284
▁nowo	-9.40437
▁dzi	-9.40444
NI	-9.40516
pu	-9.40587
▁znak	-9.40681
tym	-9.4092
▁linii	-9.40943
CZ	-9.41025
▁autor	-9.41036
trakt	-9.41282
▁poprzedni	-9.41313
stwa	-9.41326
▁polega	-9.41331
yl	-9.41331
EN	-9.4134
▁znacz	-9.41351
ON	-9.41352
▁przekaz	-9.41354
wę	-9.41363
▁firma	-9.41421
owaną	-9.41422
▁San	-9.41476
bym	-9.41583
robi	-9.41595
▁Bardzo	-9.41597
log	-9.41626
▁one	-9.41638
▁ca	-9.4164
łych	-9.41662
▁Cię	-9.41702
bezpiecz	-9.41838
▁atak	-9.4186
pres	-9.41864
rzuca	-9.4187
alna	-9.41901
▁większości	-9.41918
cię	-9.42049
▁słucha	-9.42251
▁wielo	-9.4227
cal	-9.42382
▁zrobił	-9.42469
centr	-9.42521
kla	-9.42538
prosi	-9.42573
owanej	-9.42591
▁pojawi	-9.42613
▁wysoki	-9.42673
–	-9.42686
▁Pre	-9.4269
▁drzew	-9.42707
AN	-9.42745
pisać	-9.42759
▁pla	-9.42765
▁ogranicz	-9.42804
▁ostatnich	-9.42863
▁pracowników	-9.42874
▁ru	-9.42878
▁wskaz	-9.42917
▁sprzedaży	-9.42924
aniu	-9.42958
▁dotyczy	-9.43009
try	-9.43017
cznych	-9.43021
czna	-9.43041
▁układ	-9.4305
▁żadnych	-9.43153
wyż	-9.43155
▁problemy	-9.4317
ące	-9.43195
▁język	-9.43198
gor	-9.43199
▁para	-9.4321
▁Twoje	-9.43291
▁Jestem	-9.43305
ill	-9.43315
▁kultur	-9.43325
żywi	-9.43355
yczne	-9.43449
▁scen	-9.43485
unek	-9.43514
▁Bez	-9.43529
▁Ze	-9.43661
▁nowego	-9.43698
▁druk	-9.43864
▁wynika	-9.43917
mog	-9.43922
▁użyciu	-9.44044
▁stronę	-9.44045
▁wysokiej	-9.44075
gl	-9.44141
bry	-9.44182
▁oblicz	-9.44203
prezent	-9.44208
▁odpowiada	-9.4427
defini	-9.44312
▁pobliżu	-9.44373
▁my	-9.44377
▁Har	-9.44494
ebra	-9.44499
▁oczy	-9.44539
▁dyrektor	-9.44713
▁wokół	-9.44724
rzę	-9.44771
Nie	-9.44785
▁problemów	-9.44821
dzić	-9.44874
▁prowadzi	-9.44877
rys	-9.44899
▁obsługi	-9.44942
ale	-9.45018
sło	-9.45135
wor	-9.45226
▁doświadczenie	-9.45243
rad	-9.45329
▁spotka	-9.45347
▁uzyska	-9.45389
skim	-9.45397
▁papier	-9.45402
łożony	-9.45487
▁Fo	-9.45784
▁Ce	-9.45868
▁Każdy	-9.45891
▁szkole	-9.45952
wróci	-9.46072
▁zwłaszcza	-9.46128
AR	-9.46135
▁mini	-9.46222
▁duch	-9.46308
und	-9.46315
▁la	-9.46382
patrz	-9.46408
mier	-9.4646
▁di	-9.46523
▁pocz	-9.46545
tri	-9.4659
nder	-9.46591
▁lecz	-9.46681
owanym	-9.46714
ofer	-9.46755
iczny	-9.46891
rezerw	-9.46937
▁On	-9.46941
▁nazwa	-9.46961
owni	-9.46968
▁wiadomości	-9.46992
▁moich	-9.4702
▁rejestr	-9.47051
▁Ge	-9.47076
▁chciał	-9.4725
ciąż	-9.47254
kró	-9.47337
▁śmierci	-9.47353
▁Hi	-9.47372
▁pokoju	-9.4739
▁państw	-9.47399
ight	-9.47456
ji	-9.47457
pl	-9.47476
▁gaz	-9.47528
ienia	-9.47674
▁nimi	-9.47721
trzyma	-9.47772
arki	-9.4781
▁Jeżeli	-9.47878
▁wysokości	-9.47913
men	-9.47997
sek	-9.48042
▁prom	-9.48191
▁nieco	-9.48214
▁projektu	-9.48231
▁Przed	-9.48258
encja	-9.48287
che	-9.48302
▁klas	-9.48325
klej	-9.48333
mont	-9.48338
▁liczby	-9.48348
▁wspomni	-9.48352
IN	-9.48353
nięcie	-9.48374
▁obejmuje	-9.48436
▁określ	-9.48532
mę	-9.48727
▁ciebie	-9.48732
▁star	-9.4875
▁smak	-9.4881
dal	-9.48828
for	-9.48838
▁inter	-9.48863
ker	-9.48945
ian	-9.48958
▁ustaw	-9.48969
miesz	-9.49082
▁kości	-9.49164
part	-9.49191
▁Praw	-9.49242
▁wideo	-9.49481
▁przedstawia	-9.49519
▁bezpośrednio	-9.49579
▁charakter	-9.49642
siąg	-9.49646
łów	-9.49721
▁anty	-9.49744
▁zło	-9.49768
▁New	-9.4983
▁nią	-9.4986
▁Sto	-9.49894
▁gdyby	-9.49899
▁zatrzyma	-9.49904
▁dokona	-9.49909
owałem	-9.50017
▁niedo	-9.50047
▁pokaz	-9.50127
▁zależności	-9.50135
ący	-9.5018
bec	-9.50229
▁kierunku	-9.50232
ryn	-9.50267
tom	-9.50308
ura	-9.50351
▁władz	-9.50462
▁dziecko	-9.50506
▁chcą	-9.50519
▁Kar	-9.50522
tych	-9.50546
▁cho	-9.50691
ans	-9.50716
▁końca	-9.5073
let	-9.50764
cisk	-9.50772
realiz	-9.50869
▁widok	-9.50892
▁pewno	-9.50952
▁ciekaw	-9.50991
ający	-9.51014
▁mocy	-9.51058
alnego	-9.51078
tyka	-9.51085
przy	-9.51102
▁zdrowia	-9.51201
▁itp	-9.51261
sion	-9.51322
▁producent	-9.514
▁partner	-9.51442
▁Pla	-9.5148
▁znalazł	-9.51481
▁umożliwia	-9.51595
▁szy	-9.51611
▁Ciebie	-9.51613
▁km	-9.51651
MA	-9.51661
▁zostaną	-9.51671
▁jedna	-9.51715
ten	-9.51737
▁online	-9.51746
spo	-9.51838
spokoj	-9.51844
▁momencie	-9.51889
▁jaką	-9.51992
las	-9.51992
and	-9.52019
kowy	-9.5202
▁pytania	-9.52059
▁głównie	-9.52105
▁częścią	-9.52173
▁Ry	-9.52221
▁Wal	-9.52294
acyjne	-9.52328
▁rodzin	-9.52331
▁coraz	-9.52334
▁sytuacji	-9.5245
zja	-9.52478
śle	-9.52484
▁takiego	-9.52504
▁będę	-9.52506
▁Hu	-9.5251
NE	-9.52614
▁stylu	-9.527
inform	-9.52811
olog	-9.52872
▁zapewnić	-9.52976
pak	-9.53002
▁mikro	-9.53013
▁natychmiast	-9.53057
RO	-9.53105
kcję	-9.53138
ap	-9.53148
▁raport	-9.5315
▁powinny	-9.53181
▁powinna	-9.53342
cki	-9.53365
bil	-9.53496
pod	-9.53531
▁skór	-9.53652
▁zespół	-9.53657
▁towar	-9.5375
▁kanał	-9.53797
▁mor	-9.54012
stawia	-9.54035
▁monitor	-9.54164
▁ile	-9.54199
▁ogląda	-9.54255
czki	-9.54256
figur	-9.54309
▁róż	-9.54311
▁pierwszej	-9.54375
▁szczegół	-9.54425
▁stanu	-9.54428
alną	-9.54476
form	-9.54516
▁Google	-9.54556
laz	-9.54738
twar	-9.54753
nięty	-9.54801
▁dobra	-9.54832
▁obejmują	-9.54845
łod	-9.54847
encji	-9.54908
▁cztery	-9.54946
oper	-9.55006
▁zamiast	-9.55007
▁Można	-9.55087
ary	-9.55105
▁pełne	-9.5511
To	-9.55118
▁znaczenie	-9.55122
▁trzeci	-9.55125
▁kredyt	-9.55137
▁metal	-9.55166
▁kształt	-9.55181
ez	-9.55239
▁obszar	-9.55285
▁klienta	-9.55319
▁port	-9.55389
czony	-9.55431
▁nauczyciel	-9.55482
▁bio	-9.55489
rek	-9.5549
▁uruchomi	-9.55493
▁Bra	-9.55556
▁dotyczących	-9.55563
▁powsta	-9.55581
wid	-9.55602
▁porównaniu	-9.55656
▁osoba	-9.5572
tury	-9.55738
gle	-9.55783
▁mieli	-9.55799
▁chcę	-9.55807
▁samego	-9.55839
▁kolejny	-9.55847
puści	-9.5585
▁kuchni	-9.55871
▁potrzeby	-9.55879
▁ak	-9.55884
▁przyjaciel	-9.55885
▁chwili	-9.55903
▁Myślę	-9.55993
płat	-9.56044
▁moja	-9.56057
int	-9.56081
▁Ku	-9.56092
^	-9.56187
▁szkoły	-9.56249
▁służy	-9.56326
ust	-9.56352
▁Kom	-9.56371
▁ds	-9.56381
ownik	-9.56488
▁dodatkowe	-9.5649
▁Gu	-9.56537
oty	-9.56617
▁użytkownika	-9.56665
set	-9.56667
śwież	-9.56702
▁skóry	-9.56841
▁chroni	-9.56893
▁warstw	-9.57028
▁odpowiednie	-9.57032
mieni	-9.57046
▁człowieka	-9.57199
nieść	-9.57215
▁amerykański	-9.57369
▁An	-9.57479
tr	-9.57557
wraca	-9.57594
czny	-9.5772
▁jednocześnie	-9.57868
+	-9.57906
▁zwrot	-9.57908
ani	-9.57955
IE	-9.57964
każ	-9.57984
dza	-9.58016
▁kurs	-9.58036
▁tygodniu	-9.58055
▁zabezpiecz	-9.58058
alnej	-9.58111
byś	-9.58211
▁ster	-9.58215
▁sy	-9.58323
▁klimat	-9.58331
▁lepsze	-9.58358
▁ona	-9.5851
oz	-9.58551
▁daje	-9.58607
▁Zna	-9.58619
▁Dlaczego	-9.58627
▁kwiat	-9.58674
▁trafi	-9.58683
słuch	-9.58701
▁Ad	-9.58723
°	-9.58836
▁wygląd	-9.5886
ących	-9.58901
rus	-9.58906
▁godziny	-9.58909
ński	-9.58923
▁rolę	-9.58992
▁sza	-9.59044
▁&	-9.59079
rog	-9.59094
aktual	-9.59095
nij	-9.59155
▁War	-9.59224
tyczny	-9.59268
................	-9.59319
owało	-9.59358
▁internet	-9.59412
cznego	-9.59421
▁św	-9.59548
cenia	-9.59558
▁istnieją	-9.59577
sp	-9.59634
śnie	-9.5967
▁ran	-9.59713
wiązani	-9.59742
▁pieniędzy	-9.59778
wers	-9.59796
▁pięć	-9.59863
▁zakończ	-9.59891
▁tyle	-9.59892
▁ryb	-9.59905
kazał	-9.59965
▁kul	-9.59972
▁gości	-9.60198
IA	-9.60207
▁II	-9.60296
tera	-9.60367
rr	-9.60479
▁unika	-9.60574
▁pieniądze	-9.60598
▁długi	-9.60635
▁skład	-9.60665
▁zespołu	-9.6076
▁ujawni	-9.60766
łożyć	-9.60798
▁robić	-9.60824
▁por	-9.60855
▁przemysł	-9.60898
▁stwierdz	-9.60952
▁całej	-9.60952
trój	-9.60999
▁Tra	-9.61017
▁przekona	-9.61056
yjne	-9.61072
▁rower	-9.61085
▁ruchu	-9.61161
NA	-9.61176
tyl	-9.61219
yli	-9.61228
▁gwiazd	-9.61347
▁wybrać	-9.61387
▁silnik	-9.61399
▁stał	-9.61412
▁super	-9.61453
gę	-9.61462
godne	-9.61466
▁ostatni	-9.61486
▁Twój	-9.61511
▁gro	-9.61678
plik	-9.61754
▁pewnością	-9.61798
▁wskaźnik	-9.6181
▁mogła	-9.61831
▁lot	-9.61953
▁pamięci	-9.61974
▁król	-9.62014
LA	-9.62023
twie	-9.6214
▁zmienić	-9.62184
tworzenie	-9.62186
▁Cho	-9.62231
▁produktu	-9.62299
czni	-9.62323
▁przestrzeni	-9.62393
▁sens	-9.62403
wit	-9.62419
▁El	-9.62508
▁powinno	-9.62514
kcji	-9.62535
▁wyświetla	-9.62569
▁c	-9.62585
▁kontroli	-9.62665
▁oczywiście	-9.62684
rp	-9.62707
bar	-9.62793
czyć	-9.6286
unt	-9.629
▁sur	-9.62938
▁tryb	-9.62984
▁drogi	-9.63001
▁rozszerz	-9.63025
godny	-9.63107
▁zobacz	-9.63137
▁hotel	-9.63181
▁takim	-9.63187
ik	-9.63222
lna	-9.63222
przewod	-9.63235
▁warunki	-9.6324
▁chyba	-9.63253
wą	-9.63254
".	-9.63276
bud	-9.63362
pełni	-9.63392
▁podoba	-9.63395
US	-9.63554
▁serca	-9.63592
▁he	-9.63609
▁zatrudni	-9.63638
▁różni	-9.63736
▁wykonywa	-9.63757
niejszy	-9.63822
rodzi	-9.63859
▁lokal	-9.63901
 	-9.63988
tnie	-9.64018
▁okresie	-9.64101
▁procedur	-9.64125
pada	-9.64231
SA	-9.64235
kłada	-9.64249
▁wiedział	-9.64261
▁dzisiaj	-9.64317
▁kur	-9.64328
▁Stan	-9.64395
▁muzyk	-9.64403
▁bar	-9.64529
▁blok	-9.6468
lek	-9.64688
▁liczba	-9.64705
▁Według	-9.64811
▁jedzenie	-9.64839
PA	-9.64886
▁przepływ	-9.64899
▁pole	-9.64904
▁zmieni	-9.64931
▁organizacji	-9.64951
ień	-9.64967
▁technik	-9.64992
▁niej	-9.65054
▁kr	-9.65102
AT	-9.65155
▁sprawę	-9.65234
dłuż	-9.65304
instal	-9.65313
▁ochrony	-9.65399
kret	-9.65415
zę	-9.65415
▁chłop	-9.65466
ros	-9.65498
dzien	-9.65539
mieści	-9.65553
▁pozostał	-9.65557
liwe	-9.65582
zdrow	-9.65632
▁korzyści	-9.65639
wki	-9.65657
ele	-9.65753
▁najlepszych	-9.65762
▁pomiędzy	-9.65789
▁poziomu	-9.65873
▁pił	-9.65985
▁zosta	-9.65998
▁be	-9.66069
anych	-9.66084
▁powyżej	-9.66098
nicz	-9.66105
dar	-9.6611
trzymuj	-9.66193
nią	-9.6622
tal	-9.66303
▁sub	-9.66348
▁czar	-9.66354
▁twoje	-9.66371
jon	-9.66442
▁zdjęcie	-9.66464
▁jakość	-9.66477
▁dużej	-9.66608
gn	-9.66617
acyjnych	-9.66642
▁Or	-9.6669
OS	-9.66691
▁wyzna	-9.66749
łożył	-9.66807
▁ilość	-9.66808
śmy	-9.66816
nięcia	-9.66822
ędz	-9.66834
▁wystąpi	-9.66847
ium	-9.66859
lep	-9.66874
kowych	-9.66905
▁zwiększa	-9.66907
TA	-9.6691
▁większy	-9.66916
▁bada	-9.66926
gad	-9.67043
▁Op	-9.67055
rd	-9.67077
▁x	-9.67089
▁mil	-9.67092
].	-9.67194
▁Ży	-9.67232
▁:)	-9.67252
owaniem	-9.67273
▁sąd	-9.67274
▁mówiąc	-9.67306
ah	-9.67335
pul	-9.6741
▁al	-9.67437
▁wybór	-9.67508
▁duży	-9.67532
▁Park	-9.67566
amy	-9.67649
▁dziecka	-9.67739
▁uwzględni	-9.67904
▁zarządzania	-9.67908
dze	-9.6799
Q	-9.68031
▁Nawet	-9.68079
regul	-9.68081
bija	-9.68086
pisz	-9.68199
icznej	-9.68209
pt	-9.68217
▁pojawił	-9.68262
▁Ros	-9.68281
▁technologii	-9.68316
ora	-9.68318
oni	-9.68347
▁twarz	-9.68355
tyczna	-9.68405
▁nocy	-9.68421
▁zapis	-9.68469
pocz	-9.68643
▁Zjednoczonych	-9.68754
▁tro	-9.68756
dent	-9.68791
gre	-9.68822
droż	-9.6884
▁motyw	-9.6888
▁powo	-9.689
▁Sam	-9.68903
▁zależy	-9.68909
▁owoc	-9.6891
fin	-9.68936
kwa	-9.69013
rocz	-9.69051
▁serwer	-9.69113
not	-9.69148
▁platform	-9.69176
owały	-9.69182
plan	-9.69185
mal	-9.69292
cer	-9.69324
▁rozmawia	-9.69353
wiadom	-9.69369
bl	-9.69418
▁Q	-9.69454
▁h	-9.69454
▁imprez	-9.69463
▁art	-9.69514
LE	-9.69537
ep	-9.69559
art	-9.69578
▁pierwszego	-9.69579
lit	-9.69613
▁pozycji	-9.69752
ide	-9.69779
PS	-9.69795
stu	-9.69813
▁lud	-9.69823
▁Ż	-9.69846
kreśl	-9.69874
noś	-9.69879
▁Większość	-9.69887
zona	-9.69937
reszt	-9.69995
▁pomiar	-9.69997
▁sygnał	-9.7
rzenia	-9.70026
trz	-9.70138
▁względem	-9.70359
▁cud	-9.704
▁stało	-9.70462
▁>	-9.70464
▁głowy	-9.70479
▁broni	-9.7048
RE	-9.70553
▁szpital	-9.70588
▁równo	-9.7066
przed	-9.70727
dro	-9.70762
▁tygodni	-9.70794
izacji	-9.70807
▁Pu	-9.70813
▁Należy	-9.70817
stanowi	-9.70834
dania	-9.70852
lega	-9.70897
▁Ła	-9.70954
▁Jako	-9.70976
▁zdjęć	-9.71099
vo	-9.71208
▁post	-9.71213
▁mecz	-9.71215
▁uderz	-9.71252
▁kiedykolwiek	-9.71289
dol	-9.71361
▁śmie	-9.71374
byśmy	-9.71436
▁norm	-9.71441
▁Jakie	-9.71448
▁zdob	-9.71515
▁związanych	-9.71524
▁większe	-9.71584
fl	-9.71603
cen	-9.71616
bieg	-9.71642
▁proste	-9.71653
▁wykorzysta	-9.71737
▁dużą	-9.71737
bin	-9.7176
▁najlepiej	-9.71763
szczenia	-9.71791
▁NA	-9.71831
▁pis	-9.71897
▁dniu	-9.71939
kul	-9.71944
▁przyszłości	-9.72024
strateg	-9.72058
tni	-9.72062
▁doświadczenia	-9.72099
=	-9.72104
▁brzmi	-9.72118
▁menu	-9.72123
ograf	-9.72142
ycznych	-9.72155
wierz	-9.72205
równa	-9.72237
▁Oczywiście	-9.72312
cyt	-9.72332
rzą	-9.7234
▁kra	-9.72344
▁spad	-9.72389
▁opłat	-9.72432
pożycz	-9.72448
▁materiał	-9.72506
DA	-9.72512
▁gen	-9.72558
▁Boga	-9.72574
LI	-9.72577
ochron	-9.72623
▁praca	-9.72645
▁procesu	-9.72658
▁staw	-9.72703
atora	-9.72705
▁praktyk	-9.72746
inspir	-9.72751
▁jakim	-9.72772
łóż	-9.7281
▁wynik	-9.72902
▁#	-9.72941
end	-9.72959
▁całą	-9.72961
▁szczęście	-9.72965
▁ceny	-9.73009
▁ofiar	-9.73016
Na	-9.73055
▁wyłącznie	-9.73101
▁światła	-9.73111
▁profesjonal	-9.73117
▁strona	-9.73397
sti	-9.73417
▁zaczął	-9.73452
▁pojawia	-9.73551
▁wyboru	-9.73559
tworzy	-9.73572
▁Sha	-9.73629
▁staje	-9.73641
▁człowiek	-9.73726
tru	-9.73739
▁Ke	-9.73755
▁kolejne	-9.73796
▁leczenia	-9.73884
szer	-9.73924
▁tor	-9.74062
ywać	-9.74149
▁fan	-9.74157
AM	-9.74158
pozyc	-9.74169
▁ważny	-9.74176
ct	-9.74224
zwyczaj	-9.74281
MI	-9.74295
yczny	-9.74338
owości	-9.74361
▁pozwoli	-9.74414
▁szyb	-9.74441
trwa	-9.74533
ation	-9.74553
▁sa	-9.74617
▁wybiera	-9.74633
▁moją	-9.7465
▁wyłącz	-9.7475
▁uśmiech	-9.74805
▁ust	-9.74819
szenia	-9.7497
▁sztuk	-9.75044
▁n	-9.75049
AL	-9.7506
▁System	-9.75073
▁<	-9.75109
ienie	-9.75124
tyn	-9.75167
rzut	-9.75222
Ż	-9.75227
▁Niektóre	-9.7528
▁treści	-9.75295
liwy	-9.75301
▁robot	-9.7532
strzeż	-9.75327
▁chłod	-9.75341
serwo	-9.75345
han	-9.75358
▁Fe	-9.75425
▁członków	-9.75445
łożone	-9.75456
▁wiesz	-9.75465
▁profil	-9.75554
▁drodze	-9.75577
▁Wiele	-9.75612
lor	-9.75635
ciel	-9.75647
▁angielski	-9.75695
▁pamięta	-9.75745
łap	-9.75815
spania	-9.75824
czone	-9.75846
▁siły	-9.75923
▁wojsk	-9.75936
dziesiąt	-9.75987
▁jedynie	-9.75996
AC	-9.76013
▁zysk	-9.76081
▁np	-9.76106
ksy	-9.76107
▁Windows	-9.76112
▁Per	-9.76128
▁ból	-9.76142
con	-9.76179
rozumie	-9.76206
gie	-9.76207
▁byłem	-9.7621
SZ	-9.76267
▁zewnątrz	-9.76279
stąpi	-9.76283
▁wszelkie	-9.76286
▁urządzenie	-9.76384
towarzysz	-9.76398
▁oceny	-9.7643
▁sił	-9.76447
▁Wszystko	-9.76482
▁and	-9.76515
▁Th	-9.76583
▁parametr	-9.76635
▁rozwiązanie	-9.76642
▁potrafi	-9.76678
słow	-9.76683
▁Tu	-9.76691
▁wystarczająco	-9.76713
▁milion	-9.76732
▁komentarz	-9.76783
▁zarządza	-9.76824
▁wersji	-9.76849
▁miały	-9.76959
▁pozostawi	-9.76972
IS	-9.76996
OR	-9.77048
▁ogni	-9.7705
▁Ti	-9.77086
▁przeczyta	-9.77102
▁trening	-9.77219
sia	-9.77228
ili	-9.77243
▁choć	-9.77249
▁Oto	-9.77303
święt	-9.7731
▁celów	-9.77385
▁dys	-9.77398
▁Mówi	-9.77409
▁dzieje	-9.77409
▁czasami	-9.7741
dawać	-9.77455
▁określa	-9.77463
▁Jezus	-9.77467
▁fotograf	-9.77532
har	-9.77571
▁klub	-9.77672
▁piersi	-9.77672
▁zakład	-9.77702
▁mal	-9.77745
niż	-9.77766
▁Gi	-9.77779
▁wyniku	-9.77826
▁podróży	-9.77873
▁personel	-9.7794
▁znany	-9.77945
▁byłoby	-9.77949
▁zde	-9.77964
▁wobec	-9.78034
sil	-9.78082
▁Franc	-9.7809
▁ukończ	-9.78125
▁media	-9.78131
▁właściwości	-9.78232
▁Zobacz	-9.78238
▁naszą	-9.78246
sił	-9.78248
icznego	-9.78259
▁wpływa	-9.78296
▁Jej	-9.78307
▁Tylko	-9.78402
szego	-9.78413
Ą	-9.78431
▁komunik	-9.7845
izm	-9.78533
▁rozwiązania	-9.786
▁Dy	-9.78617
▁celem	-9.78634
▁Kol	-9.78662
▁Przez	-9.7868
▁rozwi	-9.78702
▁Chin	-9.78738
▁całego	-9.78751
▁szko	-9.78847
▁dziewczyn	-9.78864
▁prosty	-9.7891
▁ciąg	-9.78913
▁obok	-9.79007
ówki	-9.79009
▁rozważ	-9.79024
▁tle	-9.7903
óz	-9.79057
▁użyć	-9.79109
▁rozwój	-9.79131
q	-9.79176
▁mieście	-9.79324
rat	-9.79377
▁Ex	-9.79421
▁pewien	-9.79427
lik	-9.7947
▁obie	-9.79497
▁dostosowa	-9.79535
▁sekund	-9.79543
▁materiałów	-9.79546
alnym	-9.79581
MS	-9.79656
▁otrzymał	-9.79688
nn	-9.79707
▁obniż	-9.79711
wiesz	-9.79719
▁mięśni	-9.79766
bawi	-9.79785
▁sezon	-9.7981
▁nowej	-9.79835
▁warto	-9.79852
▁środków	-9.79883
aty	-9.79905
▁gracz	-9.7994
głęb	-9.79967
nosząc	-9.79987
▁filtr	-9.80017
▁myślę	-9.80042
▁góry	-9.80043
wrot	-9.80044
▁stały	-9.80066
▁istot	-9.80081
▁Mor	-9.80088
▁wzrostu	-9.80104
▁serii	-9.80122
▁uwagi	-9.8013
▁blisko	-9.8018
▁miłości	-9.80194
▁drugi	-9.80201
prowadzeni	-9.80423
▁wypad	-9.80439
▁podobne	-9.80489
▁Hotel	-9.8053
wyk	-9.80541
▁jakiś	-9.80554
pó	-9.80587
ine	-9.80642
▁Con	-9.80651
czka	-9.80718
rejestr	-9.80787
stro	-9.80864
▁odbywa	-9.80885
▁kim	-9.80888
▁nasz	-9.80901
▁uczestni	-9.80903
▁cykl	-9.80925
▁olej	-9.80951
rą	-9.80962
▁działanie	-9.81051
▁rozpozna	-9.81061
korzys	-9.81061
▁pochodzi	-9.81087
▁Chi	-9.81161
iona	-9.81237
▁Bro	-9.81294
CA	-9.81326
▁pr	-9.81339
▁uszkodz	-9.81347
▁myśl	-9.81532
lną	-9.81535
tak	-9.81566
cyjna	-9.81573
czyni	-9.81609
cyjną	-9.81723
dyn	-9.81818
▁ryzyko	-9.81877
▁zatem	-9.81883
▁miałem	-9.81955
▁nową	-9.81999
▁problemu	-9.82018
▁Bóg	-9.8205
▁Man	-9.82146
▁wymiar	-9.82273
▁użytkowników	-9.82311
szczę	-9.82332
cyjny	-9.82361
two	-9.82396
age	-9.82533
▁spodziewa	-9.82562
▁środki	-9.82591
▁pewne	-9.8264
www	-9.82647
żu	-9.8265
▁zapyta	-9.82698
▁powietrza	-9.82713
tle	-9.82732
wiad	-9.82776
▁elementy	-9.82804
łączony	-9.82849
▁milionów	-9.82923
▁aktor	-9.82972
▁książki	-9.82989
▁wiedzieć	-9.83072
▁płac	-9.83132
▁podobny	-9.83162
NY	-9.83193
stroj	-9.83197
▁“	-9.83206
lnych	-9.83208
▁podziel	-9.83294
TO	-9.83326
iczna	-9.8336
▁liczbę	-9.83364
tego	-9.83398
▁Cha	-9.83439
rab	-9.83446
▁pokazuje	-9.83469
▁wprowadza	-9.8349
cami	-9.83494
▁prędkości	-9.83498
▁tras	-9.83578
▁twierdzi	-9.83583
ero	-9.83614
▁akcji	-9.83624
wodni	-9.83624
▁społeczne	-9.83641
▁blog	-9.83658
ologii	-9.83671
▁zapewni	-9.83749
▁cm	-9.83758
▁darmo	-9.83779
▁panel	-9.83821
▁całe	-9.83828
cej	-9.83842
▁wstęp	-9.83928
▁wywoła	-9.83938
owaliśmy	-9.8395
▁stóp	-9.84009
▁czterech	-9.84047
zenie	-9.84109
▁Powiedział	-9.84165
▁połączenie	-9.84166
▁krótki	-9.84218
▁cech	-9.84237
▁udało	-9.8425
▁wielkości	-9.84281
pisane	-9.84284
▁wizyt	-9.84311
▁En	-9.84346
ymi	-9.84396
Ma	-9.845
▁powrotem	-9.84502
owców	-9.84511
CE	-9.84519
▁miało	-9.84525
▁czasem	-9.84534
dzą	-9.84564
▁wygra	-9.84594
icznie	-9.84689
mery	-9.84733
wan	-9.8474
len	-9.84758
▁umysł	-9.84774
fil	-9.84811
▁informa	-9.84827
żyw	-9.84858
▁otocz	-9.84864
▁czegoś	-9.84924
▁przypomina	-9.84933
śmie	-9.84954
▁trudne	-9.84968
▁przyjaciół	-9.85038
▁czyli	-9.85061
die	-9.851
▁spełni	-9.85113
▁przynajmniej	-9.85139
▁uczniów	-9.85141
czes	-9.85159
▁Kor	-9.85159
nictwa	-9.85202
▁teren	-9.85216
▁inni	-9.85225
IP	-9.85244
▁same	-9.85309
▁zniszcz	-9.85362
chodzą	-9.85362
▁spowodowa	-9.85364
▁własne	-9.85365
▁służb	-9.85365
sol	-9.85422
▁nikt	-9.8544
hu	-9.85454
▁serwis	-9.85479
trze	-9.85542
▁podobnie	-9.85557
▁Wil	-9.85571
▁biorąc	-9.85578
▁szt	-9.85622
▁kopi	-9.8563
▁Istnieje	-9.85643
tura	-9.8568
rażenia	-9.85777
▁prawda	-9.85832
twa	-9.85916
ls	-9.85946
▁Im	-9.85989
▁Kto	-9.86
top	-9.86002
▁urządzeń	-9.8602
ES	-9.86035
▁rys	-9.86044
▁piękny	-9.86059
▁hotelu	-9.86059
▁punktów	-9.86067
▁sprawy	-9.86079
KA	-9.86134
▁Wszyscy	-9.86143
▁rat	-9.86167
▁działań	-9.8617
zon	-9.86176
her	-9.86286
nny	-9.86311
stry	-9.8632
▁jakby	-9.86384
▁ekran	-9.86396
▁porusza	-9.86411
▁komórek	-9.86418
rywa	-9.86462
pet	-9.86471
ven	-9.86596
▁ciast	-9.86654
▁branży	-9.86664
▁kole	-9.86671
▁kwas	-9.86691
▁magazyn	-9.86722
ndy	-9.86738
row	-9.8675
▁elementów	-9.86795
owani	-9.86872
▁twarzy	-9.86885
kup	-9.86948
▁wybierz	-9.87037
arka	-9.87091
▁prawdziwe	-9.87151
▁porządku	-9.87189
▁elektro	-9.87231
dio	-9.87268
▁dysku	-9.87303
▁ofert	-9.87379
▁zmarł	-9.87394
▁zagra	-9.87409
▁postrzega	-9.87438
nością	-9.87454
▁Ber	-9.87463
▁zbada	-9.87466
burg	-9.8748
▁obywatel	-9.87523
▁stref	-9.87568
pust	-9.87595
▁szans	-9.87619
AS	-9.87628
▁Nic	-9.8765
iny	-9.87684
▁decyzji	-9.87711
▁ju	-9.8772
▁the	-9.87728
▁grupa	-9.8775
▁baz	-9.87768
▁wojny	-9.878
grzewa	-9.87831
▁usuwa	-9.87835
czas	-9.8788
▁Będzie	-9.87934
▁nosi	-9.87955
▁Miał	-9.87959
▁trudno	-9.8799
zyski	-9.88008
▁działalności	-9.88014
▁Nigdy	-9.88048
▁głównym	-9.88084
niósł	-9.88126
ogrod	-9.88136
rium	-9.88161
▁fu	-9.88184
▁rozumie	-9.88259
cep	-9.88372
▁punktu	-9.8838
eks	-9.88426
▁zeszłym	-9.88433
▁choroby	-9.88465
▁przypadkach	-9.88551
fon	-9.88586
▁PO	-9.88613
ologiczne	-9.88619
▁dysk	-9.88679
▁opieki	-9.8873
▁prawdziwy	-9.88758
all	-9.88759
▁nowym	-9.88764
);	-9.88772
iczną	-9.88773
▁niski	-9.88776
▁sektor	-9.88793
▁sprawdzić	-9.88817
▁ciało	-9.88828
▁taka	-9.88836
▁wiedzy	-9.88869
ban	-9.88873
▁sztucz	-9.88879
mienia	-9.88883
▁używać	-9.88896
wnie	-9.88929
Ŝ	-9.88947
▁czuł	-9.88958
▁|	-9.88962
star	-9.89021
▁Med	-9.89074
▁sprawdza	-9.8915
▁modelu	-9.89171
▁zobowiąza	-9.89177
cznym	-9.89184
▁pani	-9.8919
▁następujące	-9.89211
▁odpowiednio	-9.8922
▁używany	-9.89265
▁długości	-9.89298
▁karty	-9.89306
▁włosów	-9.8937
▁siedzi	-9.89389
wana	-9.89424
▁Mc	-9.89459
bierz	-9.89467
lf	-9.8949
sor	-9.89558
▁bla	-9.89567
▁wysyła	-9.89571
▁spacer	-9.89664
▁metody	-9.89694
▁et	-9.89716
tory	-9.89724
▁kamer	-9.8977
▁twój	-9.89791
▁uczy	-9.89807
▁czemu	-9.89811
▁powiedz	-9.89825
▁samej	-9.89905
łożenie	-9.89945
▁historię	-9.90014
▁bram	-9.90034
▁środowiska	-9.9005
krop	-9.90065
▁raczej	-9.90065
▁używane	-9.90073
kocha	-9.90103
szej	-9.9011
▁narzędzi	-9.90159
▁My	-9.90162
▁określone	-9.90171
rzenie	-9.90211
tyki	-9.90319
jaw	-9.90373
atu	-9.90393
nikiem	-9.90399
▁Gre	-9.90434
▁będziemy	-9.90436
▁kupić	-9.90454
nienie	-9.90487
▁wspaniały	-9.90489
▁szereg	-9.90504
▁obiekt	-9.90508
kładzie	-9.90542
▁Mat	-9.90591
fu	-9.90603
▁wyników	-9.90615
▁sama	-9.90671
ult	-9.90682
brzeż	-9.90718
▁perspektyw	-9.90729
▁zwierząt	-9.90777
óg	-9.90781
stki	-9.90794
▁białe	-9.90799
▁miasto	-9.90829
tyczną	-9.9087
▁kontynuowa	-9.9089
▁Niestety	-9.90915
▁współpracy	-9.90963
low	-9.91021
▁cierpi	-9.91057
trakcyjn	-9.91064
orient	-9.91081
ywania	-9.91084
▁wytwarza	-9.911
▁tą	-9.91113
▁Kra	-9.91152
▁ar	-9.91161
red	-9.91286
▁światło	-9.91292
ort	-9.91299
wych	-9.91299
▁pakiet	-9.91381
▁zupełnie	-9.91457
▁Spo	-9.91466
▁zachowa	-9.91487
▁kosztów	-9.91526
▁seria	-9.9154
tęż	-9.9157
▁badanie	-9.91601
kowi	-9.91675
▁UE	-9.91692
▁sprzęt	-9.91692
▁symbol	-9.91693
▁Czas	-9.91768
rand	-9.91788
pla	-9.91852
▁wyścig	-9.91866
▁liście	-9.91885
▁pracownik	-9.91947
▁otwiera	-9.91987
▁specjal	-9.92026
▁liter	-9.92042
▁miast	-9.92094
dem	-9.92104
▁użytkownik	-9.92115
▁całkiem	-9.92125
▁nr	-9.92135
▁pokój	-9.92257
▁wyraźnie	-9.9226
▁kobieta	-9.92269
▁opowiada	-9.92295
niczego	-9.92315
▁odpowiedź	-9.92371
▁wysp	-9.92392
scy	-9.92418
tch	-9.92476
▁osiągnąć	-9.92477
zone	-9.92512
żyt	-9.9256
znaj	-9.92579
▁polityk	-9.92614
▁Twojej	-9.92632
▁skupi	-9.92641
dostarcz	-9.92701
jechał	-9.92744
enci	-9.92764
czej	-9.92785
▁v	-9.92814
▁skon	-9.92815
płaci	-9.92846
cka	-9.92894
▁int	-9.92937
ris	-9.92951
▁Zawsze	-9.92972
chwyt	-9.92992
▁inaczej	-9.9305
▁małych	-9.93055
ląd	-9.93061
▁Internet	-9.93084
tycznego	-9.93101
▁kontrolowa	-9.93124
▁pośrednictwem	-9.93219
kość	-9.93264
▁muszę	-9.93272
▁link	-9.9328
ery	-9.93315
▁filmu	-9.93366
ore	-9.93383
▁lepszy	-9.93465
▁zaangażowani	-9.93483
▁dostępny	-9.93485
gła	-9.93504
▁Sch	-9.93515
▁dobrym	-9.9353
ywanie	-9.93541
▁aspekt	-9.9355
▁kogoś	-9.93569
»	-9.93624
mit	-9.93707
EM	-9.93736
szczęśliw	-9.93743
▁zaledwie	-9.93749
▁zapobiega	-9.93757
▁Podobnie	-9.93774
▁wytrzyma	-9.93808
sum	-9.93844
▁kont	-9.93852
▁czarny	-9.93857
ern	-9.93893
szczy	-9.93906
strzel	-9.93919
nięte	-9.9392
nica	-9.93922
▁sztuki	-9.93923
gin	-9.9394
▁połączenia	-9.93987
gó	-9.94073
wrócił	-9.94099
prac	-9.9414
▁samochód	-9.94157
ther	-9.94178
▁drużyn	-9.94184
lip	-9.94195
poko	-9.94253
▁sprzedaż	-9.94269
▁pełny	-9.94293
luz	-9.94299
▁rur	-9.94313
▁podejście	-9.94316
▁Warto	-9.94397
▁znajd	-9.94418
▁porówna	-9.94458
trud	-9.94499
wców	-9.94529
▁pra	-9.94549
▁By	-9.9458
łączenie	-9.94632
▁listy	-9.94644
UR	-9.94688
AD	-9.94715
kręt	-9.94717
▁Boże	-9.94746
suwa	-9.9481
łoby	-9.94853
▁łatwe	-9.94936
kowej	-9.9497
magne	-9.94985
▁jazdy	-9.9502
▁gar	-9.95042
▁dziw	-9.95056
é	-9.95062
▁prezydent	-9.95077
▁maja	-9.95193
▁Nor	-9.95218
niczych	-9.95262
▁Ste	-9.95271
kryty	-9.95291
łaściw	-9.95351
▁uzupełni	-9.95357
▁opcji	-9.95423
▁wkrótce	-9.95476
dług	-9.955
pan	-9.95502
tycznie	-9.95536
▁stop	-9.95586
▁musimy	-9.95587
SP	-9.95694
▁Świat	-9.9575
OD	-9.95799
▁auto	-9.95845
▁trakcie	-9.95849
▁Program	-9.95853
▁temperatury	-9.95872
gli	-9.95887
▁narzędzia	-9.95945
ica	-9.95969
▁mały	-9.95989
▁zasady	-9.96021
▁wkład	-9.96048
▁piękne	-9.96062
▁historia	-9.96069
▁błąd	-9.96086
▁wierzy	-9.96121
▁kiedyś	-9.96202
▁Ostatni	-9.96217
▁języka	-9.96256
▁dostępu	-9.96263
▁cele	-9.96276
szczep	-9.96309
▁wyraz	-9.96343
▁wielkie	-9.96359
pen	-9.96367
▁wnętrz	-9.96414
▁złe	-9.96435
III	-9.96437
wolni	-9.96503
▁nieruchomości	-9.96556
▁wiz	-9.96585
▁opiek	-9.96672
Fi	-9.96709
▁jakieś	-9.96738
leci	-9.96779
▁niezwykle	-9.96795
▁następny	-9.96819
▁central	-9.96849
ryw	-9.96863
▁park	-9.96947
▁wewnętrzne	-9.96962
▁pola	-9.96985
źni	-9.97056
▁pobiera	-9.97099
▁Cu	-9.97107
▁kategorii	-9.97138
wnętrz	-9.97148
▁skal	-9.97154
stą	-9.97207
▁Obraz	-9.97246
://	-9.97262
@	-9.97293
▁prąd	-9.97315
▁sytuacja	-9.97353
▁napisał	-9.97392
▁log	-9.97399
Ś	-9.9742
▁pozostaje	-9.9748
▁tworzenia	-9.97495
▁wsparcie	-9.97543
kłó	-9.97545
niczy	-9.97548
szac	-9.97552
▁żąda	-9.97555
▁oprogramowania	-9.97638
lem	-9.97641
▁wyższy	-9.97648
▁gru	-9.97692
▁wzmocni	-9.97699
ującym	-9.97705
▁alternatyw	-9.97707
▁znaczy	-9.97709
▁systemów	-9.97745
logi	-9.97746
▁samochodu	-9.97855
ekcja	-9.9791
padł	-9.97946
▁wsp	-9.98029
błęd	-9.98058
▁zastosowanie	-9.98081
óż	-9.98083
▁etap	-9.98107
ług	-9.98115
CI	-9.98127
zki	-9.98187
niesienia	-9.98202
gospodar	-9.98217
▁paliw	-9.98228
więk	-9.98261
▁utrzyma	-9.98269
▁większą	-9.98332
▁dodać	-9.98351
▁szybkie	-9.98371
▁ras	-9.98497
cznej	-9.98518
owość	-9.98534
▁gotowa	-9.98584
▁Wielkiej	-9.98701
▁Obecnie	-9.98733
tycznej	-9.98818
▁mg	-9.98848
wen	-9.98865
▁konserw	-9.98974
mysł	-9.9901
▁wewnątrz	-9.99074
▁konieczne	-9.9915
▁dopiero	-9.99166
▁okaz	-9.99183
van	-9.99189
▁pokona	-9.99253
sma	-9.99272
▁Ameryka	-9.99302
▁stary	-9.99372
▁plików	-9.99387
eta	-9.99397
▁czyni	-9.9942
IT	-9.99424
ariusz	-9.99426
kazuje	-9.9946
▁wystaw	-9.99491
▁wydarzenia	-9.99539
▁ogólne	-9.99543
▁wielki	-9.99565
graf	-9.99643
▁negatyw	-9.99646
moż	-9.99669
▁zapal	-9.99678
▁weekend	-9.9968
▁koszty	-9.99683
▁szkl	-9.99688
▁start	-9.99756
▁alkohol	-9.99813
mb	-9.99824
▁sch	-9.9984
czesne	-9.9987
▁walczy	-9.99918
szkol	-9.99985
▁integr	-10.0003
▁dół	-10.0004
▁Osob	-10.0005
▁cer	-10.0009
▁zostaje	-10.001
AP	-10.0014
▁Bri	-10.0014
▁przedsiębiorstw	-10.0018
kowego	-10.0023
▁pociąg	-10.0032
▁internetowej	-10.0033
▁zaleca	-10.0036
dzwoni	-10.0042
▁oddział	-10.0044
szczenie	-10.0045
▁zegar	-10.0046
▁zmniejsza	-10.0047
▁wyższe	-10.005
$	-10.0051
▁mało	-10.0052
▁wywiad	-10.0055
np	-10.0057
waj	-10.0058
▁drugie	-10.0058
aktyw	-10.006
sław	-10.0063
ord	-10.0066
instalowa	-10.0069
▁dalsze	-10.0069
▁muzyki	-10.007
▁włosy	-10.0072
ling	-10.0072
▁basen	-10.0072
spekt	-10.0073
▁montaż	-10.0073
ującego	-10.0074
▁żadnego	-10.0075
▁eksperyment	-10.0076
que	-10.0084
▁facet	-10.0086
▁zaufa	-10.0094
wiedzi	-10.0095
▁państwa	-10.0097
▁komfort	-10.0098
solid	-10.0098
pil	-10.0099
▁bit	-10.0106
▁dział	-10.0107
BI	-10.0107
▁skr	-10.0108
czeń	-10.0112
dale	-10.0113
▁rosną	-10.0118
▁powoduje	-10.012
TY	-10.0121
▁zrozumieć	-10.0121
rok	-10.0123
tic	-10.0124
▁Świe	-10.013
▁Uważa	-10.0134
▁czerwca	-10.0134
▁zbiera	-10.0142
▁album	-10.0143
▁oba	-10.0146
▁Cy	-10.0157
kwi	-10.0158
czych	-10.0162
▁mimo	-10.017
PI	-10.0171
▁Wybierz	-10.0172
pięt	-10.0174
szony	-10.0175
kop	-10.019
▁zakres	-10.0191
▁aparat	-10.0191
▁moduł	-10.0192
▁dużych	-10.0193
▁lokalizacji	-10.0196
ńskiej	-10.0199
prost	-10.0209
▁wyp	-10.0216
▁fal	-10.0222
▁Tur	-10.0222
▁naturalny	-10.0224
▁bohater	-10.0229
▁szczególności	-10.023
▁przodu	-10.0233
▁dopóki	-10.0234
▁przepis	-10.0241
doskona	-10.0246
▁rano	-10.0247
▁opiera	-10.0247
▁takiej	-10.0249
▁fundusz	-10.0252
▁mechanizm	-10.0254
▁serce	-10.0259
▁zastanawia	-10.026
▁pracuje	-10.026
▁moment	-10.026
icznym	-10.026
▁świetny	-10.0261
jrzał	-10.0265
mut	-10.0265
▁mógłby	-10.0266
▁warunkach	-10.0268
▁związek	-10.0273
▁zadanie	-10.0275
▁Został	-10.0278
KI	-10.0278
▁cząst	-10.0286
▁samolot	-10.0287
▁Ł	-10.029
▁miłość	-10.0291
▁otwarty	-10.0293
izol	-10.0294
▁kończy	-10.03
▁starszy	-10.0301
▁marketing	-10.0304
jącymi	-10.0315
▁naturalne	-10.0317
▁umowy	-10.0317
▁wydajności	-10.0317
▁chwil	-10.0321
alności	-10.0323
ssa	-10.0328
▁wykorzystać	-10.0329
▁ad	-10.0329
pusz	-10.0331
▁środ	-10.0338
▁ryzyka	-10.0339
▁analizy	-10.034
▁wybrany	-10.0341
▁kwot	-10.0345
Za	-10.0346
▁źródła	-10.0349
ański	-10.0351
▁pięciu	-10.0353
cyjnych	-10.0357
▁temp	-10.0358
▁dynam	-10.036
▁lokalne	-10.0369
▁mną	-10.0377
▁for	-10.0379
▁{	-10.0379
▁porad	-10.0384
EC	-10.0384
▁rynek	-10.0391
▁podstawowe	-10.0393
▁marki	-10.0395
ingu	-10.0398
osob	-10.0414
czący	-10.0425
KO	-10.0426
▁zwraca	-10.0428
▁sześć	-10.0429
▁dusz	-10.0432
BA	-10.0435
iec	-10.0437
▁tłuszcz	-10.0443
▁kliknij	-10.0443
▁jasne	-10.0443
▁wystarczy	-10.0444
▁ogóle	-10.0444
ilustr	-10.0444
EL	-10.0448
▁Ustaw	-10.0454
▁Port	-10.0454
energ	-10.0454
▁wykonane	-10.0456
▁faz	-10.0457
erii	-10.0457
▁drugim	-10.0462
▁pracować	-10.0463
mienny	-10.0464
Co	-10.0465
noszą	-10.0469
▁dużym	-10.0469
line	-10.047
owne	-10.0472
▁pracował	-10.0474
▁stres	-10.0476
▁wolny	-10.0478
tna	-10.0481
▁zdecydowanie	-10.0482
roż	-10.0482
▁Che	-10.0483
▁Nowy	-10.0487
▁wraca	-10.0496
gram	-10.05
▁Pri	-10.0502
▁tele	-10.0502
▁obecny	-10.0507
ori	-10.0511
▁polski	-10.052
ID	-10.0523
▁nowa	-10.0531
▁przede	-10.0533
ektor	-10.0534
▁strat	-10.0546
bre	-10.0546
lam	-10.0555
▁wiedzą	-10.0556
klik	-10.0559
▁Projekt	-10.056
Ę	-10.0562
▁płat	-10.0563
▁efekty	-10.0568
▁okazał	-10.0568
▁gier	-10.057
dge	-10.0595
TE	-10.0601
wzajem	-10.0601
▁mięs	-10.0602
miot	-10.0609
▁Ben	-10.061
izacja	-10.062
▁zapomni	-10.0628
stąpił	-10.0631
▁ślub	-10.0637
▁szeroko	-10.0638
▁pory	-10.0641
ńska	-10.0642
▁postaw	-10.0642
pozycja	-10.0648
▁próbował	-10.065
\	-10.0664
twierdzeni	-10.0667
prowadzi	-10.0668
czesny	-10.067
▁Mari	-10.067
▁żywności	-10.0678
▁nacisk	-10.0678
tlen	-10.068
ET	-10.0688
▁restauracji	-10.069
▁kap	-10.0693
▁brat	-10.0697
▁sezonie	-10.0697
MO	-10.0699
ńskiego	-10.0701
▁obecne	-10.0704
▁pliku	-10.0708
▁budynku	-10.071
!!!	-10.071
ring	-10.0711
▁odtwarza	-10.0715
▁niewy	-10.0716
decyduj	-10.0717
▁zewnętrzne	-10.0726
gna	-10.0728
▁niebieski	-10.073
dyk	-10.0731
▁organizm	-10.0738
BC	-10.074
▁nieza	-10.074
▁Mamy	-10.0745
bla	-10.0748
▁dowiedzieć	-10.0748
▁zapas	-10.0751
▁ludzkie	-10.0755
typ	-10.0756
czego	-10.0757
▁Her	-10.0759
chodzenia	-10.076
▁Poza	-10.0762
▁wrażenie	-10.0767
▁specjalne	-10.0769
pożąda	-10.0772
▁Rad	-10.0775
▁Oprócz	-10.078
▁materiału	-10.078
zwo	-10.0782
▁zapach	-10.0787
lony	-10.079
▁zmienił	-10.0792
▁trener	-10.0794
▁promieni	-10.0794
▁zajmują	-10.0795
▁lamp	-10.0802
▁tymi	-10.0808
ucha	-10.0816
▁Brytanii	-10.0821
SS	-10.0822
▁szef	-10.0823
▁pomp	-10.0825
▁zasila	-10.0825
łożenia	-10.0831
▁wspaniałe	-10.0831
mobil	-10.0833
wór	-10.0834
▁Ich	-10.0836
▁września	-10.0838
niesie	-10.0841
▁przygotowani	-10.0845
▁głównych	-10.0846
▁Met	-10.0847
radz	-10.0854
▁wysokie	-10.0856
▁napraw	-10.0858
▁żywo	-10.0865
▁hrabstw	-10.0867
niom	-10.0873
▁wpis	-10.0878
pol	-10.088
▁najpierw	-10.088
▁odległości	-10.0883
▁środku	-10.0893
▁Gar	-10.0896
▁tłumacz	-10.0899
▁muzyczn	-10.0899
Ch	-10.091
▁studentów	-10.0911
▁szybki	-10.0917
wój	-10.0921
ture	-10.0921
gran	-10.0923
▁taką	-10.093
żdż	-10.0935
▁zostali	-10.0936
łączył	-10.0936
▁przechowywa	-10.0939
▁mocno	-10.0941
®	-10.0942
▁otwarte	-10.0943
▁Kat	-10.0943
▁mechani	-10.0946
dzone	-10.0946
▁Mark	-10.0948
pół	-10.0949
▁wiatr	-10.095
▁ustawienia	-10.0954
▁Mój	-10.0965
▁interfejs	-10.0965
teria	-10.0969
wystarcza	-10.097
biał	-10.0971
▁funkcje	-10.0974
izację	-10.0975
▁ulubiony	-10.098
▁kompleks	-10.0989
▁idealny	-10.0991
▁instalacji	-10.0991
▁Mimo	-10.0994
lnej	-10.0994
ująca	-10.0994
▁zamierza	-10.0995
rzucił	-10.1001
łaby	-10.1004
▁plik	-10.1004
▁stać	-10.1007
▁Firma	-10.1009
▁zachowanie	-10.1011
▁osad	-10.1013
▁marca	-10.1014
▁oceni	-10.1014
▁los	-10.1015
nc	-10.1018
kor	-10.1022
▁aktualiz	-10.1037
▁plac	-10.1044
ZA	-10.1045
▁argument	-10.1046
▁silnika	-10.1049
rodzeni	-10.105
▁boga	-10.1054
▁czujnik	-10.1054
▁robią	-10.1055
fit	-10.1055
▁map	-10.1057
▁górę	-10.106
▁głęboko	-10.1062
▁salon	-10.1064
&	-10.1067
▁Bank	-10.1068
▁stworzyć	-10.1073
▁automatycznie	-10.1075
ston	-10.1076
ford	-10.1082
▁wersja	-10.1083
▁zazwyczaj	-10.1085
▁mat	-10.1094
▁formie	-10.1095
▁odwiedza	-10.1095
▁swe	-10.1096
pel	-10.11
▁zachęca	-10.1101
▁wykaz	-10.1102
MP	-10.1109
rn	-10.1109
▁William	-10.1117
▁każda	-10.1118
czona	-10.1119
ward	-10.1119
▁wiadomość	-10.1121
▁telewizor	-10.1125
▁Więcej	-10.1126
projekt	-10.1126
owcy	-10.1129
pisał	-10.1129
▁korzystać	-10.1135
wiedz	-10.114
bywa	-10.1144
▁Twoja	-10.1151
▁wydawał	-10.1154
▁potrzebujesz	-10.1156
interpret	-10.1159
▁ocenia	-10.1161
gromad	-10.1162
▁ulepsz	-10.1163
▁transport	-10.1176
jeżdża	-10.1176
ędzi	-10.1177
cel	-10.1178
wszy	-10.118
acyjnego	-10.1184
▁ostatecznie	-10.1187
▁Plan	-10.1191
▁użycie	-10.1196
▁stosunku	-10.1197
▁spotyka	-10.1202
▁występuje	-10.1206
▁niepo	-10.1212
▁chwilę	-10.1216
▁stopni	-10.1217
Ĺ	-10.1218
pit	-10.1219
yczna	-10.122
akcept	-10.122
▁Col	-10.1227
▁zauważył	-10.1228
▁proszę	-10.1235
▁kwietnia	-10.1236
▁wziąć	-10.1245
▁działać	-10.125
▁oparte	-10.1252
dając	-10.1253
▁dobrą	-10.1253
▁Proszę	-10.1257
▁stali	-10.1257
▁drugiego	-10.1259
▁Chrystus	-10.1277
▁komputera	-10.1277
▁upraw	-10.1286
▁niektórzy	-10.1287
▁przejść	-10.1288
▁zadania	-10.1291
▁koń	-10.1295
▁czuje	-10.1302
cego	-10.1304
popular	-10.1306
▁tyłu	-10.1306
▁finansowe	-10.1311
▁bawi	-10.1316
▁wycieczk	-10.1317
▁Tre	-10.1325
liwości	-10.1329
kod	-10.1332
▁płci	-10.1336
▁budżet	-10.1342
sona	-10.1345
▁wyjątkiem	-10.1351
▁wiek	-10.1352
gent	-10.1354
▁tydzień	-10.1354
cina	-10.136
▁lider	-10.136
łącznik	-10.1361
▁umożliwi	-10.1361
▁pierwszą	-10.1364
▁polityki	-10.137
▁jaj	-10.1372
mus	-10.1374
▁potrzebuje	-10.1377
▁nazwisk	-10.138
▁systemie	-10.1385
▁pomoże	-10.1391
▁recenz	-10.1392
▁Róż	-10.1392
pra	-10.1393
▁wykonać	-10.1396
▁wzdłuż	-10.1398
nęło	-10.1401
▁pewnym	-10.1404
▁zabieg	-10.1405
▁tłum	-10.1407
▁powstał	-10.1413
▁powinni	-10.1416
▁walki	-10.1417
▁każdą	-10.1421
lity	-10.1423
▁telefonu	-10.1424
▁autobus	-10.1434
miesza	-10.1437
zeniu	-10.1441
▁działają	-10.1443
▁lekki	-10.1443
▁kamieni	-10.1444
▁Cor	-10.1451
lini	-10.1451
▁grę	-10.1455
ela	-10.1461
▁Bel	-10.1462
▁słów	-10.1462
funkcjonal	-10.1468
aniem	-10.1472
prowadza	-10.1473
▁miesiąc	-10.1474
sse	-10.1479
▁Ed	-10.1479
▁Oba	-10.148
▁wrócił	-10.1483
▁jednostki	-10.1484
▁daleko	-10.1489
wiz	-10.1491
lnym	-10.1496
żenie	-10.1498
▁konta	-10.1501
fic	-10.1504
▁Super	-10.1505
niejszych	-10.1507
dził	-10.1513
▁zajmuje	-10.1514
▁większej	-10.1515
nictwo	-10.1518
▁wskazuje	-10.152
▁Ant	-10.152
osta	-10.1526
▁Bur	-10.1528
łączenia	-10.1529
▁terenie	-10.1534
▁zdecydowa	-10.1535
kryte	-10.1536
▁miesiąca	-10.1538
▁Dostęp	-10.1538
▁Brak	-10.1542
prę	-10.1543
SE	-10.1549
▁pierwszych	-10.1549
▁ostatnie	-10.1551
▁Sal	-10.1552
▁Często	-10.1554
▁łączy	-10.1555
▁deszcz	-10.1557
kin	-10.1558
▁woda	-10.1561
rop	-10.1563
▁Uni	-10.1566
▁Dom	-10.1569
▁not	-10.1572
▁naucz	-10.1573
▁płatności	-10.1575
▁opóźni	-10.1576
▁Nasze	-10.1577
▁rodziców	-10.1577
ństwa	-10.1582
▁filmów	-10.1583
łoży	-10.1584
jedno	-10.1584
▁des	-10.1596
del	-10.1598
▁inżynier	-10.1604
▁napęd	-10.1604
sha	-10.1604
▁biały	-10.1605
Myśl	-10.1605
▁zastęp	-10.1614
stre	-10.1615
▁października	-10.1617
▁Masz	-10.1619
▁instrument	-10.162
▁oni	-10.162
▁dobro	-10.1622
▁przebieg	-10.1624
▁środka	-10.1626
stanie	-10.163
▁mieszkańców	-10.163
isty	-10.1633
▁specjalist	-10.1637
▁spełnia	-10.1638
▁spotkania	-10.1638
▁West	-10.1641
▁pyta	-10.1642
▁Art	-10.1645
▁zdolności	-10.1648
▁czynniki	-10.1653
▁DO	-10.1653
▁Han	-10.1654
▁Mac	-10.1655
wrażliw	-10.1655
▁wymagają	-10.1656
Mo	-10.1666
▁uwielbia	-10.1667
przerw	-10.1668
▁rodzina	-10.1674
▁cena	-10.1681
▁obrazu	-10.1682
▁Bud	-10.1683
▁funkcję	-10.1684
▁wad	-10.1684
▁osobisty	-10.1684
▁turyst	-10.1688
gh	-10.1689
wiedza	-10.1693
▁Centrum	-10.1696
▁zmiana	-10.1697
▁innej	-10.1698
▁projektów	-10.1699
▁lotnisk	-10.1699
▁bądź	-10.1701
▁Ok	-10.1702
▁zasięg	-10.1703
▁zasobów	-10.1704
lok	-10.1706
brał	-10.1706
▁zidentyfikowa	-10.1707
▁witryn	-10.1708
WI	-10.1715
▁wymagania	-10.1716
▁wodę	-10.1723
▁szczyt	-10.1733
ista	-10.1734
▁stycznia	-10.1741
▁Europie	-10.1745
▁wodą	-10.1746
▁wszystkiego	-10.1746
bój	-10.1756
▁aut	-10.1761
▁wpływu	-10.1763
▁wirus	-10.1766
▁eks	-10.1767
▁uniknąć	-10.1774
▁mieszkań	-10.1777
szar	-10.1778
aria	-10.1778
równ	-10.1779
VI	-10.178
▁Gdyby	-10.178
▁koszul	-10.1784
brąz	-10.1786
▁elektryczne	-10.1788
▁wykorzystanie	-10.179
▁wiary	-10.1792
▁programów	-10.1796
▁krajów	-10.1799
piera	-10.18
budowany	-10.18
▁Sza	-10.1804
▁warunków	-10.1804
swobod	-10.1804
▁Ang	-10.1805
OL	-10.1814
▁najlepszym	-10.1814
wolucj	-10.1815
tre	-10.1816
▁ogromny	-10.1819
koń	-10.182
▁niezależnie	-10.182
▁odniesieniu	-10.1827
org	-10.1829
▁osobiste	-10.1831
powiada	-10.1832
czności	-10.1833
▁grudnia	-10.1835
acyjnej	-10.1837
SD	-10.1838
nione	-10.1842
▁czynności	-10.1849
ywne	-10.1849
▁jeżeli	-10.185
▁najlepszy	-10.185
yzacji	-10.1853
▁widział	-10.1855
▁radio	-10.1856
▁las	-10.1856
▁studia	-10.186
cent	-10.1863
▁zajęcia	-10.1864
pre	-10.1868
▁źródło	-10.187
▁skan	-10.1877
wanych	-10.1878
▁Spraw	-10.1878
▁wydajność	-10.1887
▁właściwe	-10.1888
▁fizyczne	-10.1891
▁mówią	-10.1892
▁krajach	-10.1895
▁imię	-10.1896
▁dać	-10.1901
zależni	-10.1903
▁widzenia	-10.1905
vel	-10.1907
▁trzecie	-10.191
skarż	-10.1911
ning	-10.1911
▁Sprawdź	-10.1917
▁http	-10.1917
▁Lub	-10.1922
▁Ab	-10.1924
▁pras	-10.1924
yzm	-10.1925
dła	-10.1927
▁mogły	-10.1936
▁wykonania	-10.194
▁lipca	-10.1944
▁tajemnic	-10.1944
ologiczny	-10.1944
▁realizacji	-10.1952
▁mogło	-10.1953
▁kolory	-10.1955
raź	-10.1958
▁jasno	-10.196
▁Pierwszy	-10.1961
▁podejmowa	-10.1965
▁Posiada	-10.1968
płaca	-10.197
ED	-10.1972
▁dotyk	-10.1976
czność	-10.1977
▁status	-10.198
▁oznacz	-10.1983
równoważ	-10.1984
▁stanowią	-10.1985
WA	-10.1987
▁Kla	-10.1994
ting	-10.1997
▁hu	-10.1998
▁seksu	-10.2
▁okolicy	-10.2
▁koncert	-10.2
▁przekształc	-10.2002
runk	-10.2003
▁dekor	-10.2006
▁nauki	-10.2007
interes	-10.201
▁aplikacja	-10.2012
▁zgadza	-10.2015
▁poprawi	-10.2015
▁sędzi	-10.2018
car	-10.2018
gene	-10.2022
▁funtów	-10.2022
▁chi	-10.2023
▁ksi	-10.2026
▁operacji	-10.2028
▁łańcuch	-10.2031
▁dach	-10.2037
▁Sąd	-10.2038
▁przeszłości	-10.2039
▁zewnętrzny	-10.2042
▁wyciąg	-10.2047
▁Kup	-10.2053
▁znane	-10.2055
▁Fin	-10.2057
letnie	-10.2059
▁Takie	-10.2062
pital	-10.2063
▁niezbędne	-10.2066
▁Part	-10.2067
▁źle	-10.2069
▁szal	-10.2069
▁but	-10.2072
▁uzyskania	-10.2072
OM	-10.2074
▁Jeden	-10.2086
▁świec	-10.2088
[	-10.2089
▁stu	-10.2093
?”	-10.2097
▁układu	-10.2097
▁obszarze	-10.2102
▁Niektórzy	-10.2104
▁trybie	-10.2108
▁zachowania	-10.2111
nos	-10.2112
SO	-10.2114
istów	-10.2116
▁stałe	-10.2118
▁samochodów	-10.2126
don	-10.2126
▁ptak	-10.2129
ńskie	-10.2145
▁komplet	-10.2148
▁pion	-10.2148
kowym	-10.2153
▁kapitał	-10.2155
ącego	-10.2158
▁użyte	-10.2161
▁mistrz	-10.2166
▁znajdziesz	-10.217
▁dystrybu	-10.2176
▁zamkn	-10.2178
▁kot	-10.2181
waniu	-10.2182
ote	-10.2182
▁metrów	-10.2183
▁widać	-10.2188
▁dzieł	-10.219
▁największy	-10.2192
▁pragnie	-10.2196
▁potrzebne	-10.2203
knął	-10.2204
▁Prób	-10.2208
▁dwoma	-10.2209
▁sprzętu	-10.2209
krąż	-10.2218
▁klient	-10.2218
owca	-10.222
SC	-10.2223
▁spędza	-10.2224
▁sposobów	-10.2227
▁Ludzie	-10.2227
▁Twojego	-10.2228
grub	-10.2231
chodząc	-10.2233
▁wsparcia	-10.2236
▁doskonały	-10.2236
▁słowo	-10.2237
▁powinieneś	-10.2238
▁zastosowania	-10.2238
oid	-10.2239
▁PC	-10.224
nus	-10.224
dzeń	-10.2242
▁USB	-10.2244
▁euro	-10.2248
▁Trans	-10.2249
RI	-10.225
▁Londyn	-10.2251
▁Mal	-10.2251
▁klin	-10.2256
▁okazji	-10.2256
dż	-10.2256
▁sal	-10.2257
▁Moja	-10.2257
ącą	-10.2257
▁Potem	-10.2258
▁Hol	-10.2258
▁mózgu	-10.2261
▁wolno	-10.2261
społ	-10.2271
pens	-10.2274
▁powtarza	-10.2275
▁naprawi	-10.2278
▁bok	-10.2279
▁dotyczą	-10.228
kową	-10.2282
▁ekspres	-10.2283
▁oferują	-10.2285
▁Mil	-10.2286
▁niemiecki	-10.2289
▁Czar	-10.2294
▁zastąpi	-10.2297
wschodni	-10.2302
▁ręce	-10.2306
▁zapewniają	-10.2307
▁męż	-10.2308
▁mln	-10.231
▁Ken	-10.2313
▁myślał	-10.2314
▁czasach	-10.2316
▁umie	-10.2317
▁CO	-10.2317
róż	-10.2318
▁Stra	-10.2321
▁głęboki	-10.2324
▁ogromne	-10.2328
▁sekcji	-10.233
▁czyn	-10.2331
▁strzał	-10.2337
▁automat	-10.2338
jścia	-10.2338
łbym	-10.2339
PL	-10.2341
owań	-10.2342
▁sposobem	-10.2344
lod	-10.2346
▁Inne	-10.2346
▁Oznacza	-10.2346
lnego	-10.2346
▁osiąga	-10.2353
▁rodzic	-10.2354
▁braku	-10.2354
▁zdaniem	-10.2356
▁nerw	-10.2359
▁stopniu	-10.2361
kli	-10.2362
▁graczy	-10.2366
gni	-10.2368
▁dorosłych	-10.2373
pią	-10.2376
wag	-10.2376
▁łatwiej	-10.2386
ród	-10.2389
▁spotkanie	-10.239
iłem	-10.2391
▁gotowy	-10.2393
noc	-10.2399
▁cenę	-10.2402
▁znaczenia	-10.2402
▁ulic	-10.2403
▁dziedzinie	-10.2407
▁połowie	-10.241
prowadzony	-10.2413
▁małżeństw	-10.2414
▁pliki	-10.2416
▁twoim	-10.2417
▁zwycięstw	-10.2418
▁czyste	-10.2418
AK	-10.2426
▁fragment	-10.2435
powiedz	-10.2435
▁pło	-10.2439
pisania	-10.244
▁parking	-10.244
▁wiersz	-10.2441
▁stosowane	-10.2443
tworzone	-10.2445
▁doskonale	-10.2445
▁Kolor	-10.2448
wiat	-10.2449
raża	-10.2454
alność	-10.246
▁Pie	-10.2463
▁Jesteśmy	-10.2464
▁prace	-10.2467
▁książka	-10.2469
▁czerwony	-10.2472
▁Jack	-10.2475
▁własną	-10.2479
bić	-10.2485
▁bezpośredni	-10.2486
▁Kan	-10.2487
wała	-10.2493
▁Tutaj	-10.2498
rasta	-10.25
▁przypadków	-10.25
▁zdrowie	-10.2501
▁długie	-10.2504
▁nos	-10.2505
skop	-10.2509
▁szaf	-10.251
▁Samo	-10.252
▁zdolność	-10.252
powie	-10.2523
SI	-10.2526
▁Wol	-10.2528
oksy	-10.2533
▁Nad	-10.2538
▁podlega	-10.2548
▁jo	-10.2549
ville	-10.2549
▁którymi	-10.2556
▁niskie	-10.2557
grał	-10.2559
ckie	-10.2559
▁City	-10.2561
tytu	-10.2562
tką	-10.2562
Piękn	-10.2565
atorów	-10.2566
▁usunąć	-10.2571
▁odzyska	-10.2572
▁Mag	-10.2573
godnie	-10.2574
▁pośredni	-10.2576
IC	-10.2584
▁neuro	-10.2587
▁epi	-10.2593
▁miękki	-10.2596
ującą	-10.26
▁kan	-10.2601
biór	-10.2603
▁razu	-10.2604
płaty	-10.2606
▁filmy	-10.2606
▁wysoko	-10.2607
▁kombin	-10.2613
lokaliz	-10.2613
▁udostępni	-10.2615
▁komunikacji	-10.2617
tycznym	-10.2618
ruch	-10.2622
▁nazwę	-10.2622
▁prosto	-10.2622
▁główne	-10.2625
rygina	-10.2629
▁popełni	-10.2635
wdzięcz	-10.2636
▁podmiot	-10.2637
▁Wiem	-10.2638
▁Free	-10.264
▁dostępna	-10.2644
▁ml	-10.2646
Do	-10.2652
▁Pat	-10.2654
▁należą	-10.2656
▁trudności	-10.2657
▁stała	-10.2659
▁szeroki	-10.2662
▁komórki	-10.2664
trą	-10.2665
▁Sie	-10.2667
▁abs	-10.2671
▁prywatny	-10.2672
▁Cóż	-10.2672
ąca	-10.2674
▁sypialni	-10.2681
▁wieczor	-10.2682
▁pokazują	-10.2692
trac	-10.2695
▁języku	-10.2698
▁idealne	-10.2704
kazano	-10.2706
▁żona	-10.2706
nicze	-10.2712
▁miliard	-10.2712
▁Pamiętaj	-10.2718
medi	-10.2723
▁listopada	-10.2724
izmu	-10.2724
▁kandydat	-10.2728
▁trend	-10.2728
biegł	-10.2729
klucz	-10.2733
szczegól	-10.2734
▁krew	-10.2737
▁wewnętrzny	-10.2738
▁zachować	-10.2747
▁She	-10.2749
▁cechy	-10.2751
▁pojazd	-10.2751
▁właściwy	-10.2754
%)	-10.2755
▁was	-10.2759
sco	-10.2765
Ó	-10.2772
▁James	-10.2774
▁konkurs	-10.2775
pisany	-10.2778
dyna	-10.2786
▁potencjał	-10.2788
▁zdobył	-10.279
▁powodów	-10.2791
poli	-10.2793
▁ludźmi	-10.2794
krywa	-10.2796
▁odbył	-10.2801
▁własny	-10.2805
▁Film	-10.2805
▁chcieli	-10.2809
▁University	-10.2809
▁David	-10.2811
▁francuski	-10.2813
▁funkcja	-10.2813
▁swoimi	-10.2814
▁Wygląda	-10.2819
▁śmierć	-10.282
elektr	-10.2821
▁własnych	-10.2824
▁Ziemi	-10.2832
„	-10.2842
▁ponowne	-10.2845
▁cywil	-10.2846
▁obr	-10.2846
▁czymś	-10.285
▁podpis	-10.2856
▁przeprowadza	-10.2858
▁fra	-10.2861
state	-10.2861
foli	-10.2866
▁przeciwieństwie	-10.2866
▁ciężko	-10.2879
▁Twoim	-10.288
▁bilet	-10.2885
▁XX	-10.2891
mencie	-10.2895
dziw	-10.2897
▁Czasami	-10.2898
▁architekt	-10.2899
▁ślad	-10.2899
▁relacji	-10.2909
rost	-10.2911
▁zalet	-10.2921
▁Być	-10.2923
▁kluczowe	-10.2925
▁Inter	-10.2927
▁wykorzystuje	-10.2927
▁zacząć	-10.2934
▁dobrej	-10.2935
staje	-10.294
▁własnej	-10.2943
▁akt	-10.2944
▁napis	-10.2946
▁dostać	-10.2947
waga	-10.2951
▁ekranu	-10.2951
▁uzasadni	-10.2955
▁samą	-10.2955
▁wybuch	-10.296
niony	-10.2963
▁mężczyzna	-10.2964
▁narzędzie	-10.2965
▁premier	-10.2966
ett	-10.2967
DE	-10.2968
stawić	-10.2969
słab	-10.2969
▁własnym	-10.2974
▁młodych	-10.2976
▁chemi	-10.2981
▁mówić	-10.2981
jska	-10.2987
widzi	-10.2987
stor	-10.2987
▁Auto	-10.2989
▁lewej	-10.299
▁twojego	-10.2992
▁niewiele	-10.2997
west	-10.2999
▁lokalnych	-10.3
▁aktywności	-10.3002
▁sposoby	-10.3014
▁Zamiast	-10.3019
▁łatwy	-10.3023
▁Trzy	-10.3025
▁Mon	-10.3027
▁wyposażony	-10.3029
▁Mary	-10.3032
szedłem	-10.3034
▁Uwaga	-10.3038
medy	-10.3039
▁spod	-10.3039
▁Min	-10.3043
▁martw	-10.3044
bru	-10.3046
▁lubię	-10.3047
▁piw	-10.3048
eczki	-10.3054
▁związany	-10.3059
▁tysiąc	-10.306
spir	-10.3061
gener	-10.3063
▁zakłada	-10.3067
▁całkowite	-10.3068
▁utrzymać	-10.3071
▁transportu	-10.3075
▁artysty	-10.3078
▁droga	-10.3079
▁Wydaje	-10.308
▁ostatnio	-10.3086
▁żadnej	-10.3093
▁wymagane	-10.3093
▁tablic	-10.31
▁Jaki	-10.3101
wig	-10.3103
▁zbiornik	-10.3105
▁Mod	-10.3114
▁żołnierz	-10.3118
funk	-10.3119
zyska	-10.3126
widz	-10.3133
▁częstotliwości	-10.3133
▁HD	-10.3134
stawieni	-10.3137
wrót	-10.3137
▁duża	-10.3139
rozumiał	-10.314
burz	-10.3141
ckich	-10.3144
wiec	-10.315
arni	-10.3153
▁poczucie	-10.3155
niejsza	-10.3157
deł	-10.3159
▁herbat	-10.3161
encje	-10.3162
▁miejscach	-10.3165
▁Każda	-10.3167
zony	-10.3169
▁stosowania	-10.3171
▁ostro	-10.3173
▁pytań	-10.3178
▁dba	-10.3184
cro	-10.3184
ienne	-10.3185
▁Eks	-10.3186
▁dziennie	-10.3188
▁Cla	-10.3188
▁przyspiesz	-10.319
▁wyjaśnia	-10.3192
pina	-10.3194
▁kontrolę	-10.3195
pośród	-10.3197
eczka	-10.3201
▁myślą	-10.3202
▁listę	-10.3203
▁dostępnych	-10.3205
▁formy	-10.3205
▁występują	-10.3208
Środ	-10.3211
▁korzystania	-10.3212
owiec	-10.3212
▁lekko	-10.3214
▁doskonałe	-10.3216
▁jezior	-10.3219
▁mogłem	-10.322
▁ciąży	-10.322
▁sierpnia	-10.3227
CC	-10.3231
▁pokryw	-10.3233
▁jedzenia	-10.3237
▁oddech	-10.3238
▁Jednym	-10.3242
▁kroki	-10.3257
▁radzi	-10.3258
▁określić	-10.326
▁podkreśla	-10.3261
▁spróbować	-10.3264
hol	-10.3264
▁krótko	-10.3265
▁stare	-10.3267
▁pierwsza	-10.3269
▁badaniu	-10.327
▁byłby	-10.3275
▁Produkt	-10.3278
▁odgrywa	-10.3279
▁LED	-10.3283
▁Znajd	-10.3286
▁ogranicza	-10.3287
▁Street	-10.3289
▁stosowany	-10.329
▁Używa	-10.3291
▁własnego	-10.3297
▁tygodnia	-10.3303
▁Para	-10.331
▁Kliknij	-10.3312
▁dłużej	-10.3312
▁specjalny	-10.3317
▁Dar	-10.332
wodzi	-10.3321
▁formularz	-10.3328
▁Shi	-10.3332
▁Tam	-10.3333
▁Kilka	-10.3336
▁zawierają	-10.334
▁wzrok	-10.334
▁przesyła	-10.3342
ństwo	-10.3345
uchy	-10.3346
▁niesamowite	-10.3349
kle	-10.3353
▁Kur	-10.3353
▁bezpieczne	-10.3354
prefer	-10.3354
pier	-10.3358
▁działalność	-10.3359
▁niedawno	-10.3359
▁Dal	-10.336
▁Robert	-10.3362
trop	-10.3363
DC	-10.3365
▁kolumn	-10.3371
▁wszech	-10.3371
DI	-10.3373
berg	-10.3376
▁tobą	-10.3377
▁Typ	-10.338
▁wskazują	-10.3381
▁All	-10.3385
▁roli	-10.3388
wykorzystywan	-10.3389
▁otrzymuje	-10.339
darzy	-10.3392
owny	-10.3403
▁dodał	-10.3407
▁stosunkowo	-10.3413
ślad	-10.3414
▁Była	-10.3414
▁lutego	-10.342
▁Wyniki	-10.3425
▁Air	-10.3426
▁Dzieci	-10.3427
▁firmie	-10.3428
▁wieczorem	-10.343
ordyn	-10.343
▁strzela	-10.3431
▁kwadrat	-10.3432
▁okna	-10.3435
▁ograniczenia	-10.3437
▁codziennie	-10.3441
▁komunikat	-10.3442
▁seks	-10.3444
▁środowisk	-10.3447
▁bazy	-10.3457
▁rekord	-10.346
▁najwyższe	-10.3461
▁wniosku	-10.3462
▁problemem	-10.3464
▁stwierdził	-10.3469
▁zwierzęta	-10.347
▁silny	-10.3471
ćwicz	-10.3473
▁eksp	-10.3475
▁kątem	-10.3477
PE	-10.3478
qui	-10.3483
pierw	-10.3484
▁przedstawiciel	-10.3485
wały	-10.3485
▁pokoj	-10.3488
▁Android	-10.3499
▁komór	-10.3501
▁najczęściej	-10.3502
▁Słow	-10.3503
▁równie	-10.3507
▁młody	-10.3507
▁godzinę	-10.3508
▁programie	-10.3512
▁konsument	-10.3513
▁pozwalają	-10.3514
gą	-10.3519
dząc	-10.3519
▁strasz	-10.3521
onymi	-10.3521
▁Już	-10.3537
▁student	-10.3538
IL	-10.3538
Musi	-10.3542
ect	-10.3542
zwiększ	-10.3544
▁Mont	-10.3544
▁handlu	-10.3545
▁konkretne	-10.3546
NO	-10.3549
▁martwi	-10.3552
▁świetne	-10.3564
▁Zgodnie	-10.3569
chody	-10.3569
▁firmę	-10.357
▁pacjenta	-10.3572
▁bliski	-10.3575
▁detal	-10.3579
▁grać	-10.358
▁Pal	-10.3589
▁waha	-10.3593
▁Dodaj	-10.3593
owski	-10.3599
▁stoi	-10.3599
▁zgodzi	-10.3609
▁kolorów	-10.3611
▁polityczne	-10.3612
▁dzieli	-10.3614
▁techniczne	-10.3614
ME	-10.3615
▁Polski	-10.3622
▁znowu	-10.3625
błon	-10.3628
▁odczyt	-10.3632
▁wymyśl	-10.3634
▁stacji	-10.3635
▁rodzaje	-10.3635
▁Sil	-10.3636
▁ekspert	-10.3639
▁przewodnik	-10.364
▁grunt	-10.3643
▁przetrwa	-10.3647
▁świetnie	-10.3647
▁musieli	-10.3648
▁wolne	-10.3649
▁policji	-10.3652
ugh	-10.3653
dano	-10.3657
pyta	-10.3663
▁Pier	-10.3666
▁tuż	-10.3668
▁prawej	-10.3668
▁obiektu	-10.3669
▁pacjent	-10.3672
▁rozkład	-10.3675
▁Del	-10.3676
▁bezpieczeństwo	-10.3677
▁Jorku	-10.3677
▁internetowych	-10.3678
put	-10.3679
▁mniejsze	-10.3683
In	-10.3683
żał	-10.3688
▁leczenie	-10.3689
yfikacji	-10.369
▁ciepła	-10.3697
▁And	-10.3698
▁siedem	-10.3701
▁punkty	-10.3701
▁Moje	-10.3704
▁wyzwanie	-10.3704
bór	-10.3705
▁zdrowotne	-10.3705
▁połączeniu	-10.3705
▁trudny	-10.3707
▁oprogramowanie	-10.3709
▁Stud	-10.3713
▁zapozna	-10.3719
▁średniej	-10.372
▁Sho	-10.3721
▁żaden	-10.3723
▁masy	-10.3724
▁Tri	-10.3726
więc	-10.3734
▁przestrzeń	-10.3734
▁rzeczą	-10.3735
▁wyraża	-10.3735
▁oczekuj	-10.3737
wyższa	-10.3741
▁uchwyt	-10.3748
jrzeć	-10.375
tali	-10.375
nęły	-10.3752
▁traw	-10.3754
Chciał	-10.3755
▁odnosi	-10.3759
▁chmur	-10.376
▁obrazy	-10.376
▁dostał	-10.3763
▁ludziom	-10.3763
▁materiały	-10.3787
mper	-10.3788
▁mężczyźni	-10.379
▁Zdjęcie	-10.3792
MC	-10.3794
▁Stanach	-10.3799
▁warzyw	-10.38
▁grupie	-10.3803
▁Było	-10.3808
dzięk	-10.381
▁dziewczyna	-10.3812
▁osobą	-10.3813
▁przechodzi	-10.3813
▁sumie	-10.3814
▁format	-10.3815
DZI	-10.3823
▁okoliczności	-10.3823
▁scenariusz	-10.3825
▁cha	-10.3826
▁Działa	-10.3827
{	-10.3827
▁leków	-10.3827
▁Paul	-10.3828
▁chłopak	-10.3835
trzy	-10.3838
arski	-10.3839
▁ojca	-10.384
adapt	-10.3843
▁określony	-10.3843
kształceni	-10.3844
▁Model	-10.3847
▁pływa	-10.3852
«	-10.3852
Jest	-10.3854
▁mieliśmy	-10.3855
▁Fund	-10.3858
▁dzielnic	-10.3859
kłon	-10.3861
▁elektryczny	-10.3863
▁rodzice	-10.3864
▁pamiętać	-10.3867
▁drogę	-10.3868
▁poważne	-10.3869
liwość	-10.3872
▁ojciec	-10.3873
▁widziałem	-10.3874
▁księg	-10.3874
▁Can	-10.3878
▁wektor	-10.3881
▁postać	-10.3881
▁meta	-10.3884
▁Naprawdę	-10.3885
dawał	-10.3885
▁Gal	-10.3887
▁Wielki	-10.3888
▁gniazd	-10.3891
dpowiedzialności	-10.3896
tworzony	-10.39
nadzor	-10.3901
▁Polsce	-10.3902
ostrz	-10.3903
▁rozdział	-10.3905
▁pogląd	-10.3907
płyn	-10.3911
tter	-10.3912
ckiego	-10.3913
krycia	-10.3914
▁prywatne	-10.3917
▁Gdzie	-10.3917
▁rady	-10.3917
BS	-10.3924
▁oparty	-10.3924
▁plaży	-10.3924
FI	-10.3927
▁raka	-10.393
▁przestrzega	-10.3934
▁Musisz	-10.394
▁filmie	-10.3941
PR	-10.3942
▁krytyk	-10.3943
▁Współ	-10.3946
▁nazwy	-10.3947
▁Państwa	-10.3948
cząc	-10.3948
▁Val	-10.3949
▁oleju	-10.3952
ding	-10.3952
▁CD	-10.3954
▁zwierzę	-10.3955
▁główny	-10.3955
▁[...]	-10.3957
łud	-10.3958
niesienie	-10.3961
▁emocjonaln	-10.3963
▁wyświetlacz	-10.3967
▁ogólny	-10.3971
▁Facebooku	-10.3975
cept	-10.3976
sel	-10.3976
niosła	-10.3978
▁zmianę	-10.3978
▁śpiewa	-10.3981
▁susz	-10.3985
▁policja	-10.3986
terapii	-10.3987
▁wykrywa	-10.3989
▁zwiększyć	-10.3991
▁Jedno	-10.3992
istyczne	-10.3995
dzę	-10.3996
▁głowę	-10.3996
▁narkotyk	-10.3997
▁stopnia	-10.3998
▁demon	-10.4002
kowania	-10.4004
▁powtórz	-10.4006
świadczenie	-10.4009
▁kolorze	-10.401
▁obsługa	-10.4012
▁Bibli	-10.4013
▁drugą	-10.4013
▁kultury	-10.4017
nięta	-10.4024
▁temperatur	-10.4027
encję	-10.4029
▁sklepie	-10.4032
▁zbliża	-10.4033
▁czarne	-10.4036
▁rozmowy	-10.4043
▁osiągnięcia	-10.4045
▁udostępnia	-10.4045
▁miło	-10.4048
▁Funkcj	-10.4051
off	-10.4051
▁użycia	-10.4054
▁młodzież	-10.4055
▁brzeg	-10.4056
▁wieloma	-10.4058
ywny	-10.4058
▁przyszłość	-10.4061
hand	-10.407
▁rozpoczyna	-10.407
▁krawędzi	-10.4072
GA	-10.4078
▁męski	-10.4078
qua	-10.4078
▁szansę	-10.4078
ryg	-10.4078
▁piątek	-10.408
▁przepisów	-10.408
chroni	-10.4083
▁Apple	-10.4089
▁przesłan	-10.4094
▁Pas	-10.4096
rzucić	-10.4098
▁ogólnie	-10.4103
▁wykorzystują	-10.4104
▁zdobyć	-10.4107
▁plus	-10.4111
bież	-10.4112
▁gleb	-10.4114
▁edukacji	-10.4116
▁rywal	-10.4121
TR	-10.4128
▁twierdzą	-10.4141
▁słod	-10.4143
uczciw	-10.4144
▁sezonu	-10.415
OWA	-10.4152
▁potwierdza	-10.4153
srebr	-10.4155
CT	-10.4155
jechać	-10.4156
▁Zdjęcia	-10.416
ignor	-10.4164
▁drewna	-10.4165
▁Bru	-10.4166
▁konflikt	-10.4166
▁dłoni	-10.4167
▁zainteresowani	-10.4167
▁kryzys	-10.4169
▁śrub	-10.417
▁szkół	-10.4172
▁ułatwi	-10.4174
▁rządu	-10.4175
▁dotyczący	-10.4176
▁tkanin	-10.4182
historyczn	-10.4187
▁dobrego	-10.4189
▁Bre	-10.4192
▁bal	-10.4197
▁wrócić	-10.4201
▁faktycznie	-10.4203
▁operator	-10.4204
II	-10.4211
biec	-10.4214
▁plaż	-10.4216
▁polityczny	-10.422
▁Trump	-10.4221
ciera	-10.4222
siadł	-10.4222
▁kontrakt	-10.423
▁Flor	-10.4231
▁prowadząc	-10.4232
▁polecam	-10.4237
▁barw	-10.4238
▁skuteczne	-10.4238
cznymi	-10.4238
▁dowód	-10.424
kazać	-10.4246
▁Robi	-10.4249
▁rzeczywiście	-10.4254
▁brytyjski	-10.4258
ekonomi	-10.4262
▁wymiany	-10.4262
▁straż	-10.4262
▁mnóstwo	-10.4262
gla	-10.4263
▁sześciu	-10.4276
▁powstrzyma	-10.4277
dzial	-10.4277
{/	-10.4281
RS	-10.4286
▁kolei	-10.4292
▁zaczęła	-10.4292
▁chciała	-10.4297
▁opinii	-10.4299
zachodni	-10.4306
zol	-10.4308
▁obszarach	-10.4309
▁linia	-10.431
▁oferty	-10.431
▁całości	-10.431
▁poważny	-10.431
zauważ	-10.4312
▁przekracza	-10.4315
▁sprawił	-10.4318
kwestion	-10.432
izowane	-10.4321
▁zarządzanie	-10.4322
▁rzek	-10.4323
▁własności	-10.4324
kowie	-10.4324
▁Potrzeb	-10.4325
▁Michael	-10.4329
yjny	-10.4335
▁geo	-10.4336
▁twoja	-10.4337
▁czynników	-10.4338
▁strategii	-10.434
▁ostatnim	-10.4341
▁imieniu	-10.4348
▁wszelkich	-10.4349
▁populacji	-10.4352
▁prysznic	-10.4353
▁widzę	-10.4357
▁Wielu	-10.4358
▁czuję	-10.4361
▁zaznacz	-10.4361
▁cukr	-10.4364
▁zamówienia	-10.4366
san	-10.4371
▁gospodarstw	-10.4372
▁wykład	-10.4372
▁wspomina	-10.4372
▁zakończył	-10.4374
▁Red	-10.4381
▁dodatkowych	-10.4382
EK	-10.4382
chodzenie	-10.4386
▁porozmawia	-10.4392
▁Bal	-10.4394
▁konto	-10.4394
▁dramat	-10.4396
▁mniejszy	-10.4398
▁przewidywa	-10.44
▁rzeczywisty	-10.4404
▁gotów	-10.4405
zadowoleni	-10.4417
▁Wtedy	-10.4421
▁tablet	-10.4422
▁wspólnego	-10.4422
▁pomimo	-10.4423
zbroj	-10.4423
IM	-10.4423
▁Problem	-10.4424
▁opcje	-10.4429
▁Usług	-10.4429
FA	-10.443
▁Rady	-10.4431
▁początek	-10.4432
▁Microsoft	-10.4437
▁rund	-10.4438
nięciu	-10.4441
▁największe	-10.4444
▁kwestia	-10.4445
▁zauważyć	-10.4448
▁Spe	-10.4451
▁meczu	-10.4453
▁chiński	-10.4455
▁różnymi	-10.446
▁pilot	-10.4461
▁wyglądał	-10.4462
▁Lan	-10.4463
▁przetwarza	-10.4465
▁słodki	-10.4471
▁powietrze	-10.4471
▁drużyny	-10.4473
▁oparciu	-10.4477
▁czynnik	-10.4477
głoś	-10.4479
▁skórę	-10.448
▁wzmacnia	-10.448
▁szczegóły	-10.4481
▁strumieni	-10.4486
brania	-10.4486
wiedź	-10.449
▁sterowania	-10.4497
▁wszystkimi	-10.4497
▁najwyższy	-10.4499
▁silne	-10.45
▁społeczeństwa	-10.4503
syp	-10.4512
▁wiedzę	-10.4512
Wykona	-10.4513
RY	-10.4516
ywność	-10.4516
▁rozdziel	-10.4521
▁Opis	-10.4522
▁powietrzu	-10.4524
▁wodzie	-10.4529
inwest	-10.4536
▁zwykły	-10.4537
▁Dane	-10.4537
▁młode	-10.4545
▁służą	-10.4546
sob	-10.4549
▁płaski	-10.455
NG	-10.4551
▁ciemno	-10.4552
NT	-10.4553
▁wycofa	-10.4556
▁inwestor	-10.4569
▁witamin	-10.4569
▁zarzut	-10.457
▁Król	-10.4575
▁Właśnie	-10.4577
▁stal	-10.4579
sing	-10.4579
▁Dziękuję	-10.458
▁ciśnienie	-10.4581
piesz	-10.4584
~	-10.4584
▁Klient	-10.4584
▁bibliotek	-10.4586
▁dalszy	-10.4589
▁białka	-10.4596
twierdzi	-10.4601
▁pokoje	-10.4607
▁rzadko	-10.4611
▁bólu	-10.4615
▁Woj	-10.462
▁dowolnym	-10.4623
▁zobaczył	-10.4634
▁egz	-10.4634
▁środowisko	-10.4638
alizacja	-10.4642
▁apartament	-10.4642
▁Grupa	-10.4646
▁przepisy	-10.4656
▁wyjątkowy	-10.4659
▁inną	-10.4659
▁spróbuj	-10.466
▁pasażer	-10.4666
▁Przykład	-10.467
krycie	-10.4673
▁jedynym	-10.4673
▁pomyśl	-10.4674
▁Pen	-10.4679
▁plastik	-10.468
▁niemal	-10.4682
▁ekranie	-10.4685
™	-10.4685
▁ręcznie	-10.4686
▁istotne	-10.4692
▁więzi	-10.4693
ołów	-10.47
▁miesiące	-10.4704
▁urodzin	-10.4705
▁procesie	-10.4706
▁miarę	-10.4707
▁Dziś	-10.4707
▁mózg	-10.4717
▁Pół	-10.4721
▁inwestycji	-10.4722
▁szkoła	-10.4723
▁światowej	-10.4724
▁źródeł	-10.4729
▁składników	-10.4733
▁schemat	-10.4738
▁próbuje	-10.4739
▁dziewczyny	-10.474
dzeniu	-10.4742
yjnych	-10.4746
CS	-10.4746
▁wniosek	-10.4747
Sprzeda	-10.475
▁obszaru	-10.4751
▁Ciesz	-10.4754
▁lodów	-10.4755
spójn	-10.4756
▁katalog	-10.4758
TU	-10.476
▁właściwie	-10.4761
▁powiadomi	-10.4762
▁George	-10.4764
▁skutecznie	-10.4769
▁uczestniczy	-10.4769
▁zakresu	-10.477
▁budowy	-10.4773
▁Akt	-10.4774
▁odwoła	-10.4774
▁skali	-10.4775
▁Uniwersytet	-10.4776
▁chciałem	-10.4779
▁Was	-10.4781
▁Gor	-10.4782
OT	-10.4784
pokój	-10.4785
▁akumulator	-10.4785
▁byliśmy	-10.4785
▁branż	-10.4786
▁pełną	-10.4786
▁cieszy	-10.479
▁kwestii	-10.4791
STA	-10.4795
▁krótkie	-10.4796
▁akademi	-10.4803
▁przedłuż	-10.4804
▁Chcę	-10.4805
▁pozycję	-10.4808
▁składniki	-10.481
▁teatr	-10.4811
▁Dan	-10.4811
▁buty	-10.4821
▁domów	-10.4822
▁głównego	-10.4822
▁wątpliwości	-10.4829
▁niesamowity	-10.4831
▁stają	-10.4834
regulowa	-10.4839
niejszą	-10.4843
▁uruchamia	-10.4846
▁rozpocząć	-10.4848
▁Europy	-10.4849
dzony	-10.4852
▁dzisiejszy	-10.4855
▁Że	-10.4866
▁WY	-10.4869
▁reguł	-10.4874
▁wyposażone	-10.488
bus	-10.488
▁krajobraz	-10.488
▁odpowiednich	-10.4882
▁okolic	-10.4883
cker	-10.4889
bert	-10.4889
▁Mieszka	-10.4891
agon	-10.4897
▁cyfr	-10.49
▁konkretny	-10.4901
▁długość	-10.4904
▁ułatwia	-10.4909
▁momentu	-10.4911
▁zadań	-10.4914
CO	-10.4915
▁podstawowych	-10.4919
▁priorytet	-10.492
▁osiem	-10.4921
▁Nowym	-10.4924
służ	-10.4926
▁nowoczesny	-10.4927
▁samych	-10.4933
▁mono	-10.4934
▁Syn	-10.4934
▁tysięcy	-10.4934
▁członka	-10.4936
▁Izrael	-10.4939
▁Char	-10.4944
▁pracownicy	-10.4948
▁rękę	-10.4952
▁twojej	-10.4964
▁zarząd	-10.4965
▁zawartości	-10.4965
ycznej	-10.4968
▁opcję	-10.497
▁matka	-10.497
▁upewni	-10.497
▁brz	-10.497
program	-10.497
▁skończy	-10.497
▁Ter	-10.4974
▁Tym	-10.4975
▁nazwie	-10.4975
!”	-10.4976
zbliż	-10.4978
▁Istnieją	-10.4984
lumin	-10.4988
▁zwrócić	-10.4991
rozsądn	-10.4992
▁odmian	-10.4994
▁poprawić	-10.4994
▁zasilania	-10.4996
▁żyje	-10.4997
ubezpieczeni	-10.4997
nferenc	-10.4997
NC	-10.4998
▁Zapewni	-10.5001
wizualn	-10.5006
▁pojęcia	-10.5007
front	-10.5011
▁wydarzenie	-10.5011
eria	-10.5012
▁systemem	-10.5013
▁grafik	-10.5021
▁butelk	-10.5032
▁słyszał	-10.5032
▁osobę	-10.5032
▁przerwa	-10.5035
▁Mer	-10.5037
▁małym	-10.5046
▁domowe	-10.5049
▁matki	-10.5053
▁reakcji	-10.5054
czeniu	-10.5056
▁stopy	-10.5066
▁takimi	-10.507
▁dziećmi	-10.507
▁Stanów	-10.5072
sąd	-10.5072
▁normalne	-10.5074
▁Hall	-10.5076
▁widoczne	-10.5083
▁wykorzystania	-10.5085
▁będąc	-10.509
▁piecz	-10.5093
▁wybrane	-10.5094
▁pożar	-10.5094
▁most	-10.5099
▁Dwa	-10.5103
▁wielkim	-10.5104
Narodow	-10.5112
▁tło	-10.5115
▁codzienne	-10.5119
▁mąż	-10.5127
▁wspólne	-10.5127
▁międzynarodowe	-10.5131
▁książek	-10.5133
tywne	-10.5143
ologia	-10.5144
chodzące	-10.5145
▁stworzył	-10.5145
▁wydarzeń	-10.5148
▁witryny	-10.5148
alizacji	-10.5149
gwarant	-10.5152
▁Regul	-10.5153
▁ciężki	-10.5154
▁Nauk	-10.5157
▁sposobu	-10.5159
▁możliwy	-10.516
▁luksus	-10.5168
▁głupi	-10.5168
▁medyczne	-10.5171
▁przestępstw	-10.5173
▁poważnie	-10.5174
▁błędów	-10.5174
izować	-10.5184
▁zaraz	-10.5185
▁Far	-10.5191
▁ulicy	-10.5192
▁skupia	-10.5195
▁wypadku	-10.5195
▁poprawia	-10.5196
▁Gru	-10.5199
▁studiów	-10.5202
▁umieszcza	-10.5203
▁użytku	-10.5205
▁wówczas	-10.5206
▁przechowywania	-10.5206
▁natomiast	-10.5206
▁uważam	-10.5214
cznik	-10.5215
▁menedżer	-10.522
bul	-10.522
▁postanowił	-10.5222
field	-10.5222
PO	-10.5223
▁zasadzie	-10.5225
▁Informacje	-10.5226
tywny	-10.5226
▁ustanowi	-10.5229
ciągnąć	-10.523
▁krem	-10.5233
▁pojazdu	-10.5238
▁kat	-10.5241
▁pusty	-10.5244
▁ciężar	-10.5245
powietrz	-10.5245
▁każde	-10.5253
▁wykres	-10.5257
▁regionie	-10.5257
▁rozwiązać	-10.526
▁budowla	-10.5261
▁sprzedawa	-10.5262
▁odzwierciedla	-10.527
istyczny	-10.5273
▁włos	-10.5276
▁znam	-10.5277
▁urodził	-10.5278
▁wydają	-10.5281
OP	-10.5284
▁Ver	-10.5285
leń	-10.5289
▁egzamin	-10.5292
▁etapie	-10.5292
▁częściej	-10.5297
DS	-10.5298
dyscyplin	-10.5299
▁obecności	-10.5299
▁wygodne	-10.5301
modyfikowa	-10.5304
▁School	-10.5305
ckiej	-10.5306
▁węgla	-10.531
▁pasuje	-10.5311
▁Euro	-10.5312
▁tygodnie	-10.5312
▁tworząc	-10.5313
▁wspólny	-10.5315
▁psycholog	-10.5317
▁kolejnych	-10.5317
▁uczestników	-10.5324
europejski	-10.5324
▁klasie	-10.5327
▁strach	-10.5329
▁Royalty	-10.5333
▁gospodarcze	-10.5335
prywat	-10.5337
▁pojawiają	-10.5346
▁krzyż	-10.5353
rogi	-10.5353
▁zamyka	-10.5355
▁twoją	-10.5362
▁praktyki	-10.5364
▁płuc	-10.5367
▁oczekiwania	-10.5367
lock	-10.5367
▁opcja	-10.5368
▁śpi	-10.5369
▁audio	-10.5369
▁guz	-10.537
istą	-10.537
▁poszczególnych	-10.5373
▁sieć	-10.5374
val	-10.538
▁okręg	-10.538
▁zakończeniu	-10.5381
▁pewnego	-10.5388
ÓW	-10.5403
▁patrzy	-10.5403
▁filozof	-10.5405
▁temperatura	-10.5405
▁skomplik	-10.5406
▁wyjątkowe	-10.5414
TI	-10.5415
▁czysty	-10.5416
▁środowisku	-10.5417
▁Miejsce	-10.5419
▁wykorzystywane	-10.5424
wróce	-10.5424
▁Drugi	-10.543
▁siłę	-10.5442
▁obiektów	-10.5444
łożona	-10.5449
▁pomyślał	-10.5452
proszeni	-10.5456
▁konstrukcji	-10.5456
▁środek	-10.5459
▁alarm	-10.546
▁miesiącu	-10.546
dostęp	-10.5461
▁sugeruje	-10.5464
▁rozwiązań	-10.547
▁przypis	-10.5473
cięcia	-10.5474
▁pomagają	-10.5474
▁brakuje	-10.5474
▁zauważa	-10.5474
▁uprawia	-10.5476
▁eksplo	-10.5478
▁nagrody	-10.548
kub	-10.5481
▁oryginalne	-10.5481
SU	-10.5483
▁śniadanie	-10.5492
skończ	-10.5496
▁dokumentów	-10.5496
▁Główny	-10.5503
▁gatunków	-10.5504
dziwi	-10.5505
▁prędkość	-10.5505
NS	-10.5506
▁pewni	-10.5509
▁doceni	-10.552
▁okno	-10.5521
▁Pomimo	-10.5523
▁kawy	-10.5523
▁szlak	-10.5524
▁zgłasza	-10.5524
LO	-10.5524
▁mediów	-10.5533
rosły	-10.5535
▁współczynnik	-10.5536
▁zamiar	-10.5536
▁podąża	-10.5543
▁transakcji	-10.5544
▁gum	-10.5549
tive	-10.555
▁największych	-10.5552
czucia	-10.5552
▁You	-10.5552
▁ostatniej	-10.5557
adek	-10.5561
king	-10.5564
▁Byłem	-10.5564
▁rozumiem	-10.5566
▁hipo	-10.5567
▁znajdował	-10.5576
▁inicjatyw	-10.5582
▁ryzyk	-10.5589
suń	-10.5591
▁szczęśliwy	-10.5595
▁stosuje	-10.5595
RT	-10.5595
LC	-10.5599
▁powoli	-10.5603
▁myślisz	-10.5606
▁ozdob	-10.5607
▁wzór	-10.561
▁zielony	-10.561
▁studio	-10.5611
▁kupił	-10.5612
▁popularny	-10.5619
▁cała	-10.5619
▁jeździ	-10.562
pisanie	-10.5621
optymaln	-10.5623
archi	-10.5624
▁chcemy	-10.5624
▁gwałt	-10.563
▁tarcz	-10.5631
stawiony	-10.5636
▁pęk	-10.5639
▁Dodatkowo	-10.5641
▁różnice	-10.5643
▁Peter	-10.5646
odor	-10.5647
▁dziwne	-10.5648
owuje	-10.5654
out	-10.5657
sper	-10.5657
▁Jesteś	-10.5657
▁niewielki	-10.5665
▁Van	-10.5668
JE	-10.5671
▁dziękuję	-10.5671
▁skończył	-10.5673
▁kłopot	-10.5676
▁farb	-10.5677
▁łóżka	-10.568
▁komponent	-10.568
▁określonych	-10.5684
▁piękna	-10.5691
▁talent	-10.5695
▁zapewniając	-10.5696
▁kąt	-10.5697
▁Cre	-10.5699
▁biega	-10.5706
▁Człon	-10.5707
▁częściowo	-10.5708
wełn	-10.571
▁wczoraj	-10.5723
▁cieszyć	-10.5727
▁kg	-10.5729
▁odpowiedział	-10.5731
▁pojazdów	-10.5734
▁wojen	-10.5735
▁agent	-10.5743
▁Każde	-10.5746
kończenie	-10.5747
▁białym	-10.5748
▁Black	-10.575
▁przyjaciółmi	-10.5751
Ä	-10.5754
▁konsul	-10.5755
włókn	-10.5756
▁obszarów	-10.5756
▁myszy	-10.5767
▁limit	-10.5768
▁publicznej	-10.5769
▁następnego	-10.5772
▁charakterystycz	-10.5774
▁Hill	-10.5776
▁Zestaw	-10.5778
▁dialog	-10.578
▁kampanii	-10.5781
▁ciśnienia	-10.5783
▁przyciąga	-10.5783
▁substancji	-10.5784
▁tradycyjny	-10.5784
TP	-10.5784
▁straci	-10.5792
▁Komisji	-10.5795
▁energię	-10.5798
rick	-10.58
śmiał	-10.5801
▁sesji	-10.5805
▁choroba	-10.5807
▁mierze	-10.5809
dawca	-10.5809
▁piosenka	-10.5814
▁przebywa	-10.5815
▁smartfon	-10.5817
▁pochodzą	-10.5823
TS	-10.5829
▁chciałbym	-10.5829
▁publicznych	-10.583
▁Christ	-10.5837
stwem	-10.5837
▁taśm	-10.5838
▁handlowe	-10.5841
▁finansowych	-10.5841
▁wyjścia	-10.5844
▁wiadomo	-10.5847
▁przypomni	-10.5848
▁czerwone	-10.585
miejski	-10.5851
get	-10.5874
▁skorzystać	-10.5875
▁tworzą	-10.588
▁sterownik	-10.5882
▁Par	-10.5885
▁słońca	-10.5885
▁dekad	-10.5899
▁upewnić	-10.5904
fort	-10.5906
szukuj	-10.5908
▁oprócz	-10.5912
▁Smith	-10.5916
▁konieczności	-10.5926
▁regularnie	-10.5928
CP	-10.5931
krypt	-10.5934
▁Cel	-10.5937
▁robisz	-10.5939
▁Komisja	-10.594
▁Frank	-10.594
▁Sar	-10.5943
▁stanowisko	-10.5943
ńską	-10.595
▁modlitw	-10.5956
▁śnieg	-10.5959
▁baterii	-10.5962
▁obecność	-10.5962
sługują	-10.5963
▁oryginalny	-10.5972
▁decyzję	-10.5977
▁konfiguracji	-10.598
▁chorób	-10.5984
▁Unii	-10.5987
▁obiad	-10.5988
czekolad	-10.5989
▁najważniejszy	-10.5993
wtór	-10.5994
▁leki	-10.6004
▁najbliższy	-10.6006
ctwa	-10.6007
▁North	-10.6008
▁klawisz	-10.6009
▁Green	-10.601
sługuje	-10.6011
▁List	-10.6012
ciśnie	-10.6015
▁handlowy	-10.6017
▁szybciej	-10.6022
▁wejść	-10.6025
▁łodzi	-10.6033
▁fanów	-10.6035
▁znajdzie	-10.6036
dziesięciu	-10.6038
▁ogłosił	-10.6038
▁koron	-10.604
▁ramiona	-10.6051
▁Center	-10.6051
▁nauczyć	-10.6053
▁Phil	-10.6058
▁automatyczne	-10.6059
▁fizyczny	-10.606
▁głównej	-10.6065
▁High	-10.6066
▁lokalizacja	-10.6067
▁głową	-10.6067
▁poniedziałek	-10.6069
▁Dobrze	-10.6069
▁rozpoczął	-10.607
▁stock	-10.6074
▁stosować	-10.6077
▁idealnie	-10.6087
▁sos	-10.609
ój	-10.6092
▁King	-10.6093
▁Francji	-10.6094
▁pokarm	-10.6094
▁wolności	-10.6096
LU	-10.6096
▁wejście	-10.6097
OW	-10.6106
▁pełno	-10.6109
▁ograniczone	-10.611
▁wcale	-10.6112
▁szkolenia	-10.6116
▁psa	-10.612
odawcy	-10.6121
yfikacja	-10.6125
gęst	-10.6125
▁foto	-10.6127
siedl	-10.6134
▁wejścia	-10.6136
▁twoich	-10.6145
agres	-10.6146
▁otacza	-10.6151
EGO	-10.6155
▁Również	-10.6163
▁nazw	-10.6166
▁Bill	-10.6173
TC	-10.6173
powiększ	-10.6176
AG	-10.6178
HA	-10.6178
▁zdrowy	-10.6178
▁warsztat	-10.6183
▁Anglii	-10.6183
▁zarabia	-10.6183
alizm	-10.6183
▁Wśród	-10.6186
▁skorzysta	-10.6195
▁telewizji	-10.6201
▁odzież	-10.6206
▁informacja	-10.621
▁Specja	-10.621
▁następne	-10.6215
▁Tru	-10.6216
▁artykule	-10.6222
▁Północnej	-10.6229
jczyk	-10.6234
▁etykiet	-10.6236
Prac	-10.6236
▁ochronę	-10.6236
▁certyfikat	-10.6237
▁temperaturze	-10.6242
▁Książ	-10.6244
▁Hiszpan	-10.6249
▁Państwo	-10.6252
▁relacje	-10.6252
krotnie	-10.6256
▁potrzebują	-10.626
skakując	-10.6264
▁sygn	-10.6265
wija	-10.6268
▁Poniżej	-10.6269
sunięci	-10.627
▁rosyjski	-10.627
▁książkę	-10.6272
RP	-10.6275
▁drogą	-10.628
▁organizacja	-10.6286
▁techniczny	-10.6287
▁wielką	-10.6287
▁okazję	-10.6288
▁karmi	-10.6289
well	-10.6289
▁College	-10.6292
▁rzeki	-10.6292
▁radości	-10.6295
▁dziedzic	-10.6297
▁zwykłe	-10.6299
▁pokazać	-10.63
▁wykonany	-10.631
▁Ran	-10.632
▁zjawisk	-10.6322
bet	-10.6323
▁czytelnik	-10.6323
▁farm	-10.633
▁niestety	-10.6332
▁Pyta	-10.6334
▁sobotę	-10.6343
▁ostatniego	-10.635
▁gospodarz	-10.6351
▁zdobywa	-10.6352
▁stale	-10.6369
▁dowodów	-10.6369
▁wybrał	-10.6369
roczny	-10.6372
▁powinniśmy	-10.6375
▁wydruk	-10.6375
><	-10.6379
▁niezbędny	-10.638
trzymywani	-10.6382
▁osłon	-10.6384
▁przyjemności	-10.639
▁wysoką	-10.639
dawania	-10.64
▁psy	-10.6407
▁Badania	-10.6409
▁Test	-10.6411
ręczne	-10.6411
▁Publi	-10.6415
▁grupę	-10.6417
budowane	-10.6417
▁Chyba	-10.6417
kształ	-10.6418
▁wyszukiwa	-10.6425
▁chirurg	-10.6446
▁członkiem	-10.6446
▁rozpoczęcie	-10.6456
▁obiektyw	-10.6457
święci	-10.6459
▁Rzecz	-10.646
▁członkowie	-10.6463
▁napięcia	-10.6464
używa	-10.6465
▁specjalnie	-10.6469
▁dodatkowy	-10.6477
Pro	-10.6479
▁wtorek	-10.6481
▁prezes	-10.6482
▁restauracja	-10.6487
▁popularne	-10.6488
▁pojedyncze	-10.6493
▁kontekście	-10.6496
▁ciągle	-10.6498
▁wersję	-10.6499
▁zapewnienia	-10.6501
▁przyszłe	-10.6501
krot	-10.6501
▁Zrobi	-10.6503
wilż	-10.6509
▁Ogólnie	-10.6513
▁arkusz	-10.6514
▁zdrowe	-10.6517
▁ciężkie	-10.6517
▁pojemnik	-10.6519
prz	-10.652
▁linie	-10.6523
▁Później	-10.6524
▁najlepszą	-10.6524
▁byłaby	-10.653
stawione	-10.6533
▁nogi	-10.6534
▁hydro	-10.6535
▁jednostek	-10.6539
▁Tar	-10.654
▁folder	-10.6547
▁uwolni	-10.6548
▁zawartość	-10.6551
▁skutki	-10.6551
korzeni	-10.6553
▁Kocha	-10.6555
public	-10.6557
pir	-10.6563
▁druga	-10.6565
▁poniższy	-10.6569
▁zmniejszyć	-10.6569
▁zestawie	-10.6573
▁stracił	-10.6584
RC	-10.6591
rabia	-10.6592
▁spadł	-10.6594
▁Celem	-10.6599
<	-10.6602
▁rekrut	-10.6602
▁wykonuje	-10.6603
▁relaks	-10.6611
▁użytkowania	-10.6612
▁Proces	-10.6613
▁zamówienie	-10.6616
▁uciec	-10.6618
▁absolutnie	-10.662
▁zapytał	-10.6621
▁tradycyjne	-10.6624
roczne	-10.6627
▁nagrywa	-10.6631
▁sprzeciw	-10.6632
UN	-10.6633
▁małą	-10.6643
▁Nikt	-10.6645
strzyk	-10.6649
▁ciepło	-10.665
▁niszcz	-10.6653
▁Szcz	-10.6655
▁przeznaczony	-10.6657
dium	-10.6658
▁wdraża	-10.6663
▁pozytywne	-10.6665
▁targ	-10.6672
▁bezpłatny	-10.6684
▁rodzinie	-10.6686
▁błędy	-10.6686
▁odczuwa	-10.6691
▁dziennik	-10.6693
▁klienci	-10.6698
referen	-10.67
▁świąteczn	-10.6712
▁przygod	-10.6717
▁eksport	-10.6722
▁spotkał	-10.6724
▁wyjątkowo	-10.6726
▁turniej	-10.673
▁powodować	-10.673
▁poprawy	-10.6736
▁zadowolony	-10.6738
▁udowodni	-10.6742
▁technologia	-10.6744
▁pozytywny	-10.6746
▁pisarz	-10.6753
▁prosta	-10.6754
▁doktor	-10.6755
FC	-10.6756
▁powszechnie	-10.6757
▁Artykuł	-10.6762
▁społecznych	-10.677
▁śledzi	-10.6773
▁cyfrowe	-10.6775
▁festiwal	-10.6778
▁zainteresowanie	-10.678
▁motocykl	-10.678
▁bycia	-10.6786
▁świeże	-10.6787
▁kąpiel	-10.6791
▁morza	-10.6792
▁DNA	-10.6794
▁praktycznie	-10.6801
▁broń	-10.6802
potrzeb	-10.6802
▁nowoczesne	-10.6804
▁leczeniu	-10.6805
▁zrozumienie	-10.6806
▁Departament	-10.6808
▁Europe	-10.6811
▁bezpłatne	-10.6816
▁robocze	-10.6819
▁włoski	-10.682
izowany	-10.6823
▁zachód	-10.6823
▁Korzysta	-10.6833
▁brzuch	-10.6836
▁Sport	-10.6839
▁użyj	-10.684
▁wykończ	-10.6841
rent	-10.6846
▁kościoła	-10.6848
▁następujących	-10.6849
▁nauczania	-10.6857
▁słońce	-10.6866
▁kariery	-10.6866
▁odpowiedzialny	-10.6868
▁ciężarów	-10.6868
▁wyjść	-10.687
EA	-10.687
▁Twoich	-10.6871
▁obserwuj	-10.6871
▁doświadcza	-10.6874
▁multi	-10.6875
▁Stre	-10.688
▁ubrania	-10.6882
▁Chcesz	-10.6887
blok	-10.6887
▁wyszukiwania	-10.6888
siada	-10.6889
▁sądzę	-10.6894
▁głośnik	-10.6895
▁ciągłe	-10.6905
▁profesor	-10.6911
▁świetna	-10.6911
delikat	-10.6912
▁przyszłym	-10.6913
▁tożsamości	-10.6915
▁jakiegoś	-10.6915
▁niedzielę	-10.6917
▁obejmował	-10.6918
▁tabeli	-10.6919
▁Analiz	-10.6919
pełn	-10.6921
</	-10.6926
rodzony	-10.6929
▁Thomas	-10.6933
kazują	-10.6936
▁objawy	-10.6936
cjom	-10.6945
▁zaprasza	-10.6945
▁operacyjny	-10.6948
▁wszędzie	-10.695
fabryk	-10.6952
▁segment	-10.6954
▁Internecie	-10.6954
▁wykazały	-10.6957
▁gitar	-10.6957
▁Szuka	-10.6957
dawanie	-10.6963
▁zdecydował	-10.6964
▁Mogą	-10.6966
▁zrozumienia	-10.6969
▁sytuację	-10.6975
TER	-10.6988
▁zakaz	-10.6989
▁elektron	-10.7
▁urzędnik	-10.7004
rozwiązywa	-10.7006
▁aktywność	-10.7013
▁medyczny	-10.7015
book	-10.7015
▁zgromadz	-10.7016
▁okien	-10.7017
▁zawodowe	-10.7019
▁najważniejsze	-10.702
▁Twitter	-10.7023
fel	-10.7031
▁zaproponowa	-10.7036
▁przejrz	-10.7036
▁skonfigurowa	-10.7038
▁nauczył	-10.7038
▁liści	-10.7039
▁napięcie	-10.704
▁uczucie	-10.7045
▁Jeszcze	-10.7047
▁udziela	-10.7048
▁Kier	-10.7053
▁odkrywa	-10.7055
▁Men	-10.7057
▁myśleć	-10.7058
▁widokiem	-10.7058
▁zapobiec	-10.7059
▁ustawić	-10.706
▁publicznego	-10.706
▁operacyjne	-10.7061
▁iPhone	-10.7063
czące	-10.7065
▁harmonogram	-10.7066
▁wagi	-10.7068
▁żadne	-10.7069
▁Trzeba	-10.7073
pielęgniar	-10.7077
▁przetwarzania	-10.7077
▁słabo	-10.7078
▁Ameryce	-10.7081
▁odporności	-10.7081
niczej	-10.7085
▁cyfrowy	-10.7091
▁indywidualny	-10.7096
reak	-10.7097
▁uczniowie	-10.7099
▁oznak	-10.7099
▁Materiał	-10.7099
▁ciepl	-10.7102
▁aplikację	-10.7102
▁kształcie	-10.7103
▁większa	-10.711
▁Rosji	-10.7111
▁klawiatur	-10.7111
▁jutro	-10.7113
▁Indiach	-10.7118
▁ustawień	-10.7119
rezydent	-10.712
▁transfer	-10.7122
▁połączone	-10.7126
▁zagrożenia	-10.714
przyjazn	-10.7142
▁kontekst	-10.7146
▁ściga	-10.7148
▁kręg	-10.7152
krocz	-10.7152
▁taras	-10.7161
▁South	-10.7164
▁laptop	-10.7165
▁przeznaczone	-10.7165
▁zielone	-10.7167
▁Wreszcie	-10.7171
▁lunch	-10.7171
▁rezultat	-10.7174
▁walut	-10.7175
▁internetowe	-10.7176
▁katastrof	-10.7176
▁główną	-10.7178
▁prowadzenia	-10.7182
stępując	-10.7183
pozytyw	-10.7183
▁Australii	-10.7184
▁Lokal	-10.7196
SM	-10.7196
▁dziedzin	-10.7197
▁okrąg	-10.72
kowski	-10.7202
specyfik	-10.721
▁Rol	-10.7213
EG	-10.7215
▁Fer	-10.7232
pęd	-10.7233
knij	-10.7237
▁dowody	-10.7237
▁wykonywania	-10.7237
▁AliExpress	-10.724
▁bezpośrednie	-10.7241
▁przełącznik	-10.7246
▁umożliwiając	-10.7248
transform	-10.7248
▁Pierwsze	-10.7253
▁wyzwania	-10.7253
▁kół	-10.7258
▁czwartek	-10.726
▁Innym	-10.7266
▁uczelni	-10.7267
ńczyk	-10.7269
mięk	-10.727
PP	-10.7273
▁rośnie	-10.7283
▁Central	-10.7284
rian	-10.7284
▁Harry	-10.7287
▁rocznie	-10.7288
wróć	-10.7293
IĘ	-10.7294
▁szerokie	-10.7295
▁utrzymania	-10.7299
Time	-10.73
ńcu	-10.7301
AA	-10.7302
▁kawa	-10.731
pomarańcz	-10.7311
▁Jedna	-10.7312
muzułm	-10.7317
▁punkcie	-10.7322
▁Wymaga	-10.7323
▁ważna	-10.7325
▁dodatkowo	-10.7332
▁mocz	-10.7333
Ć	-10.7333
▁aktualizacji	-10.7335
▁uszkodzenia	-10.7341
▁włącza	-10.7343
▁emerytur	-10.7343
▁doczekać	-10.7348
przytul	-10.7353
bron	-10.7353
▁kilkoma	-10.7359
▁rodziną	-10.7366
▁oddycha	-10.7369
▁stworzenia	-10.737
▁komputerze	-10.7372
▁przyjazny	-10.7373
▁bezpieczny	-10.7375
▁Uwielbiam	-10.7376
▁Witam	-10.7381
▁komórkowy	-10.7383
▁Chodzi	-10.7384
▁spowodowane	-10.7384
▁restaur	-10.7385
▁głośno	-10.739
▁ekolog	-10.7392
▁indyjski	-10.7397
▁import	-10.7402
dawane	-10.7407
▁japoński	-10.7414
▁Rzym	-10.7418
▁PRO	-10.7421
mieszczenie	-10.7424
▁otworzyć	-10.7428
▁niepokoj	-10.7429
▁utrudni	-10.7431
▁podejścia	-10.7435
▁najnowszy	-10.7435
▁Steve	-10.7445
▁prowadzenie	-10.7453
ington	-10.7454
ślizg	-10.7456
▁Martin	-10.746
▁złoty	-10.7461
integro	-10.7462
▁stosowanie	-10.7471
▁podzielić	-10.7477
▁Gór	-10.7479
▁wyrok	-10.7493
▁zawodnik	-10.7496
town	-10.7496
▁dokładne	-10.7497
▁instytucji	-10.7501
▁najnowsze	-10.7503
▁pian	-10.7507
▁zablokowa	-10.751
▁przeciwnym	-10.7517
respond	-10.7518
▁niewielkie	-10.7521
▁brud	-10.7531
▁interwencj	-10.7531
▁Road	-10.7537
▁Adam	-10.754
▁Dzień	-10.7541
▁otworzył	-10.7542
▁jasny	-10.7542
var	-10.7546
debiut	-10.7546
▁powłok	-10.7547
▁World	-10.7551
▁Najpierw	-10.7553
esja	-10.7553
▁koszyk	-10.7554
▁połączeń	-10.7555
▁laser	-10.7556
OG	-10.7561
RM	-10.7566
▁zająć	-10.7567
▁głębi	-10.757
▁umieścić	-10.7572
▁Patrz	-10.7573
▁budynek	-10.7576
▁reżyser	-10.758
▁pozostałych	-10.7581
▁State	-10.7581
▁uczucia	-10.7584
▁globalne	-10.7586
▁skarb	-10.7588
▁południe	-10.7591
▁kluczowych	-10.7592
▁Południowej	-10.7593
▁przemyśle	-10.7594
▁zapalenie	-10.7595
▁wysokość	-10.7604
CR	-10.7606
▁komor	-10.7607
▁gotowe	-10.7607
▁pojedynczy	-10.7608
▁Nazwa	-10.7614
▁osobiście	-10.7616
▁​​	-10.7617
▁zaburzenia	-10.7617
▁flag	-10.7619
▁partii	-10.7627
odpowiedzialność	-10.7631
▁procesor	-10.7632
▁wskazówek	-10.7633
▁międzynarodowy	-10.7639
▁Użyj	-10.7641
▁wiąże	-10.7644
▁źródłem	-10.7653
▁wskazówki	-10.7656
▁wygrał	-10.7662
▁Wystarczy	-10.7667
różnorod	-10.7677
satelit	-10.7677
▁Średni	-10.7682
ńców	-10.7685
▁protest	-10.7687
▁kurczak	-10.7688
▁pisze	-10.7688
godna	-10.7691
▁Stock	-10.7699
▁wprowadzenie	-10.7699
▁bazie	-10.77
▁elegancki	-10.7703
▁jelit	-10.7703
▁tylne	-10.7704
przyjaźni	-10.7714
▁ćwiczenia	-10.7723
▁Chciałbym	-10.7728
tłumacz	-10.7732
▁wschód	-10.7732
▁indywidualne	-10.774
▁Hon	-10.774
▁Minister	-10.7741
▁termo	-10.7744
toksycz	-10.7744
▁ćwiczeń	-10.7745
▁Rock	-10.7748
▁elektroniczne	-10.7749
▁sąsiad	-10.7753
IG	-10.776
▁Richard	-10.7762
regular	-10.7763
▁komórkowe	-10.7766
▁łącznie	-10.7769
▁końcowy	-10.7771
▁gazet	-10.7771
▁towarzyszy	-10.7778
▁bogaty	-10.778
▁człowiekiem	-10.7788
▁ustala	-10.7793
▁Nadal	-10.7793
▁nikogo	-10.7795
▁pamięć	-10.7797
precyzyjn	-10.7801
▁istotny	-10.7807
▁konstrukcja	-10.7809
▁prognoz	-10.7811
▁rozczarow	-10.7826
▁myślenia	-10.7835
▁rozciąga	-10.7839
▁dyplom	-10.7842
obraz	-10.7843
▁następujący	-10.7849
▁lokalnym	-10.785
▁chory	-10.7853
benz	-10.7856
▁rzadki	-10.7857
▁żart	-10.7859
▁Pierwsza	-10.7863
▁geograf	-10.7865
▁Ameryki	-10.7867
▁tabel	-10.787
▁sugerują	-10.7871
▁prawidłowe	-10.7873
▁porównywa	-10.7873
▁Zarządza	-10.7878
kazywał	-10.7887
▁przyczep	-10.7892
▁postępowania	-10.7894
llen	-10.7894
▁grill	-10.7898
▁świadomości	-10.79
▁prawdopodobne	-10.7902
▁zamknięty	-10.7906
▁pewność	-10.7907
▁Zapraszam	-10.791
▁Albo	-10.7913
▁podwójne	-10.7924
▁bomb	-10.7926
▁Japonii	-10.7929
rącz	-10.7933
▁statystyk	-10.7943
▁napędza	-10.7945
▁widzą	-10.7946
▁sprawdzi	-10.7948
▁przydatne	-10.795
▁zainteresowany	-10.7964
▁zapłacić	-10.7965
▁pobrać	-10.7965
▁zwiększenie	-10.7968
▁regulacji	-10.7975
technolog	-10.7976
▁balkon	-10.7977
▁Upewnij	-10.7978
▁ciele	-10.798
▁zaprojektowany	-10.7992
▁południowy	-10.7994
▁barier	-10.7996
▁klientom	-10.7999
▁obejrz	-10.7999
▁ulubione	-10.8002
á	-10.8006
▁ocenę	-10.8011
▁Brown	-10.8013
▁Indian	-10.8013
▁Ann	-10.8016
▁General	-10.8018
KU	-10.802
▁chleb	-10.8024
▁Zanim	-10.8032
▁szablon	-10.8035
▁Zjednoczone	-10.8037
▁Komitet	-10.8037
▁Zespół	-10.8039
gałęzi	-10.8041
PU	-10.8044
▁szczegółowe	-10.8054
▁ocean	-10.8057
▁cztero	-10.8059
kręca	-10.8059
▁pozwolił	-10.8061
▁móc	-10.8067
▁wież	-10.8067
rządzi	-10.8069
▁rodzinne	-10.8069
▁ściśle	-10.8079
▁piosenki	-10.8081
▁rodzinny	-10.8081
▁słoneczne	-10.8086
▁legend	-10.8088
▁planet	-10.8089
▁bezpiecznie	-10.8091
RU	-10.8093
▁idea	-10.8095
▁Facebook	-10.8097
▁rzeźb	-10.8097
▁wręcz	-10.8105
▁pieprz	-10.8108
▁National	-10.8111
▁Sol	-10.8119
▁kolekcji	-10.812
▁ekstra	-10.8122
▁społeczność	-10.8122
▁Europejskiej	-10.8124
▁ograniczony	-10.8127
▁zawarte	-10.8133
porządkowa	-10.8137
EP	-10.814
▁zapewnienie	-10.8143
▁Home	-10.8148
yzacja	-10.8156
▁córka	-10.8157
harmoni	-10.8157
godność	-10.8161
▁zmniejszenie	-10.8174
▁prawidłowo	-10.818
▁zdarzenia	-10.8181
▁dawna	-10.8181
cyjnie	-10.8181
▁Muzeum	-10.8193
▁zastosować	-10.8197
▁skuteczny	-10.8199
▁kieszeni	-10.8201
▁Rok	-10.8202
▁obsługuje	-10.8204
łączona	-10.8206
The	-10.8206
▁projektant	-10.8206
▁jednostka	-10.8206
▁głowie	-10.8207
▁zaakceptowa	-10.8211
▁grzyb	-10.8214
▁sercu	-10.8218
▁Rysunek	-10.8219
▁Twoją	-10.8221
▁żołąd	-10.8223
▁ogród	-10.8223
▁decyzja	-10.8225
trzymując	-10.8231
▁wspomaga	-10.8233
▁hałas	-10.8238
▁pełen	-10.8239
▁ankiet	-10.8242
samo	-10.8242
▁ciepłe	-10.8243
▁beton	-10.8245
▁Badanie	-10.8258
▁Biorąc	-10.8263
wszech	-10.8264
▁ręki	-10.8266
▁motor	-10.8267
▁podjąć	-10.8267
▁Skład	-10.8269
▁obciążenia	-10.8271
chodzących	-10.8274
▁proporcj	-10.8276
▁Niezależnie	-10.8277
▁Przedstawi	-10.8283
▁normalny	-10.8284
▁jedyne	-10.8285
▁zwolnieni	-10.8285
▁skąd	-10.8289
▁zagrożenie	-10.8291
▁okular	-10.8293
▁stopień	-10.8301
kazane	-10.8303
▁makijaż	-10.8306
▁dzieckiem	-10.831
ludzki	-10.831
▁wakacje	-10.8314
ywna	-10.8316
▁zdarza	-10.8321
▁Meksyk	-10.8322
▁naciśnij	-10.8332
▁skarg	-10.8335
▁konferencji	-10.8336
trysk	-10.8336
▁kolejności	-10.8338
▁Wskaz	-10.8338
▁Niemcy	-10.8338
▁Gold	-10.8339
▁bierze	-10.8341
▁niczym	-10.8341
▁współczesne	-10.8345
▁seksualne	-10.8347
▁licencji	-10.8354
Sh	-10.8356
▁dzwon	-10.8367
▁odbędzie	-10.8379
IR	-10.838
▁Szczegół	-10.8381
▁dziesięć	-10.8383
▁reform	-10.8385
▁wielkość	-10.8385
▁leży	-10.8387
▁Łącz	-10.8392
Ź	-10.8399
▁Część	-10.8401
▁zaangażowany	-10.8403
▁oficer	-10.841
▁spowodował	-10.8413
▁nagrodę	-10.8414
inger	-10.8415
▁Powiedz	-10.8421
▁zasoby	-10.8423
▁płaszcz	-10.8432
▁York	-10.8435
CY	-10.8442
▁umiera	-10.8442
▁rezultacie	-10.8442
▁analog	-10.8443
▁składnik	-10.8443
▁wodny	-10.8444
▁braci	-10.8445
▁przyjmuje	-10.8445
▁przyczynia	-10.8456
▁żar	-10.8464
·	-10.8465
technic	-10.847
▁Muszę	-10.8474
metabol	-10.8476
▁utraty	-10.8478
▁macierzy	-10.8478
▁Waszyngton	-10.848
▁obraca	-10.8493
▁zaczęli	-10.8493
▁częst	-10.8498
▁maksymalne	-10.8498
▁linię	-10.8499
  	-10.8502
▁następuje	-10.8505
▁pięcio	-10.8506
▁oczyszcza	-10.8508
▁uniemożliwi	-10.8511
▁Włoch	-10.8511
Zachodni	-10.8517
.............	-10.8518
wielbi	-10.8519
normal	-10.8524
▁powiedzieli	-10.8525
▁zajęć	-10.8526
▁dyskusji	-10.8529
▁przejście	-10.8539
▁przeszkod	-10.8543
▁ryż	-10.8547
▁przyjęcia	-10.8548
▁Jedną	-10.8548
▁gorące	-10.8551
▁pracując	-10.8552
▁aplikacje	-10.8554
▁uroczy	-10.8555
ŁA	-10.8568
▁Obiekt	-10.8569
▁przygotować	-10.8573
Czerwon	-10.8582
ministra	-10.8584
▁itd	-10.8585
▁spędził	-10.8586
▁Kalifornii	-10.8588
▁dotarł	-10.8589
▁Kontrol	-10.8591
▁wieczór	-10.8592
‚	-10.8594
▁czoło	-10.8595
▁dróg	-10.8602
▁Niemiec	-10.8602
▁poinformował	-10.8607
▁kres	-10.8608
▁szerokości	-10.8608
▁ważną	-10.861
▁wodne	-10.8616
▁sprawić	-10.8617
encją	-10.8619
▁początkowo	-10.8623
▁Personalizacja	-10.8625
▁pojemności	-10.8629
▁Paryż	-10.8635
▁trudniej	-10.8638
▁sprawdź	-10.8642
▁każdemu	-10.8642
▁statyst	-10.8652
▁chętnie	-10.8657
▁indeks	-10.8659
średni	-10.8664
maryn	-10.8666
franc	-10.8669
łożeniu	-10.8672
▁przypadki	-10.8673
▁zdjęciu	-10.8682
▁administrator	-10.8686
▁użytkow	-10.8687
▁Jim	-10.8689
błyszcz	-10.8689
prowadź	-10.8693
▁dłuższy	-10.8694
▁teorii	-10.8697
▁dziur	-10.8697
▁przemocy	-10.8698
struktur	-10.8699
▁Page	-10.8705
▁Święte	-10.8705
▁odległość	-10.8707
▁powiązane	-10.8708
▁Pozostał	-10.8713
▁więzienia	-10.8714
▁generalny	-10.8716
RNA	-10.8717
▁jedyną	-10.872
▁funkcjonariusz	-10.8722
▁spadek	-10.8722
▁prowadzą	-10.8723
▁zamknięte	-10.8728
▁zasadniczo	-10.8731
▁Ważne	-10.8731
▁prowadzone	-10.8734
▁wzgórz	-10.8735
▁otrzymują	-10.8742
pacz	-10.8742
▁znaleźli	-10.8743
▁cukier	-10.8748
▁wyprzedz	-10.8752
▁Zwykle	-10.8765
▁kierownic	-10.8775
▁znaczący	-10.8777
▁publiczny	-10.8789
▁Ciekaw	-10.8792
▁Wielka	-10.8793
▁obsługę	-10.8794
finansowa	-10.8807
▁Opera	-10.8812
▁Europejski	-10.8812
noszenie	-10.8813
▁Zauważ	-10.8816
▁skontaktuj	-10.8818
▁śmieci	-10.8831
▁fundament	-10.8831
▁Szczególn	-10.8833
ystów	-10.8835
wymiar	-10.8837
▁łuk	-10.8849
▁sponsor	-10.8859
▁zamieszka	-10.8859
druk	-10.8863
#	-10.8864
potencjaln	-10.8866
▁ocena	-10.887
ografii	-10.8872
▁oczywiste	-10.8876
▁wysłać	-10.8876
▁wysiłku	-10.888
▁przyjęcie	-10.8881
▁wyżej	-10.8882
▁podatku	-10.8883
▁wzrasta	-10.8883
spól	-10.8885
▁paznokci	-10.8889
▁niezależny	-10.8893
▁budynków	-10.8899
▁material	-10.8904
▁ogół	-10.8918
▁Organ	-10.8918
wiązał	-10.8919
pienięż	-10.8921
▁atrakcji	-10.8921
▁nakaz	-10.8923
Organiz	-10.8925
▁ogromną	-10.8927
▁Kongres	-10.8928
▁pomieszczenia	-10.8932
▁toreb	-10.8938
▁szkolny	-10.8944
determin	-10.8949
▁lęk	-10.8949
▁połowy	-10.895
▁rąk	-10.895
▁kanap	-10.8952
▁instrukcji	-10.8958
▁hormon	-10.896
▁zębów	-10.896
▁powszechne	-10.896
▁uniwersytet	-10.8962
▁Intel	-10.8964
▁psycho	-10.8973
▁wcześnie	-10.8976
główk	-10.8991
▁umów	-10.8997
▁Użytkownik	-10.8999
▁młodzi	-10.901
▁głod	-10.9011
▁świątyni	-10.9012
krwaw	-10.9023
▁Uniwersytecie	-10.9023
▁ścieżki	-10.9023
▁Wcześniej	-10.9025
▁otrzymywa	-10.9034
▁czuć	-10.9034
▁toalet	-10.9043
▁lubisz	-10.9044
▁zabrać	-10.905
▁Raport	-10.9053
▁Chan	-10.9053
▁zgody	-10.9054
▁rozpowszechni	-10.906
niesiony	-10.9062
▁zaprojektowane	-10.9063
▁odcieni	-10.9063
▁szczęścia	-10.9064
▁elimin	-10.9067
▁próbując	-10.9078
▁ramię	-10.9092
październik	-10.9095
▁akcesoria	-10.9095
CJA	-10.9097
▁ostrzega	-10.9097
▁bagaż	-10.9098
▁silnie	-10.9099
▁dotychczas	-10.9102
▁twardy	-10.9103
▁kawałek	-10.9108
▁osłabi	-10.9117
twierdzono	-10.912
▁diety	-10.912
▁końcowe	-10.9123
EX	-10.9124
ü	-10.9132
Tabela	-10.9139
▁Karol	-10.914
elekt	-10.915
▁ładowania	-10.9156
▁dłuższe	-10.9157
▁wyeliminowa	-10.9159
pycha	-10.9161
▁przygotowywa	-10.9163
▁starsze	-10.917
▁trwałe	-10.9173
▁Standard	-10.9175
▁PRZE	-10.9177
▁przeszkadza	-10.9179
▁łącząc	-10.9183
▁zmienne	-10.9183
▁forum	-10.9186
▁kierownik	-10.9186
▁walce	-10.9189
▁istniał	-10.9193
▁ładunk	-10.9195
▁otwarcie	-10.9201
▁historie	-10.9206
▁jakiekolwiek	-10.9207
▁Service	-10.921
wentyl	-10.9212
▁rzędu	-10.9218
społeczeństw	-10.922
▁monet	-10.9222
▁tzw	-10.9226
▁zawierające	-10.9229
▁House	-10.9246
▁siłowni	-10.9249
▁morskie	-10.9251
▁Dzisiaj	-10.9263
Widzi	-10.9267
▁poczuł	-10.9269
▁kostium	-10.927
▁Pokój	-10.927
chłon	-10.9274
▁Historia	-10.9279
dyrektyw	-10.9279
▁skraj	-10.9279
▁przypadek	-10.9281
▁Chris	-10.9282
▁decyzje	-10.9286
▁wspólnot	-10.9289
▁Henry	-10.929
▁dodatki	-10.9295
▁największą	-10.9297
▁terapeut	-10.9297
▁autorstwa	-10.9301
▁rękaw	-10.9302
▁końców	-10.9304
▁wielokrotnie	-10.9316
▁świadomość	-10.9317
▁wysoka	-10.9323
▁cukrzyc	-10.9323
▁jedyny	-10.9323
▁skał	-10.9327
▁zastosowań	-10.9331
Austral	-10.9337
▁Indii	-10.9338
▁Kolejny	-10.9339
zaawansowany	-10.9342
▁Rodzin	-10.9342
▁ładnie	-10.9349
Dziewczyn	-10.9351
▁Policja	-10.9354
▁ultra	-10.9354
RZE	-10.9355
▁cienki	-10.9355
▁ucieka	-10.9355
dyjski	-10.9376
▁lig	-10.9377
▁Najbardziej	-10.938
▁Kościół	-10.938
▁popyt	-10.9383
▁zadba	-10.9384
▁portfel	-10.9389
▁ustalenia	-10.939
▁Państw	-10.9391
▁telewizyjny	-10.9396
natural	-10.9398
▁kalendarz	-10.9398
▁widzieć	-10.94
▁europejskie	-10.9401
łożono	-10.9402
▁emisji	-10.9403
▁Dyrektor	-10.9412
▁Musimy	-10.9413
▁poprosił	-10.9413
▁wyjście	-10.9419
▁psów	-10.9422
▁odpowiedzieć	-10.9425
▁zobaczysz	-10.9431
godzin	-10.9433
▁przybył	-10.9434
▁Inform	-10.9443
▁Island	-10.9444
▁użytkownicy	-10.945
▁gospodarki	-10.9457
▁protokoł	-10.948
▁Chicago	-10.9485
▁islam	-10.9485
▁kawiarni	-10.9489
▁fajny	-10.949
▁wystarczające	-10.949
▁lewo	-10.9491
▁Koszt	-10.9491
▁Trudno	-10.9491
▁opiekun	-10.9493
▁Liczba	-10.9494
pętl	-10.9496
▁diagnoz	-10.9503
▁ustawienie	-10.9505
▁znaczące	-10.9512
▁członek	-10.9512
neutral	-10.9512
▁zespołem	-10.9519
▁klasyczny	-10.952
▁uwalnia	-10.9522
▁czwarte	-10.9523
▁bieli	-10.953
▁dostawców	-10.953
▁odkrył	-10.9531
▁samochodowy	-10.9533
▁skontaktować	-10.9533
▁pomogą	-10.9538
▁Niemczech	-10.954
▁świetle	-10.9545
▁incydent	-10.9547
▁impuls	-10.9547
ołowi	-10.9554
▁manipul	-10.9556
▁Efekt	-10.9556
Południow	-10.9561
▁rozdzielczości	-10.9565
▁lakier	-10.9567
▁gospodarczy	-10.9568
▁współpracę	-10.9574
▁formuł	-10.9579
▁spożywa	-10.9579
▁masaż	-10.9586
▁przekroczy	-10.9587
▁spółki	-10.9588
▁cyto	-10.959
▁oszczędza	-10.959
konwencjonal	-10.9595
▁rozpoczęła	-10.9595
▁odwiedzić	-10.9595
▁interakcji	-10.96
RZY	-10.96
▁Plus	-10.9601
▁Zawiera	-10.9602
▁książce	-10.9602
▁zawierający	-10.9602
▁uderzył	-10.9607
▁kampus	-10.9616
▁White	-10.9621
nieruchom	-10.9625
▁wierzch	-10.9638
skoczył	-10.9642
▁psychiczne	-10.9647
▁bogactw	-10.9647
▁XIX	-10.9653
▁Polska	-10.9663
międzynarodowych	-10.9664
Prowadz	-10.9664
▁potencjalne	-10.9668
▁Blue	-10.967
morf	-10.968
rystal	-10.9684
▁debat	-10.9689
▁główna	-10.969
ö	-10.9695
▁dowolnego	-10.9705
▁globalny	-10.9711
▁widoczny	-10.9718
▁Rząd	-10.9719
▁potraw	-10.9723
▁East	-10.9727
▁agencji	-10.9728
ysfakcj	-10.9729
▁ogólno	-10.973
▁późno	-10.9732
grup	-10.9738
▁skrzyni	-10.9742
sposob	-10.9742
▁Wood	-10.9744
▁dowiedział	-10.9745
▁samochody	-10.9751
▁tendencję	-10.9756
▁więź	-10.9767
nukle	-10.9768
▁dosłownie	-10.9768
▁szczycie	-10.9769
▁orzech	-10.9769
▁oszustw	-10.9774
▁dotrzeć	-10.9775
▁Daniel	-10.9778
▁rozmów	-10.978
▁Sztuk	-10.978
rutyn	-10.9789
▁samodzielnie	-10.9791
▁Qui	-10.9792
▁artystów	-10.9799
▁zdj	-10.9801
▁Tymczasem	-10.9803
▁konsekwencji	-10.9803
▁Angeles	-10.9803
tłocz	-10.9803
▁powrotu	-10.9804
▁absolwent	-10.9805
▁rzeczywiste	-10.9805
▁humor	-10.9814
▁miejskie	-10.9818
▁szczególny	-10.9818
▁siedmiu	-10.9822
▁intelektu	-10.9822
▁historyczne	-10.9827
▁objawów	-10.9829
▁błędu	-10.9832
▁algorytm	-10.9838
▁socjal	-10.9839
▁wielka	-10.9845
▁pierścieni	-10.9848
▁roboczy	-10.985
▁publiczności	-10.9857
▁pełna	-10.9866
▁praktyce	-10.9876
wierzchni	-10.9883
▁oszczędności	-10.9886
▁Louis	-10.9891
dmuch	-10.9892
▁Czeka	-10.9893
▁obawy	-10.9894
▁publiczne	-10.9899
▁wysiłki	-10.9901
▁suche	-10.9908
▁wziął	-10.9908
▁blokad	-10.9912
▁autostrad	-10.9914
Jeśli	-10.9914
▁kapitan	-10.9922
▁piękno	-10.9922
▁wykonują	-10.9932
fekt	-10.9933
▁Klucz	-10.9948
przestrzenn	-10.9951
▁gorący	-10.9953
jeździe	-10.9955
▁ekstrem	-10.996
▁fotel	-10.9961
▁Długo	-10.9962
▁stopniowo	-10.9963
▁badacz	-10.9966
▁pokład	-10.997
▁interesujące	-10.997
▁zmaga	-10.9975
▁Charles	-10.9978
złośliw	-10.998
▁wyobrazić	-10.9981
▁karierę	-10.9981
chodzę	-10.9986
▁hasła	-10.9991
▁podkład	-10.9996
ciągnął	-10.9997
▁Prawdopodobnie	-10.9998
▁hiszpański	-10.9998
▁usłyszał	-11.0006
▁pistolet	-11.0008
▁przyszłych	-11.0008
▁statku	-11.001
▁dwudziest	-11.0013
▁święto	-11.0023
▁doświadczeń	-11.0032
▁Sky	-11.0032
▁dwukrotnie	-11.004
▁mistrzostw	-11.0042
▁otwarcia	-11.0044
▁rytm	-11.0045
▁bowiem	-11.0055
PubMed	-11.0056
▁obrony	-11.0058
▁powyższe	-11.0058
▁wysłał	-11.0064
▁wątroby	-11.0065
▁terytorium	-11.007
▁zwiększenia	-11.0078
receptor	-11.0079
▁aromat	-11.0079
ięciu	-11.0081
▁Zastosowan	-11.0083
▁spojrzenie	-11.0092
▁Termin	-11.0096
▁całkowity	-11.0102
▁Kościoła	-11.0104
▁sprzyja	-11.0107
ART	-11.0113
▁Group	-11.0114
▁sałat	-11.0117
▁immuno	-11.0119
▁żony	-11.0121
▁Scott	-11.0121
▁chlor	-11.0126
▁kontrast	-11.0126
▁jesieni	-11.0127
▁produkcję	-11.0132
▁American	-11.0133
▁urządzeniu	-11.0141
▁YouTube	-11.0146
▁dziewięć	-11.0146
McC	-11.0172
▁Autor	-11.0174
▁Kobieta	-11.0185
▁osobowości	-11.0187
▁najwyraźniej	-11.019
▁jabł	-11.0192
▁wentylator	-11.0196
▁delikatnie	-11.02
▁aktualne	-11.0201
▁niemożliwe	-11.0202
▁szczególne	-11.0202
▁Niemniej	-11.0202
▁Studio	-11.0207
▁żadnym	-11.0214
▁zaprzecz	-11.0221
▁zainstalować	-11.0225
syntez	-11.0225
▁wnioski	-11.0226
ywną	-11.0234
▁zimne	-11.0235
▁sprawiedliwości	-11.0236
▁Syr	-11.0242
▁stosunek	-11.0243
▁poprawę	-11.0244
▁Powinien	-11.0244
▁Pojawi	-11.0244
▁bliżej	-11.0273
▁założyciel	-11.0278
▁obawia	-11.028
umiarkowa	-11.0281
▁polecenia	-11.0289
▁oczach	-11.029
OWY	-11.0292
▁Ocena	-11.0297
▁Archi	-11.0303
▁przecięt	-11.0304
▁utworzyć	-11.0308
▁maksymalnie	-11.0315
▁netto	-11.0316
▁Spotka	-11.0328
standard	-11.0333
▁organizacje	-11.0341
▁Wierz	-11.0341
▁oskarżony	-11.0341
▁najwięcej	-11.0343
▁niniejszego	-11.0345
▁reprezentują	-11.0357
▁przegap	-11.0358
▁ręką	-11.0365
▁księżyc	-11.0367
▁połowę	-11.0371
▁optymali	-11.0373
▁wzbudz	-11.0376
▁zużycie	-11.0378
▁nisko	-11.0382
▁mleka	-11.0384
▁twarde	-11.0387
OWE	-11.0388
▁elektroniczny	-11.0393
▁opublikował	-11.0409
▁Administr	-11.0413
▁gigant	-11.0416
▁studenci	-11.0425
▁jakichkolwiek	-11.0425
ollywood	-11.0428
▁spojrzał	-11.0431
▁wspólnie	-11.0439
▁opinie	-11.0442
▁Amazon	-11.0443
opcjonaln	-11.0444
▁Zakład	-11.0447
▁Pamięta	-11.0451
▁społeczny	-11.0452
▁obciążenie	-11.0466
▁wstrząs	-11.0468
▁Będą	-11.0473
▁śród	-11.0481
▁Grupy	-11.0483
▁chrześcijan	-11.0486
▁hasło	-11.0489
▁sufit	-11.0489
▁ubezpieczenia	-11.0496
krzyżowa	-11.0497
▁Miasto	-11.0499
▁rozprosz	-11.0502
▁studiu	-11.0504
▁stąd	-11.0508
tworzenia	-11.051
synchroniz	-11.0516
▁Wysoki	-11.0517
ręczny	-11.0518
▁niniejszej	-11.0521
▁rezygn	-11.0521
płynąć	-11.0527
▁najlepsza	-11.0531
▁DVD	-11.0534
▁dodatkową	-11.0539
▁odporność	-11.0547
▁deklar	-11.0554
ograni	-11.0557
▁wstecz	-11.0558
▁przyjemność	-11.0567
▁Właściwie	-11.0577
▁podwójny	-11.0582
▁armii	-11.0583
▁Fakt	-11.0583
▁Instagram	-11.0585
▁połowa	-11.0586
powiedział	-11.0593
spec	-11.0594
głup	-11.0595
▁znalezienie	-11.06
▁wariant	-11.0605
▁Człowiek	-11.0608
▁mieszanin	-11.0612
▁atmosfery	-11.0615
▁edycji	-11.0615
▁design	-11.062
▁tkanki	-11.0621
▁praktyczne	-11.0626
pisana	-11.0627
▁kontroler	-11.063
▁nierdzewnej	-11.0631
▁ziarn	-11.0631
▁pierwotne	-11.0636
▁Jones	-11.0636
▁przybliż	-11.0642
▁opowieści	-11.0651
Zarówno	-11.0662
tańcz	-11.067
▁zachodnie	-11.0677
▁wyobraża	-11.0679
▁potencjalnie	-11.0683
▁dzisiejsze	-11.0684
▁członkowskie	-11.0687
▁dotąd	-11.0691
▁zaczęło	-11.0693
▁zbudować	-11.07
▁cytryn	-11.07
▁awans	-11.0702
▁lepszą	-11.0703
▁spodoba	-11.0705
▁docelowe	-11.0707
▁warte	-11.0709
▁klasyczne	-11.071
▁Zaleca	-11.0722
▁kwestie	-11.0723
▁Ukrain	-11.0726
▁Instytut	-11.0734
▁umowę	-11.0747
▁wiążą	-11.0748
▁International	-11.0752
▁morderstw	-11.0757
▁potencjalnych	-11.0757
▁rysunku	-11.0759
▁przysięg	-11.0764
izacją	-11.0765
▁oświetlenie	-11.0766
▁ośmiu	-11.0767
▁zanurz	-11.0768
wołuje	-11.0772
▁osiągnięcie	-11.0772
▁zmusza	-11.0787
▁równy	-11.0787
▁wierzą	-11.0788
▁ekonomiczne	-11.0793
±	-11.0796
▁łask	-11.08
▁badawczy	-11.0809
▁tęskni	-11.0809
▁słabe	-11.0811
▁honor	-11.0817
▁niebezpieczne	-11.0821
▁Zastanawia	-11.0822
▁technologię	-11.0822
▁zagranicznych	-11.0825
▁ładny	-11.0825
▁grubości	-11.0827
▁córki	-11.083
przesył	-11.0835
▁brutal	-11.0838
▁Wkrótce	-11.084
▁pozwól	-11.0848
alergi	-11.0853
▁Spróbuj	-11.0854
▁potwierdził	-11.0862
▁chemiczne	-11.0868
▁wzrosła	-11.0872
▁sojusz	-11.0872
▁potężny	-11.0874
▁Widok	-11.0876
toleran	-11.0879
▁Szybko	-11.088
▁Qua	-11.0881
▁odkąd	-11.0889
▁dawno	-11.089
kładki	-11.0893
▁reprezentuje	-11.0898
▁gatunku	-11.0908
▁wagę	-11.0909
▁ubiega	-11.0909
▁przeprowadzone	-11.0912
▁Teksas	-11.0916
▁niesamowicie	-11.0922
▁nadchodzący	-11.0923
▁kwalifikacj	-11.0924
▁południu	-11.0924
▁podziwia	-11.0931
▁Możliwość	-11.094
licenc	-11.0941
▁kawałki	-11.0946
▁talerz	-11.0956
wstyd	-11.0961
morski	-11.0963
▁Przepraszam	-11.0964
▁pomidor	-11.0967
▁cieszę	-11.0967
▁kliniczne	-11.0968
migrant	-11.0969
▁objętości	-11.0972
▁koncepcji	-11.0974
▁powodem	-11.0984
dopodobieństwo	-11.0985
▁nagród	-11.0986
▁resztę	-11.0992
▁słup	-11.0996
▁należał	-11.0999
▁usunięcia	-11.1004
▁ludzkich	-11.1014
▁urlop	-11.1017
▁niezależne	-11.102
▁łóżko	-11.1024
▁Fotografia	-11.1025
▁spożywczy	-11.103
▁gniew	-11.1033
▁sześcio	-11.1047
▁dystans	-11.1054
▁związki	-11.106
cyjno	-11.1061
market	-11.1062
▁portret	-11.1063
▁łatwością	-11.1065
cisnąć	-11.1074
▁wysoce	-11.1076
▁narodowe	-11.1077
kompatybil	-11.1078
▁dodatek	-11.1085
▁prywatności	-11.109
trzymywać	-11.1095
niesione	-11.1104
▁azot	-11.1105
▁istniejących	-11.1107
▁akcent	-11.1107
Pozosta	-11.1114
▁rozgrywa	-11.1121
▁zaopatrz	-11.1122
▁proszk	-11.1131
▁niniejszym	-11.1135
free	-11.1139
fałsz	-11.114
▁rozległ	-11.114
▁[…]	-11.1154
▁szkolne	-11.1156
▁ustalić	-11.1157
czyścić	-11.1165
chrześcijański	-11.1167
▁produkcyjny	-11.1178
▁słoneczny	-11.1178
▁publikacji	-11.118
▁twierdz	-11.1188
▁kategoria	-11.1189
▁siedząc	-11.1192
▁łożysk	-11.1194
▁fajnie	-11.1198
³	-11.12
▁wyświetlić	-11.12
▁finał	-11.1205
▁przestał	-11.1207
jprawdopodobniej	-11.1208
▁spręż	-11.1212
▁wokal	-11.1214
▁siedzibą	-11.123
teoretyczn	-11.1238
▁Niniejsz	-11.1248
▁Poziom	-11.1251
▁Akademi	-11.1257
▁dziennikarz	-11.1283
▁drewniany	-11.1284
▁cóż	-11.1285
▁tatuaż	-11.129
▁piątk	-11.1292
▁odcinek	-11.1295
▁zaczęły	-11.1298
▁Bluetooth	-11.13
▁Samsung	-11.13
▁wypowiedzi	-11.1301
▁Edward	-11.1305
▁samochodem	-11.1306
▁transmisji	-11.1309
▁audyt	-11.1316
▁dominują	-11.1322
▁mobilne	-11.1328
▁odnowi	-11.1335
▁zgodności	-11.1344
▁naturalnie	-11.1346
▁Rzeczywiście	-11.1353
▁muzeum	-11.1364
▁dyspozycji	-11.1369
▁wrześniu	-11.1369
Kiedy	-11.137
▁powita	-11.1374
skrom	-11.1378
poszerz	-11.138
§	-11.138
▁kryteria	-11.1389
Chłop	-11.1393
▁obserwacji	-11.1394
▁oficjalne	-11.1394
▁Pozwala	-11.14
▁Zwiększ	-11.14
▁anten	-11.1402
▁skuteczność	-11.1402
▁czap	-11.1416
▁preparat	-11.1419
▁ręcznik	-11.1419
▁emocji	-11.1422
▁grecki	-11.1431
▁doskonałą	-11.1433
▁młodszy	-11.1436
▁identyfikator	-11.1441
▁początkowe	-11.1444
▁korytarz	-11.1449
▁zjeść	-11.1451
hydrauliczn	-11.1452
▁żółty	-11.1452
▁projekcie	-11.1458
▁sprząta	-11.1461
▁formacie	-11.1462
▁śledztw	-11.1466
▁patrząc	-11.1471
▁pęcherz	-11.1472
▁laboratorium	-11.1474
hydr	-11.1475
▁usłyszeć	-11.148
▁stężenia	-11.1486
▁tworzeniu	-11.1486
global	-11.1487
▁szóst	-11.1489
▁regularne	-11.1499
▁Urządzenie	-11.15
▁zmęczeni	-11.1502
▁fajne	-11.1503
▁Obsługa	-11.1508
▁łóżku	-11.1509
▁wyposa	-11.1509
▁ostateczne	-11.1509
▁uległ	-11.1514
▁chorobą	-11.1519
▁minimalne	-11.1521
▁wczesnych	-11.1528
▁awaryjn	-11.153
▁atrybut	-11.153
▁poprawnie	-11.1532
▁zaawansowane	-11.1533
▁równowagi	-11.1544
▁wniosków	-11.1548
▁instrukcja	-11.1558
▁rozmowa	-11.1567
▁Musiał	-11.1571
▁Sprawdz	-11.1572
▁wezwani	-11.1573
▁badawcze	-11.1587
▁związana	-11.1604
fizjo	-11.161
▁matematyk	-11.1615
czątko	-11.1624
▁przygotowany	-11.1625
▁odpadów	-11.1625
▁Mistrz	-11.1625
▁żydowski	-11.1627
▁Bądź	-11.1629
▁dowolnej	-11.163
▁cebul	-11.1631
▁żadna	-11.1632
▁równe	-11.1634
▁posiłek	-11.1635
▁fascyn	-11.1637
▁rozmowę	-11.1649
▁Wiadomo	-11.1649
oficjalny	-11.1649
▁zwiększone	-11.1649
▁obietnic	-11.1655
przyzwoit	-11.1655
▁asystent	-11.1657
▁pogrzeb	-11.1657
▁Trzeci	-11.1663
▁prawdziwą	-11.1669
▁kompozyt	-11.1671
▁styczniu	-11.1677
▁zespołów	-11.1677
trzymywał	-11.1678
▁południowo	-11.168
turystyczn	-11.1683
▁towarzystw	-11.1689
▁obejmować	-11.1691
▁Około	-11.1692
▁zapomina	-11.1694
▁Element	-11.1697
▁uszczelni	-11.1709
▁drewniane	-11.1714
▁oczami	-11.1722
▁pewna	-11.1723
▁traktowani	-11.1728
▁uprawnienia	-11.1737
▁czerwcu	-11.174
▁spowoduje	-11.174
▁stół	-11.1742
▁długą	-11.1749
▁chemiczny	-11.175
Zielon	-11.1751
▁kryształ	-11.1754
▁bieżące	-11.1764
▁związków	-11.1766
▁dywan	-11.1777
▁Jork	-11.1783
▁drobny	-11.179
▁prawdziwa	-11.1792
▁plakat	-11.1796
nięto	-11.1797
▁suplement	-11.18
▁budowę	-11.1803
strzyg	-11.1806
▁uczęszcza	-11.1806
▁ranking	-11.1808
▁pacjenci	-11.1812
▁świadczenia	-11.1815
▁walczą	-11.1818
▁rdzeni	-11.1822
▁kierunek	-11.1823
indywidu	-11.1824
▁niewielką	-11.1826
▁niezwykłe	-11.1826
▁łazienka	-11.1832
▁gubernator	-11.1835
▁usunięcie	-11.184
▁zespoły	-11.1841
▁głowic	-11.1844
▁indziej	-11.1844
▁głowa	-11.185
▁przeciwciał	-11.185
▁zrównoważone	-11.1853
klasyfikowa	-11.1853
▁wybrani	-11.1853
▁skuteczności	-11.1864
***	-11.1864
▁łazienki	-11.1887
▁mlecz	-11.1887
▁księż	-11.1917
▁podobno	-11.1925
▁Aktyw	-11.1928
▁podręcznik	-11.1928
▁gwarantuje	-11.1929
▁Najlepszy	-11.1931
▁przejdź	-11.1932
▁oboje	-11.1932
▁uwierzyć	-11.1934
▁Trybunał	-11.1945
pyszn	-11.1946
▁przecież	-11.1964
Ń	-11.1969
▁ogień	-11.1973
▁wynajm	-11.1984
▁odmówił	-11.1989
▁najbliższe	-11.1992
▁Kanady	-11.1993
▁opinię	-11.1998
▁podatkowe	-11.1999
▁wątpienia	-11.2001
wspóln	-11.201
▁idealna	-11.2011
▁zapamięta	-11.2013
▁pyszne	-11.2016
▁warunkami	-11.2019
▁szczur	-11.202
▁lotnicze	-11.2021
×	-11.2021
▁reakcja	-11.2031
▁Piotr	-11.2031
▁wyraźne	-11.2032
Atlant	-11.2034
Komuni	-11.2038
▁Apartament	-11.2042
▁Naciśnij	-11.2045
▁infrastruktury	-11.2048
▁ciepły	-11.2048
▁skutków	-11.2057
▁religii	-11.2063
▁koncentrac	-11.2064
▁hybryd	-11.2066
▁emocje	-11.2072
▁Tobą	-11.208
dentyfikowa	-11.2086
▁federalny	-11.2086
▁Global	-11.2086
▁opublikowany	-11.2088
▁Polecam	-11.209
▁komiks	-11.2091
▁litr	-11.2095
▁gładki	-11.2099
pułk	-11.21
▁dąży	-11.2103
▁wyraźny	-11.2105
▁kontynuuj	-11.2107
▁kradzież	-11.2108
▁zajmie	-11.2111
▁docelowy	-11.2112
▁pierwotnie	-11.2119
▁niebezpieczny	-11.2121
▁cytat	-11.2128
▁Główne	-11.2136
▁ostateczny	-11.2138
▁osiągnął	-11.2143
▁przewagę	-11.2146
▁siostra	-11.2149
absolut	-11.2154
▁Wszelkie	-11.2155
›	-11.2161
▁Jednocześnie	-11.2167
▁gatunki	-11.2173
▁instrukcje	-11.2176
▁konkurencji	-11.2176
▁białko	-11.2177
▁napoje	-11.2182
▁korekt	-11.2184
▁identyfikacji	-11.2185
|	-11.2185
▁realist	-11.2186
▁smaż	-11.2198
▁miecz	-11.2202
▁grudniu	-11.2206
▁Pomaga	-11.2212
▁umiejętność	-11.2218
▁sukienka	-11.2218
▁miedzi	-11.222
▁świetną	-11.2224
▁intensywne	-11.223
▁zdarzeń	-11.223
▁licencja	-11.223
▁ciemny	-11.223
▁znajomych	-11.2236
cykl	-11.2237
▁konsekwencje	-11.2242
▁rozpoczęcia	-11.2248
▁odsetek	-11.2251
PRAW	-11.2253
▁oskarżeni	-11.2257
▁cookie	-11.2258
▁wyposażenie	-11.2266
▁wyrusz	-11.2266
▁młoda	-11.2269
▁atmosfera	-11.2287
▁wyobraźni	-11.2287
▁komercyjnych	-11.2287
▁jakiejkolwiek	-11.229
▁budynki	-11.229
▁pewną	-11.2296
▁leżąc	-11.2299
▁użył	-11.2304
▁poniższe	-11.231
▁League	-11.2317
▁patrzeć	-11.2326
▁Region	-11.2327
▁korzyść	-11.2329
▁długoterminowe	-11.2332
▁Afryki	-11.2332
▁rękawic	-11.2335
▁zastosowano	-11.2345
▁trzema	-11.2349
▁makaron	-11.236
▁zmniejszenia	-11.2363
lezieni	-11.2365
▁Darmowe	-11.2378
▁piętrze	-11.2379
personal	-11.2379
▁podatkowy	-11.238
▁zimno	-11.2383
▁wydatków	-11.2384
eczkę	-11.2387
pamiętn	-11.2389
▁społeczeństwo	-11.2392
▁zespole	-11.2393
▁nadmiar	-11.2395
nictwem	-11.2402
▁Prezent	-11.2406
▁załatwi	-11.2406
▁podłogi	-11.2406
▁Pracuj	-11.2416
▁Dopiero	-11.2421
▁pudełko	-11.2422
święceni	-11.2423
▁czwarty	-11.2424
▁obejrzeć	-11.2424
▁praktyczny	-11.2424
▁piosenek	-11.2427
▁odbiorców	-11.243
implement	-11.2433
▁znacząco	-11.2436
▁Odpowiedź	-11.2442
▁Świąt	-11.2445
▁Ciąg	-11.2446
▁Parlament	-11.2448
oczyszcz	-11.245
▁energetyczne	-11.2452
▁niektórym	-11.2452
▁edukacyjny	-11.2461
▁rozpocznie	-11.2473
▁Najlepsze	-11.2498
▁tradycji	-11.2498
▁obrażeń	-11.251
▁gwarancji	-11.2513
eczko	-11.2513
▁przod	-11.2514
▁giełd	-11.252
▁komuś	-11.252
▁relacja	-11.2529
SQL	-11.253
▁posiłki	-11.2535
▁Cross	-11.2542
▁Sklep	-11.2551
▁bezprzewodowy	-11.2558
▁otwarta	-11.256
▁Właściciel	-11.2563
▁korzystne	-11.2563
sympat	-11.2564
▁odcinka	-11.2575
▁bieżąco	-11.2578
▁Tryb	-11.2581
▁aluminium	-11.2581
€	-11.2591
kontakt	-11.2595
▁Irlandii	-11.2597
▁Royal	-11.2597
▁umieszczony	-11.26
▁Równ	-11.2608
▁bojow	-11.2609
▁kosmetyk	-11.2609
▁Biały	-11.2611
▁koncentruje	-11.2616
▁rezyd	-11.2617
▁pomyśleć	-11.2619
▁kwietniu	-11.2622
▁opracowywa	-11.2628
▁wydarzyło	-11.2628
▁skutku	-11.2629
dejście	-11.2629
▁wersje	-11.2633
▁awarii	-11.2635
▁liceum	-11.2638
▁energia	-11.2638
▁ekonomiczny	-11.2642
▁fałszywe	-11.2644
▁krytyczny	-11.2644
Book	-11.2648
▁koktajl	-11.265
rzucony	-11.2653
▁dokładny	-11.2653
▁powszechny	-11.2656
religijny	-11.2656
▁ukierunk	-11.2656
▁Smart	-11.2663
▁technologie	-11.2679
▁delikatny	-11.2681
▁nurkow	-11.2684
▁gorąco	-11.2688
▁Punkt	-11.2689
▁Zmiana	-11.2696
Społeczn	-11.2701
dokument	-11.2713
▁Niedawno	-11.2716
▁podobieństw	-11.2722
prysk	-11.2731
▁drewno	-11.2732
▁korpus	-11.2732
▁Trochę	-11.2738
▁zwolennik	-11.2741
▁fryzur	-11.2748
▁listopadzie	-11.2754
▁sekwencji	-11.2754
punkt	-11.2756
▁piekarnik	-11.2761
▁pomógł	-11.277
▁poszukiwaniu	-11.2773
▁Aplikacja	-11.2773
▁samochodowe	-11.2773
▁dodatni	-11.2778
▁usłysz	-11.2778
▁fizyk	-11.2781
▁rekomend	-11.2792
▁Company	-11.2792
▁partnerstw	-11.2794
▁ziemniak	-11.2797
▁fitness	-11.2798
▁recykling	-11.2808
przeciw	-11.2809
▁karierze	-11.2818
▁konsoli	-11.2822
▁przyjemny	-11.2822
▁mleko	-11.2825
▁poświęca	-11.2827
▁przeanalizowa	-11.2837
▁poślubi	-11.284
▁istnieć	-11.284
▁nośnik	-11.2844
▁koncepcja	-11.2853
▁kondycj	-11.2863
▁kręgosłup	-11.2872
▁Możliwe	-11.2882
▁rozporządzenia	-11.2904
▁religijne	-11.2907
▁jadalni	-11.2921
▁funkcją	-11.2923
▁minimum	-11.2924
▁odcinku	-11.293
▁Numer	-11.2932
▁Disney	-11.2933
▁publiczność	-11.2936
▁niezwykły	-11.2936
▁kontynent	-11.2939
▁treść	-11.2943
▁edukacyjne	-11.2946
▁zbrodni	-11.2947
▁błysk	-11.2948
▁skrót	-11.295
▁świadectw	-11.2956
▁opublikowane	-11.2958
▁elastyczność	-11.2978
▁obrębie	-11.2978
▁królestw	-11.2982
▁rzeczywistość	-11.2985
▁błyskawic	-11.2987
▁Business	-11.2988
▁rozrywki	-11.2991
▁Układ	-11.2992
▁szkołę	-11.3008
▁skazany	-11.3011
▁administracji	-11.302
▁drobne	-11.3023
▁fiolet	-11.3024
▁zwalcza	-11.3031
wołując	-11.3031
▁rocznic	-11.3033
▁weryfikacj	-11.3034
▁uzgodni	-11.3034
▁skurcz	-11.3034
▁pokolenia	-11.3037
▁inteligentny	-11.3043
analiz	-11.3044
▁Szwajcar	-11.3046
▁początkowy	-11.3047
▁umieszczone	-11.305
▁Office	-11.3053
▁Zabaw	-11.3056
▁wykazało	-11.3057
afrykański	-11.3069
▁parlament	-11.3069
▁członkowskich	-11.3076
▁współpracuje	-11.3076
▁romans	-11.3077
Wyjaśni	-11.3081
plazm	-11.3081
©	-11.3082
sprawiedliwi	-11.3082
μ	-11.3086
▁świadomy	-11.3086
▁kalibr	-11.3093
▁żywność	-11.3103
▁oficjalnie	-11.3105
▁zachowuje	-11.311
▁pielęgnacji	-11.3112
▁utratę	-11.3112
▁gęstości	-11.3115
▁dostarczyć	-11.3116
▁Kanadzie	-11.3116
▁systematyczn	-11.3118
▁odbiornik	-11.3119
▁Będę	-11.3122
▁hipotez	-11.3122
▁tętnic	-11.3125
▁zabójstw	-11.313
gwiazd	-11.3141
▁sierpniu	-11.3145
▁kilometrów	-11.3155
▁Dokument	-11.3155
—	-11.3278
️	-11.3294
α	-11.3301
“	-11.4995
•	-12.0078
​	-12.1873
